, 4190950
the 3272197
的 2245602
of 1812253
. 1730163
and 1581309
。 1286852
to 1126363
in 979183
a 754015
( 661304
) 659700
， 617198
在 500910
&quot; 474403
for 428019
- 423068
和 411056
is 409624
on 407114
that 355475
、 309328
" 301234
了 294419
with 291556
是 286981
s 279039
by 268710
&apos; 268003
be 260959
: 253122
as 248633
; 239559
or 234931
at 210458
will 194361
及 189803
it 186714
are 183721
this 178158
对 173675
为 171560
an 171169
from 166549
与 162770
has 162129
was 159490
have 156494
china 155531
中 152199
有 143462
或 142786
中国 138670
not 135684
他 130369
上 126135
/ 122412
人 122107
he 122038
将 121484
1 119472
2 117208
said 115927
发展 110032
people 105922
we 105405
说 105378
their 105168
The 105051
which 101995
all 99041
its 98479
并 95601
3 94310
我们 93583
以 93326
also 92742
一个 90865
new 88737
而 88005
were 87707
“ 87136
就 86698
” 85381
one 85274
该 85205
会 84625
development 84498
年 84270
two 83488
us 80481
hong 80296
要 80090
进行 79952
kong 79149
his 78947
等 78666
不 78425
也 77972
我 77923
up 77740
out 77374
shall 77313
问题 77280
they 76577
i 76530
于 76022
been 75720
A 75690
government 75559
other 74647
can 74546
year 74178
should 73632
s@@ 73540
any 73430
香港 73283
时 71775
chinese 71300
e 71077
〇 70728
有关 68221
more 67980
政府 67870
工作 67245
一@@ 67065
taiwan 67035
under 66817
may 66647
t 66182
such 66111
第 66091
由 66083
到 65794
性 65397
经济 65224
between 64458
美国 64130
% 63937
our 63623
地 63318
er 62886
4 62790
? 62384
time 61632
后 61571
economic 61542
月 61159
研究 59526
向 59413
下 59341
都 59325
b@@ 59276
-@@ 59222
in@@ 59116
新 59024
所 58516
work 57797
可 56690
国家 56609
y@@ 56545
party 56165
p@@ 55832
m@@ 55777
其 55701
S@@ 55471
system 55395
after 55391
T@@ 54997
5 54771
but 54267
不@@ 53850
you 53598
任何 53407
who 53380
re@@ 53198
public 52762
P@@ 52586
已 52112
这 52048
so 52022
into 51380
es 51078
ing 50803
countries 50682
从 50663
had 50605
他们 50453
g@@ 50171
than 49995
made 49965
c@@ 49793
about 49371
t@@ 49259
被 48746
if 48676
10 48539
there 48207
b 48145
over 47457
你 47444
但 46708
大@@ 46703
first 46625
d@@ 46567
I 46383
6 46290
state 45938
no 45789
C@@ 45711
M@@ 45597
years 45590
L@@ 45249
表示 45202
ed 45127
&apos;s 45088
some 44902
内 44869
日 44813
o@@ 44461
A@@ 44209
would 44163
y 43867
three 43813
world 43772
D@@ 43617
when 43422
可以 43215
B@@ 42846
根据 42806
用 42172
foreign 42098
ation 42072
H@@ 41921
m 41606
提供 41433
department 41389
能 41320
al 41260
来 41080
relations 40971
n@@ 40896
把 40867
today 40808
— 40777
only 40602
these 40230
united 40200
k@@ 39981
以及 39699
中@@ 39687
w@@ 39683
committee 39653
un@@ 39511
must 39500
关系 39410
计划 39374
系统 39179
international 39030
al@@ 38884
trade 38871
公司 38695
情况 38585
包括 38405
national 38106
make 38097
e@@ 38042
没有 37974
f@@ 37877
服务 37707
country 37658
二 37518
委员会 37442
military 37398
c 37386
合作 37246
F@@ 37214
d 37097
则 37004
7 36993
states 36819
国际 36754
者 36598
end 36581
一 36536
须 36423
法 36409
重要 36176
l@@ 35989
台湾 35969
还 35893
during 35874
law 35786
G@@ 35715
企业 35090
&#91; 35087
N@@ 35042
an@@ 35003
规定 34999
i@@ 34938
8 34879
影响 34821
r@@ 34653
其他 34617
well 34612
them 34477
方法 34394
社会 34371
至 34338
分析 34197
通过 34191
road 34190
个 34113
through 34084
方面 34071
大 34037
这个 33879
o 33853
n 33836
建设 33822
使 33660
cooperation 33567
出 33541
会议 33498
提出 33437
&#93; 33427
section 33215
[ 33095
条 33081
st@@ 32909
important 32869
g 32819
化 32800
道 32691
high 32669
meeting 32658
$ 32565
h@@ 32518
度 32478
要求 32402
use 32356
order 32273
地区 32110
information 32099
着 32091
p 32059
president 31850
子 31610
R@@ 31499
central 31477
3@@ 31362
ate 31231
do 31175
political 31157
] 30948
加强 30929
多 30922
主要 30861
person 30684
E@@ 30655
技术 30562
market 30324
号 30290
前 29986
高@@ 29946
! 29928
如 29885
更 29862
members 29843
P 29698
活动 29575
本 29489
管理 29443
安全 29421
k 29400
量 29386
both 29299
’ 29191
认为 29063
这些 28708
必须 28689
9 28664
a@@ 28622
条例 28558
take 28490
本@@ 28488
able 28463
可能 28431
人民 28396
general 28340
long 28237
教育 28173
需要 28133
last 28028
en@@ 28013
council 27960
区 27924
时间 27862
作出 27805
20 27747
further 27673
世界 27673
电@@ 27627
2@@ 27590
12 27530
使用 27496
0 27471
组织 27424
good 27412
ting 27401
great 27291
亦 27165
security 27158
as@@ 27107
水@@ 27058
services 27009
器 26983
人士 26949
way 26897
technology 26822
作为 26801
education 26787
according 26708
day 26676
ts 26629
O@@ 26557
er@@ 26548
l 26485
0.@@ 26478
service 26440
v@@ 26161
control 26153
W@@ 26020
主席 25987
她 25875
ers 25857
same 25727
being 25710
th@@ 25669
before 25658
number 25611
issue 25579
many 25538
level 25533
好 25524
ar@@ 25455
dis@@ 25440
处 25436
L 25417
police 25327
situation 25312
very 25312
4@@ 25260
市场 25124
those 25116
various 25114
against 25108
while 25080
period 25059
人@@ 25023
30 25004
进一步 25004
ac@@ 24988
building 24980
V@@ 24965
since 24930
体 24930
el@@ 24844
water 24843
u@@ 24795
social 24769
policy 24703
11 24659
report 24631
ch@@ 24600
小@@ 24527
set 24392
一些 24385
jiang 24346
group 24304
used 24249
ti@@ 24215
_ 24125
visit 24101
人员 24086
法律 24071
它 24058
ic 24051
mr 24012
机 23986
又 23966
ro@@ 23806
机构 23796
ted 23781
enterprises 23731
or@@ 23728
应 23710
提高 23669
beijing 23625
support 23575
en 23556
继续 23554
business 23535
政策 23518
15 23510
In 23488
Y@@ 23418
construction 23329
ated 23258
处理 23235
同时 23198
给 23184
management 23183
including 23180
上@@ 23171
分@@ 23166
ating 23138
多@@ 23130
li 23107
each 23066
most 22890
自己 22867
指出 22835
am@@ 22796
实现 22785
去 22763
di@@ 22761
点 22700
有@@ 22643
economy 22637
举行 22630
三@@ 22547
U@@ 22524
‘ 22503
） 22458
now 22455
th 22452
地@@ 22451
（ 22432
代表 22381
无@@ 22371
region 22333
D 22329
》 22286
co@@ 22277
所有 22274
following 22273
《 22255
今日 22244
名 22217
特别 22145
5@@ 22077
on@@ 22026
&apos;@@ 22024
held 22019
it@@ 22005
已经 21949
作 21945
still 21910
part 21868
建立 21860
at@@ 21823
mainland 21779
what 21725
一种 21667
percent 21653
age 21573
areas 21526
major 21519
case 21498
政治 21483
因 21435
外@@ 21416
total 21391
很 21390
de@@ 21384
率 21315
可@@ 21271
z@@ 21270
组 21186
不同 21121
him 21120
power 21104
her 21081
就是 20979
secretary 20966
措施 20946
could 20875
让 20865
u 20862
发@@ 20819
financial 20780
five 20780
作用 20778
Article 20763
环境 20745
2000 20672
投资 20656
今天 20648
里 20582
right 20543
9@@ 20507
北京 20498
within 20482
对@@ 20468
E 20451
约 20418
线 20367
study 20361
各 20321
水 20293
基础 20282
发言人 20275
希望 20226
special 20211
efforts 20160
应用 20145
决定 20137
条件 20092
your 20084
长 20079
起 20017
sh@@ 20016
力 20003
部 19990
得 19989
1@@ 19978
B 19968
ic@@ 19961
我国 19946
sub@@ 19941
office 19939
reform 19925
设计 19910
发生 19898
issued 19832
增加 19826
新@@ 19824
支持 19823
国 19781
ine 19775
结果 19773
sides 19740
如果 19737
市民 19732
relevant 19725
工程 19716
外 19702
双方 19660
目前 19652
中心 19646
rights 19640
even 19624
具有 19624
industry 19596
日本 19565
where 19542
高 19537
较 19522
部门 19509
成为 19506
like 19502
news 19484
型 19401
S 19383
0@@ 19332
均 19285
measures 19264
今年 19262
activities 19238
经 19219
man 19212
however 19188
spokesman 19183
billion 19175
分别 19174
申请 19174
款 19148
分 19146
down 19053
合@@ 19049
或者 19044
6@@ 19018
文化 19014
其中 19011
quality 19000
8@@ 18954
ul@@ 18875
company 18852
比 18836
local 18833
成 18825
物 18789
开始 18783
operation 18765
million 18745
rate 18699
ad@@ 18663
different 18661
R 18652
稳定 18603
最 18602
is@@ 18595
方式 18582
es@@ 18564
because 18562
面 18551
ant 18547
then 18534
land 18515
例 18478
am 18456
之 18380
T 18364
文 18357
force 18330
建议 18303
she 18278
局 18262
两@@ 18254
air 18244
改革 18227
area 18207
large 18198
实施 18193
於 18183
OF 18181
ol@@ 18178
how 18168
h 18155
method 18142
之间 18132
human 18121
ar 18077
x 18030
取得 18024
ter 18009
制度 17976
necessary 17937
过 17924
-- 17913
及其 17894
le 17885
由于 17868
forces 17855
解决 17821
be@@ 17788
位 17778
li@@ 17753
党 17746
my 17733
minister 17727
results 17727
second 17722
地方 17703
7@@ 17694
定 17682
training 17680
16 17679
三 17664
14 17648
C 17636
tion 17620
江泽民 17620
strait 17598
increase 17566
present 17542
细@@ 17503
报告 17493
同 17462
whether 17458
生@@ 17434
期间 17428
put 17415
conditions 17411
间 17403
affairs 17390
原则 17306
21 17297
式 17297
副 17293
机@@ 17276
学 17256
； 17197
process 17194
总统 17171
become 17157
bl@@ 17148
结构 17148
se@@ 17134
达 17104
developing 17089
hk 17054
plan 17053
记者 17021
japan 17009
出@@ 16969
署 16913
ri@@ 16908
二@@ 16904
13 16889
among 16883
continue 16845
j@@ 16839
利用 16828
新华社 16823
su@@ 16822
+ 16811
制 16809
cases 16782
past 16771
side 16765
访问 16748
资料 16728
ph@@ 16697
调查 16697
without 16682
部分 16671
： 16670
警方 16667
水平 16652
application 16649
based 16630
自@@ 16617
xinhua 16593
lo@@ 16581
单位 16517
程序 16501
old 16475
文@@ 16468
当 16458
provide 16456
18 16444
departments 16429
促进 16403
M 16400
defense 16393
ent 16378
investment 16339
place 16293
own 16209
事 16199
life 16184
家 16181
产品 16174
获 16172
1999 16151
加@@ 16148
means 16132
ab@@ 16128
problems 16121
ve 16095
25 16087
war 16077
health 16069
making 16063
principle 16060
bo@@ 16054
le@@ 16015
国@@ 16015
性@@ 15984
days 15961
之@@ 15959
完二 15933
十@@ 15919
administration 15903
期 15901
um 15884
海@@ 15882
和平 15867
It 15857
per 15832
做 15830
chairman 15826
paper 15805
research 15761
zemin 15750
能力 15750
issues 15711
the@@ 15684
权 15684
下@@ 15665
ap@@ 15654
过程 15654
公@@ 15632
me 15610
K@@ 15600
line 15597
peace 15534
pl@@ 15514
x@@ 15510
value 15495
tic 15479
member 15464
ded 15442
authorities 15437
50 15417
不能 15404
con@@ 15403
growth 15396
历史 15376
思想 15372
以下 15364
领导 15231
心@@ 15209
production 15205
interests 15204
basic 15180
基@@ 15163
因为 15162
出现 15154
using 15149
这@@ 15148
内@@ 15146
受 15131
安排 15117
another 15116
um@@ 15111
im@@ 15109
current 15095
得到 15090
目标 15090
2001 15047
future 15039
just 15029
这种 15028
贸易 15026
H 15025
增长 14998
行动 14981
traffic 14975
东@@ 14966
开@@ 14957
文件 14956
光@@ 14954
less 14947
属 14940
op@@ 14932
ding 14923
city 14914
目的 14911
per@@ 14902
明@@ 14897
tr@@ 14884
four 14878
存在 14858
日电 14852
但是 14842
修订 14840
采用 14792
控制 14788
si@@ 14784
市 14772
exchange 14770
O 14747
f 14708
以@@ 14693
pointed 14688
车 14673
管 14636
成@@ 14622
ical 14606
头 14600
发现 14596
I@@ 14573
id 14563
生产 14529
17 14528
比较 14497
march 14491
products 14474
agency 14463
接受 14438
mo@@ 14411
This 14405
cross 14403
here 14394
give 14388
off 14371
坚持 14367
天@@ 14334
ment 14313
need 14307
法@@ 14294
see 14288
参加 14274
em@@ 14268
斯 14260
重@@ 14257
forward 14231
promote 14231
given 14227
court 14218
ly 14205
生 14201
积极 14201
员 14186
century 14173
级 14173
om@@ 14129
关于 14122
现在 14113
every 14102
environment 14091
因此 14082
意见 14076
effect 14039
point 14007
june 14006
特@@ 14004
he@@ 14000
路 13982
改善 13956
生活 13955
开发 13953
不断 13947
go 13945
所@@ 13945
help 13938
joint 13923
行 13877
question 13869
april 13866
天 13863
不是 13852
19 13850
me@@ 13838
值 13837
sino 13821
受@@ 13816
去年 13784
de 13775
美 13773
pro@@ 13772
项目 13772
basis 13770
form 13765
四@@ 13761
采取 13761
community 13759
呢 13756
原@@ 13722
accordance 13698
自 13687
长@@ 13683
officers 13624
te@@ 13621
se 13610
act 13602
legal 13599
业 13599
正 13598
再 13577
24 13560
safety 13556
反@@ 13545
动@@ 13542
有效 13489
science 13470
ter@@ 13456
@ 13441
执行 13441
structure 13440
stability 13414
opening 13413
And 13405
种 13394
按照 13383
red 13381
wto 13371
一年 13370
标准 13368
应当 13358
respect 13356
元 13342
完成 13340
develop 13331
成员 13323
ex@@ 13295
open 13282
19@@ 13272
improve 13271
related 13267
systems 13260
cl@@ 13232
什么 13227
vice 13205
发 13202
时@@ 13172
理论 13134
whole 13108
保持 13090
cpc 13086
taken 13083
两国 13082
found 13081
传@@ 13077
血@@ 13071
N 13068
full 13054
China 13047
os@@ 13043
明 13032
这样 13032
r 13023
common 13016
测@@ 12997
内地 12996
介绍 12992
两个 12960
role 12948
july 12940
did 12928
那 12905
按 12881
ec@@ 12867
western 12847
main 12826
行@@ 12794
months 12793
regulations 12791
同@@ 12791
万@@ 12789
为了 12788
leading 12786
action 12783
光 12757
应@@ 12748
不会 12746
定@@ 12743
ra@@ 12731
表明 12728
强调 12713
ous 12699
社会主义 12697
西@@ 12696
前@@ 12692
administrative 12690
利益 12678
el 12677
共同 12677
上述 12665
推动 12642
获得 12641
变@@ 12614
ch 12613
五@@ 12608
possible 12594
总@@ 12581
马@@ 12572
单@@ 12563
能够 12563
转@@ 12559
─ 12558
公布 12546
come 12544
goods 12544
想 12524
ag@@ 12515
件 12513
只 12494
科技 12487
保护 12483
director 12471
以来 12469
数 12467
change 12443
@-@ 12422
曾 12420
层 12417
胞 12400
事件 12395
尔 12395
会见 12394
working 12386
书 12384
全国 12382
电 12381
一项 12372
学生 12349
即 12347
对于 12334
场 12331
努力 12314
这是 12313
chief 12299
领域 12286
low 12282
cadres 12281
back 12276
practice 12275
相@@ 12269
il@@ 12267
范围 12254
主@@ 12248
显示 12247
increased 12230
led 12228
food 12225
~ 12222
always 12213
22 12209
23 12203
交通 12196
2002 12194
气 12194
符合 12187
concerned 12180
方 12177
严重 12172
school 12170
质 12169
next 12138
third 12135
品 12135
2005 12130
south 12130
动 12127
数@@ 12115
project 12091
ds 12084
令 12066
la@@ 12051
upon 12050
position 12032
ties 11994
金 11992
· 11988
理 11986
strengthen 11975
制@@ 11975
站 11963
入 11954
以上 11953
打@@ 11953
拉@@ 11949
january 11948
正在 11937
leaders 11934
立法会 11930
次 11929
们 11916
是否 11913
term 11871
一名 11867
信息 11865
该@@ 11864
行为 11862
ity 11859
september 11855
society 11850
1.@@ 11845
考虑 11826
收@@ 11823
银行 11810
全面 11800
土地 11800
小 11800
车辆 11800
levels 11795
army 11792
provided 11778
色 11778
He 11775
key 11773
Y 11767
data 11764
此 11758
J@@ 11747
resources 11729
据 11719
conference 11697
看 11668
added 11659
仍 11649
复@@ 11648
independence 11645
history 11644
commission 11632
像 11613
公众 11596
而且 11595
personnel 11578
higher 11575
result 11567
过去 11559
po@@ 11550
日@@ 11550
不得 11539
ot@@ 11535
两岸 11533
get 11510
ir@@ 11506
总理 11505
japanese 11503
直接 11502
east 11499
scientific 11484
素 11481
体@@ 11477
asia 11470
美@@ 11467
类 11463
projects 11458
学习 11457
资源 11452
健康 11446
persons 11443
2004 11442
造成 11438
成立 11429
如何 11423
does 11421
talks 11420
ne@@ 11412
ensure 11409
两 11385
above 11372
capital 11372
手 11365
domestic 11354
par@@ 11354
developed 11350
ations 11348
10@@ 11345
early 11336
基本 11328
一定 11322
cause 11319
进入 11314
加入 11305
2003 11303
用@@ 11293
pay 11291
作@@ 11291
发出 11282
respectively 11279
提@@ 11277
ang@@ 11274
战略 11274
staff 11264
times 11257
如@@ 11253
ability 11247
安@@ 11241
far 11233
units 11232
view 11222
bilateral 11202
bu@@ 11196
试验 11196
接@@ 11194
Ordinance 11190
hand 11178
yuan 11172
28 11168
called 11166
实@@ 11163
除 11162
If 11158
protection 11158
上升 11158
strong 11153
领导人 11153
re 11144
chen 11143
together 11137
流 11133
精神 11132
全@@ 11131
analysis 11123
相关 11123
better 11122
维护 11114
board 11107
ur@@ 11105
www 11091
pre@@ 11085
qu@@ 11077
法院 11065
property 11059
应该 11059
course 11057
模型 11055
expressed 11049
oc@@ 11047
100 11035
small 11023
． 11020
心 11017
时候 11008
cultural 11006
fully 10995
amount 10988
出口 10982
so@@ 10979
变化 10957
est 10954
bush 10951
机制 10942
请 10942
统计 10922
非 10917
play 10912
carry 10911
companies 10889
statistics 10887
design 10886
～ 10879
speech 10874
防@@ 10863
网络 10858
交@@ 10847
als 10846
district 10838
注册 10829
讨论 10829
发表 10821
progress 10812
责任 10811
In@@ 10809
内容 10807
views 10804
四 10797
规@@ 10791
参与 10780
通@@ 10774
队 10773
inter@@ 10771
no@@ 10771
经@@ 10769
许多 10761
抗@@ 10759
res@@ 10757
带 10745
home 10743
40 10741
1998 10740
regional 10740
报 10739
november 10724
strategic 10718
这次 10717
热@@ 10713
ship 10711
problem 10710
gov 10709
light 10701
成功 10701
king 10695
established 10682
attention 10681
选择 10678
超过 10674
确保 10637
才 10633
ST@@ 10631
经营 10628
planning 10625
october 10617
形成 10617
recent 10614
产生 10608
无 10592
students 10591
剂 10587
et 10580
organization 10573
changes 10557
台 10556
未来 10549
men 10541
协议 10533
interest 10531
了解 10525
口 10522
= 10519
2006 10482
军事 10474
回@@ 10459
学@@ 10458
完 10451
事务 10449
占 10439
pe@@ 10435
化@@ 10422
27 10413
legislative 10412
date 10410
当局 10407
调整 10394
ates 10393
six 10383
而@@ 10381
交流 10375
26 10372
任务 10372
业务 10370
zhu 10369
equipment 10365
保障 10363
already 10357
ha@@ 10351
RE@@ 10332
V 10323
article 10323
利 10319
院 10314
ty 10312
合 10311
原因 10298
任 10286
ep@@ 10285
F 10284
选举 10284
X@@ 10283
批准 10280
正@@ 10272
计算 10267
august 10265
anti 10264
taking 10257
联合国 10254
非常 10246
authority 10244
克@@ 10222
addition 10219
decision 10219
us@@ 10209
parties 10195
金@@ 10195
due 10194
G 10187
december 10186
agreement 10184
official 10184
Z@@ 10172
统一 10170
As 10163
works 10160
学校 10158
bureau 10153
industrial 10152
ends 10149
car@@ 10147
称 10137
风@@ 10137
serious 10136
required 10134
专@@ 10129
ence 10125
德 10120
february 10114
部队 10102
议员 10099
ia 10074
华 10072
effective 10070
意义 10070
requirements 10057
减少 10053
north 10044
病 10036
scheme 10034
过@@ 10029
standing 10021
much 10019
利@@ 10001
因素 9990
bank 9984
ministry 9981
其@@ 9981
again 9969
to@@ 9967
此外 9957
气@@ 9957
understanding 9943
达到 9939
重大 9931
russia 9930
ings 9929
ge@@ 9916
增@@ 9911
科 9908
实际 9905
尔@@ 9902
model 9901
方@@ 9899
六@@ 9894
wang 9888
sis 9884
手@@ 9879
流@@ 9864
THE 9854
An 9849
团 9846
tive 9845
certain 9842
基金 9842
一次 9839
白@@ 9819
反对 9812
oil 9797
meet 9795
friendly 9770
基 9751
人民@@ 9749
强@@ 9746
城市 9745
provisions 9743
few 9732
中央 9718
money 9711
ying 9696
laws 9691
却 9690
微@@ 9680
行政 9679
der 9675
ling 9675
比@@ 9673
31 9666
工业 9647
stage 9646
space 9639
promoting 9633
street 9623
六 9622
ors 9619
treatment 9611
料 9611
干部 9602
ory 9589
show 9579
师 9579
test 9569
ance 9567
南@@ 9565
id@@ 9559
ed@@ 9557
enhance 9554
overall 9554
IN@@ 9548
month 9525
章 9517
ho@@ 9516
over@@ 9515
nation 9514
形 9510
purpose 9505
巴@@ 9505
around 9499
持续 9499
一直 9484
Study 9478
通知 9476
TION 9468
workers 9468
基于 9449
为@@ 9444
农业 9436
29 9432
available 9432
fact 9428
完全 9419
三年 9411
战争 9404
ks 9399
克 9396
老@@ 9391
人权 9390
经验 9384
每@@ 9383
body 9374
sion 9372
那@@ 9361
notice 9359
各种 9355
deputy 9354
新闻 9352
groups 9343
德@@ 9341
大陆 9339
板 9328
受到 9318
000 9317
ma@@ 9315
群众 9309
culture 9305
走 9300
监督 9298
平@@ 9290
设备 9290
制定 9276
media 9275
设施 9271
tax 9263
civil 9262
科学 9259
importance 9258
体系 9257
network 9256
起来 9253
outside 9250
商 9244
type 9241
指 9236
费 9235
reunification 9226
委员 9223
ary 9221
organizations 9218
implementation 9214
力@@ 9214
最后 9210
nations 9206
sp@@ 9198
西部 9197
od 9181
片 9174
机关 9166
for@@ 9160
阿@@ 9158
existing 9153
carried 9152
tor 9147
ii 9145
received 9139
hours 9138
物@@ 9134
共 9133
出席 9129
ite 9124
policies 9120
训练 9119
several 9115
au@@ 9109
let 9107
确定 9107
self 9093
hard 9089
we@@ 9087
亿元 9084
name 9083
治疗 9079
这一 9077
ou@@ 9074
质量 9067
百@@ 9066
後 9059
executive 9056
良好 9055
advanced 9047
亚@@ 9041
200 9030
.@@ 9023
项 9023
face 9009
宣布 9002
election 9001
近 9000
enterprise 8999
商@@ 8997
80 8996
只有 8996
wednesday 8986
col@@ 8983
小组 8983
bring 8978
1997 8975
入@@ 8972
相信 8968
children 8947
step 8934
having 8931
放@@ 8929
李@@ 8929
人们 8924
thus 8918
field 8909
后@@ 8909
最大 8901
price 8890
身@@ 8869
unit 8865
五 8857
proposed 8854
matter 8851
non 8842
hold 8834
将会 8827
重 8826
nuclear 8819
命令 8818
证 8818
conducted 8807
规划 8800
terms 8799
exercise 8798
charge 8792
取 8791
60 8784
along 8780
demand 8778
三月 8778
post 8771
needs 8769
知道 8767
会@@ 8765
fine 8761
信@@ 8758
重点 8750
gen@@ 8749
especially 8739
wan 8738
法轮功 8732
e-@@ 8721
七 8717
environmental 8713
therefore 8711
国内 8710
六月 8706
表 8704
officials 8700
sc@@ 8700
案 8700
火@@ 8686
米 8686
王@@ 8679
mutual 8676
探讨 8675
cannot 8670
took 8670
见 8670
各@@ 8668
house 8666
transport 8664
cor@@ 8660
布@@ 8657
精@@ 8655
理@@ 8652
te 8649
山@@ 8646
九 8643
总 8643
亿美元 8621
世纪 8619
数据 8619
强 8614
centre 8610
一般 8610
ies 8609
所以 8604
产@@ 8598
performance 8591
exchanges 8587
think 8586
hope 8584
运输 8581
ments 8579
fi@@ 8577
tions 8577
include 8572
油@@ 8563
开展 8561
points 8557
家@@ 8557
图 8556
soon 8553
know 8548
意 8547
起@@ 8544
压 8543
大学 8530
给予 8529
falungong 8527
registered 8517
部长 8511
fund 8503
say 8503
congress 8500
lu@@ 8499
价格 8499
ge 8497
亚洲 8493
close 8492
周@@ 8492
str@@ 8491
ice 8488
npc 8469
工@@ 8465
报道 8463
车@@ 8463
海 8460
之后 8459
reached 8454
军 8446
保证 8444
三个 8442
private 8433
之一 8428
黄@@ 8427
2.@@ 8426
head 8425
九@@ 8423
四月 8416
酸 8413
gu@@ 8400
明显 8400
patients 8395
Chinese 8394
scale 8392
investigation 8382
张@@ 8382
省 8374
apply 8366
inspection 8365
负责 8365
代@@ 8362
段 8362
导弹 8351
程 8347
俄罗斯 8342
subject 8341
trans@@ 8341
另 8338
准备 8326
节 8320
军队 8312
界 8312
还是 8312
account 8306
ong 8305
载 8305
非@@ 8305
下午 8303
中国政府 8302
going 8301
ms 8299
employment 8290
创新 8286
Meth@@ 8285
Council 8281
山 8280
dollars 8277
sea 8272
ma 8268
elec@@ 8263
票 8262
份 8258
positive 8250
ci@@ 8249
supervision 8248
八@@ 8247
criminal 8244
shanghai 8242
形式 8242
面@@ 8242
ordinance 8239
斯@@ 8221
年@@ 8213
premier 8208
best 8200
国务院 8191
w 8190
masses 8189
fe@@ 8185
协助 8184
神@@ 8183
com@@ 8181
free 8180
medical 8177
spirit 8176
responsible 8175
功能 8165
涉及 8164
direct 8163
那么 8157
To 8155
八 8153
深@@ 8153
ver@@ 8150
结束 8146
turn 8143
family 8140
delegation 8139
运@@ 8135
低@@ 8127
ten@@ 8120
价 8119
看@@ 8117
开放 8116
头@@ 8114
ally 8104
bi@@ 8104
虽然 8094
conduct 8093
clear 8092
路@@ 8084
experience 8081
characteristics 8077
价值 8074
食物 8074
感@@ 8072
methods 8068
全球 8067
exports 8051
带来 8051
ness 8049
署长 8041
pm 8033
男子 8033
once 8028
个人 8021
leadership 8020
五月 8009
technological 8008
数字 8007
低 7999
税 7993
mechanism 7975
西 7973
综合 7970
因@@ 7965
keep 7963
几@@ 7957
co 7956
normal 7947
主任 7944
05 7935
socialist 7929
核@@ 7926
job 7924
东 7924
ste@@ 7918
来自 7918
dec@@ 7911
maintain 7911
IN 7909
权利 7907
province 7896
道路 7894
激@@ 7890
扩大 7887
区域 7877
欢迎 7873
十分 7871
检查 7862
调@@ 7862
rec@@ 7861
反应 7858
官员 7851
白 7848
不仅 7843
st 7840
volume 7840
门 7840
strength 7838
friday 7836
press 7834
未 7826
日期 7825
啊 7823
hy@@ 7820
strategy 7818
地位 7818
改变 7818
温@@ 7818
关注 7816
export 7812
series 7806
sales 7803
拥有 7792
教@@ 7791
operations 7788
fire 7784
具 7782
电话 7782
离@@ 7779
予 7775
establishment 7770
专业 7767
材料 7766
一切 7759
av@@ 7758
relationship 7756
模式 7753
real 7751
表现 7748
un 7746
保@@ 7745
运动 7734
specified 7730
approved 7720
schools 7716
ati@@ 7714
罗@@ 7710
standard 7706
加快 7704
represents 7703
空@@ 7702
得@@ 7699
罚款 7699
需 7694
sector 7693
task 7690
ator 7689
好@@ 7686
一月 7685
英@@ 7683
IT@@ 7682
推进 7682
half 7678
最@@ 7677
二十@@ 7675
comprehensive 7672
round 7670
费用 7668
After 7661
装@@ 7659
regions 7658
并@@ 7655
Q@@ 7652
De@@ 7650
开 7645
implement 7643
针对 7643
违反 7641
产业 7627
港 7627
rural 7625
left 7624
officer 7623
west 7620
mainly 7618
谈判 7618
K 7614
ture 7610
清@@ 7609
华@@ 7607
岁 7607
armed 7605
overseas 7601
thing 7598
ago 7593
http 7593
met 7593
housing 7591
ad 7571
述 7568
经过 7561
competition 7556
并且 7551
发挥 7531
合理 7529
当前 7523
传统 7522
北@@ 7520
noted 7519
专家 7516
当@@ 7515
关@@ 7514
Analysis 7513
派 7512
组@@ 7509
condition 7506
证明 7505
常@@ 7499
ing@@ 7497
及@@ 7494
打击 7494
本港 7494
ature 7493
星期三 7492
一九九九年 7485
ev@@ 7483
things 7482
tu@@ 7478
± 7476
facilities 7469
解 7466
建@@ 7465
shui 7456
居民 7456
声 7454
tra@@ 7450
各国 7443
特 7441
民族 7439
young 7437
报@@ 7437
进@@ 7435
bill 7433
statement 7429
方案 7429
res 7428
away 7426
本地 7416
州 7415
直@@ 7413
friendship 7412
军@@ 7404
看到 7404
rules 7397
fields 7396
超@@ 7393
台独 7391
事业 7390
went 7386
never 7383
花@@ 7383
万 7378
街 7377
签署 7372
时期 7371
阶段 7371
情@@ 7369
program 7364
网 7359
九月 7358
Re@@ 7355
正常 7350
nature 7347
共@@ 7344
ru@@ 7342
lin@@ 7339
lee 7338
regulation 7337
session 7337
State 7327
particular 7327
能@@ 7327
recently 7326
结合 7322
ping 7318
波@@ 7318
图@@ 7317
每 7315
双@@ 7312
管@@ 7310
ang 7307
您 7306
energy 7304
AND 7301
democratic 7299
布什 7299
kind 7298
later 7294
responsibility 7293
视@@ 7293
women 7283
长期 7282
七月 7277
standards 7274
offence 7273
18@@ 7267
materials 7265
表达 7264
establish 7263
toward 7263
missile 7261
犯罪 7261
最高 7259
registration 7258
实行 7256
showed 7254
还有 7251
十二月 7239
预@@ 7238
approval 7237
regard 7237
insurance 7234
变 7232
achievements 7229
RA@@ 7223
真@@ 7221
成果 7213
speed 7212
帮助 7207
更加 7207
密@@ 7202
实验 7201
五年 7195
登记 7193
plans 7191
行业 7189
funds 7185
and@@ 7183
医院 7183
最近 7174
ast@@ 7163
程度 7161
案件 7159
tro@@ 7154
&amp; 7153
机会 7153
名@@ 7150
ground 7143
others 7142
arrangements 7141
ING 7132
维@@ 7131
foundation 7128
lower 7127
改@@ 7124
现代化 7124
former 7118
陈@@ 7112
ke 7110
增强 7110
事@@ 7103
paid 7098
液 7098
weapons 7090
index 7083
同志 7083
middle 7078
peaceful 7074
太@@ 7074
十一月 7070
代表团 7066
团体 7059
服务@@ 7059
导致 7054
适当 7051
announced 7050
mon@@ 7050
人口 7046
institutions 7045
station 7044
01 7043
任何人 7037
里@@ 7037
七@@ 7035
规则 7034
content 7032
ren@@ 7030
李鹏 7029
英国 7024
首先 7021
原 7016
很多 7009
industries 7006
攻击 7005
signed 7003
干@@ 7001
线@@ 7001
build 6999
设立 6998
historical 6984
review 6984
这项 6981
illegal 6978
supply 6978
ry 6972
建 6972
码 6972
联合 6970
reported 6964
室 6964
fl@@ 6963
之前 6961
认识 6959
上海 6958
商品 6952
林 6949
沙@@ 6949
motherland 6945
非法 6944
commercial 6943
ters 6941
carrying 6940
specific 6938
compared 6932
实践 6932
先生 6931
material 6929
care 6928
sur@@ 6928
agricultural 6924
stressed 6923
knowledge 6919
try 6914
min@@ 6912
morning 6909
vi@@ 6907
survey 6906
然后 6905
principles 6900
呼吁 6896
公告 6894
汽车 6888
经济@@ 6886
边 6886
指数 6884
组成 6884
进 6884
income 6882
用户 6880
6.@@ 6878
class 6877
association 6875
Hong 6873
它们 6873
选@@ 6868
同意 6867
NA 6866
ideological 6866
正式 6866
university 6863
ves 6852
look 6846
宗 6846
analy@@ 6841
病@@ 6838
平均 6837
want 6833
在@@ 6833
连@@ 6827
中国@@ 6826
tri@@ 6825
情 6824
随着 6824
一样 6818
fin@@ 6817
加 6812
CA@@ 6811
00 6807
customs 6805
vehicles 6804
油 6802
russian 6801
themselves 6799
警@@ 6799
优势 6798
believe 6797
便 6793
pressure 6792
7.@@ 6791
owned 6791
波 6788
伊拉克 6786
十月 6786
品@@ 6781
前往 6778
computer 6776
表@@ 6775
thinking 6773
zhang 6768
came 6766
sing 6760
too 6760
ons 6756
caused 6754
解@@ 6752
average 6751
reduce 6750
Kong 6749
global 6749
结@@ 6748
限制 6746
备 6744
places 6742
股@@ 6740
石 6736
do@@ 6733
课程 6733
语 6732
ses 6731
用于 6731
korea 6722
儿 6722
船 6722
ked 6720
球 6720
ans 6719
标@@ 6716
古@@ 6714
方向 6713
strengthening 6711
fundamental 6710
vehicle 6710
指明 6707
pa@@ 6699
population 6699
个案 6693
team 6692
武器 6690
民@@ 6690
8.@@ 6688
算@@ 6684
形势 6681
incident 6678
优@@ 6672
15@@ 6671
directly 6667
sale 6664
特点 6660
第一@@ 6659
ou 6658
完善 6657
Where 6655
ality 6648
资金 6646
提交 6644
ative 6636
聚@@ 6635
tibet 6632
earlier 6630
中共 6629
集团 6627
二月 6624
拉 6624
Al@@ 6621
凡 6621
检测 6618
石@@ 6615
reason 6613
科@@ 6612
fo@@ 6608
马 6608
引起 6606
整体 6605
asian 6604
examination 6604
create 6602
short 6599
leader 6598
return 6594
期@@ 6592
列 6589
排@@ 6589
落实 6586
压@@ 6582
LA@@ 6579
评估 6577
不过 6576
飞机 6576
约@@ 6574
卡@@ 6573
土 6571
政@@ 6564
den@@ 6562
living 6557
theory 6556
论 6554
主义 6553
试@@ 6553
证@@ 6552
ever 6548
St@@ 6543
和@@ 6539
technical 6534
site 6533
子@@ 6533
quarter 6531
示 6530
公开 6525
条文 6525
ways 6523
find 6520
罪行 6515
船@@ 6515
％ 6508
MA@@ 6507
arms 6507
全部 6507
br@@ 6505
gra@@ 6501
reports 6501
中方 6500
处@@ 6495
显@@ 6493
28@@ 6488
船舶 6486
manner 6485
tical 6481
prices 6480
3.@@ 6473
蛋@@ 6472
需求 6469
1995 6465
大会 6463
才能 6460
星期五 6458
空间 6458
资产 6457
example 6456
代 6455
热 6454
5.@@ 6445
市@@ 6439
until 6438
ist 6437
active 6436
远@@ 6436
cost 6435
失@@ 6435
peng 6430
要@@ 6430
lead 6428
ach@@ 6427
状 6427
70 6424
published 6419
offices 6417
ble 6416
IS@@ 6415
格@@ 6413
ig@@ 6410
话 6408
od@@ 6406
under@@ 6406
随@@ 6406
written 6401
hi@@ 6394
limited 6390
annual 6387
击@@ 6382
contract 6380
草案 6379
greater 6377
再@@ 6372
甚至 6371
支付 6370
factors 6368
adopted 6367
personal 6363
展开 6358
brought 6354
At 6350
相 6350
透过 6350
improving 6349
impact 6348
那些 6346
工 6345
ran@@ 6344
收入 6340
你们 6339
张 6338
hospital 6334
mg 6329
gh@@ 6323
然 6320
士 6316
女@@ 6312
林@@ 6311
红@@ 6311
源 6307
single 6306
yet 6304
go@@ 6301
ism 6300
capacity 6298
rel@@ 6298
sed 6298
ft 6297
某 6292
警察 6292
说明 6290
构@@ 6287
Com@@ 6276
吗 6276
residents 6273
troops 6270
understand 6265
ak@@ 6262
45 6260
although 6259
traditional 6258
照 6255
卫生 6254
下降 6248
90 6244
run 6244
man@@ 6241
1996 6240
involved 6239
查询 6239
独立 6234
call 6233
从@@ 6233
35 6232
fil@@ 6230
贷款 6230
维 6227
tic@@ 6224
各项 6221
四年 6221
expected 6219
ven@@ 6216
achieve 6212
立场 6208
存@@ 6201
crime 6200
might 6197
opportunities 6196
drug 6195
推行 6193
governments 6189
ay 6187
gas 6185
individual 6182
办法 6181
鼓励 6179
stand 6173
欧洲 6172
sign 6171
广泛 6171
anti@@ 6167
一条 6167
ist@@ 6161
aircraft 6157
人才 6155
另外 6155
shows 6150
du@@ 6147
战 6146
举办 6138
注意 6138
9.@@ 6136
An@@ 6134
front 6132
z 6132
natural 6131
从而 6130
含量 6126
电子 6125
特征 6121
product 6119
制造 6119
牌 6119
进口 6116
人类 6115
推@@ 6114
mar@@ 6110
room 6107
营@@ 6106
系 6103
购买 6103
ah 6102
机场 6101
nmd 6099
供 6099
ke@@ 6096
导@@ 6096
八月 6094
reply 6090
payment 6089
ver 6089
该项 6087
all@@ 6080
观 6074
We 6073
检@@ 6069
联@@ 6068
access 6067
状况 6066
台@@ 6064
住 6063
海关 6059
diplomatic 6058
现时 6056
家庭 6053
小时 6052
进程 6052
来说 6050
力量 6047
completed 6043
三个代表 6043
西藏 6041
status 6040
节@@ 6036
prime 6034
monday 6033
improvement 6032
党@@ 6031
relation 6026
培训 6026
base 6024
applications 6023
increasing 6019
额 6019
But 6013
Application 6011
table 6010
hui 6009
减@@ 6005
obtained 6004
bian 6003
range 6001
现@@ 6001
done 5996
若 5996
13@@ 5994
et@@ 5994
患者 5987
显著 5985
业@@ 5984
雇员 5981
address 5980
伤 5975
主 5974
信 5974
大量 5973
internal 5970
modern 5970
膜 5965
先进 5964
刘@@ 5963
万元 5960
农村 5960
立@@ 5946
4.@@ 5945
Ar@@ 5943
编@@ 5943
thursday 5942
极@@ 5939
32 5938
下跌 5938
邀请 5938
regarding 5934
挑战 5934
近@@ 5934
适用 5934
les 5931
wh@@ 5930
stock 5927
allow 5923
财产 5921
床 5919
big 5916
arrested 5915
这里 5914
黑@@ 5913
Th@@ 5911
导 5907
across 5904
千@@ 5902
集 5899
税@@ 5898
测试 5897
点@@ 5897
ise 5893
效果 5893
ps 5890
told 5890
sent 5888
风险 5888
困难 5886
prevent 5882
的话 5880
达@@ 5880
选 5877
面临 5877
organs 5874
EC@@ 5873
意@@ 5871
eng@@ 5869
单 5868
move 5867
停@@ 5867
urban 5864
ming 5862
complete 5861
wu 5861
一点 5861
end@@ 5859
模@@ 5858
seven 5855
week 5854
ill@@ 5853
送@@ 5842
首@@ 5842
ization 5839
immediately 5835
指@@ 5833
整个 5833
清 5829
20@@ 5828
避免 5828
而言 5826
答复 5825
purposes 5824
ars 5821
opportunity 5821
官 5821
斗争 5821
son 5819
function 5817
分子 5817
cr@@ 5816
切@@ 5815
二年 5810
introduced 5807
存 5807
首次 5807
空 5804
位于 5803
格 5803
旅游 5802
泳滩 5802
风 5802
我@@ 5790
具体 5789
top 5786
For 5780
自由 5777
矿@@ 5776
war@@ 5775
湾 5770
游@@ 5769
知识 5769
哈@@ 5768
吸@@ 5765
此@@ 5765
16@@ 5763
tuesday 5763
ard 5762
上午 5761
decided 5753
mat@@ 5753
反映 5751
法庭 5749
appropriate 5743
mental 5743
cities 5742
actions 5741
ON 5740
印@@ 5735
口@@ 5735
儿童 5730
宣传 5729
局长 5728
Ca@@ 5726
professional 5725
运用 5725
如此 5723
efficiency 5721
医生 5720
装 5720
aged 5719
引@@ 5719
sk@@ 5716
分裂 5715
System 5714
一起 5711
鼠 5711
assistance 5710
closed 5709
RO@@ 5708
？ 5708
照@@ 5705
ER@@ 5704
def@@ 5703
恢复 5703
trend 5702
circumstances 5701
ass@@ 5699
forum 5698
每年 5695
NA@@ 5694
委@@ 5694
uses 5693
cent 5691
用途 5690
乐@@ 5688
saying 5687
connection 5685
ants 5682
union 5681
广@@ 5680
转 5680
asked 5679
纳@@ 5679
functions 5678
承认 5678
fu@@ 5675
火 5672
ized 5669
duty 5668
struggle 5668
ure 5665
来@@ 5663
赛 5662
消@@ 5660
flow 5658
difficult 5657
说@@ 5657
stable 5656
进展 5654
mm 5652
sts 5641
真正 5641
14@@ 5639
战@@ 5634
forms 5633
ial 5632
列@@ 5632
有人 5631
× 5630
两国关系 5629
更@@ 5628
正确 5628
策略 5624
字@@ 5623
imprisonment 5618
continued 5617
doing 5616
欧盟 5614
务 5609
event 5608
国际@@ 5607
People 5605
于@@ 5604
enforcement 5603
mis@@ 5602
X 5601
先@@ 5600
european 5598
actively 5594
death 5594
ceremony 5593
handling 5590
仍然 5590
产 5588
representatives 5585
临@@ 5584
往 5584
权力 5584
hu@@ 5583
核 5581
start 5579
senior 5577
压力 5568
response 5566
programme 5564
国家@@ 5561
元@@ 5555
货物 5555
℃ 5549
指示 5548
行政长官 5548
influence 5546
演@@ 5540
最新 5539
协会 5538
死 5534
评价 5532
门@@ 5530
appointed 5528
phase 5525
菌 5522
All 5521
similar 5521
感到 5521
会谈 5515
培养 5515
出来 5514
il 5509
source 5509
网站 5504
ent@@ 5503
新世纪 5503
关 5499
结果@@ 5497
released 5496
贡献 5496
药 5492
ents 5489
竞争 5489
大家 5486
洞 5484
集@@ 5484
temper@@ 5483
处长 5481
experi@@ 5478
ten 5478
pi@@ 5475
up@@ 5473
未@@ 5473
配@@ 5472
Ad@@ 5469
有利于 5469
注@@ 5469
修改 5468
半@@ 5468
dr 5467
联系 5467
republic 5464
升@@ 5464
血 5464
异@@ 5461
distribution 5460
markets 5458
currently 5457
例如 5457
客 5457
当时 5457
least 5452
rongji 5452
推广 5452
酶 5448
配合 5447
itself 5444
fourth 5442
town 5442
dprk 5440
不少 5435
外国 5435
island 5434
条@@ 5432
修@@ 5428
连 5428
共识 5427
解释 5426
设 5422
事情 5421
electronic 5417
CO@@ 5405
爱@@ 5405
尤其 5399
带@@ 5398
查@@ 5397
Ch@@ 5393
各级 5392
modernization 5390
direction 5388
entry 5385
successful 5385
资格 5383
little 5382
attack 5381
combat 5381
木@@ 5380
反 5379
affected 5378
appeal 5374
土@@ 5374
死亡 5374
防止 5374
plane 5373
投@@ 5372
纳 5372
out@@ 5370
维持 5368
态度 5367
授权 5366
混@@ 5365
问 5365
W 5360
concern 5358
装置 5358
花 5356
trust 5355
色@@ 5354
本条 5353
台湾当局 5352
消息 5351
25@@ 5349
或@@ 5345
俄 5343
创造 5343
pol@@ 5342
Con@@ 5339
每个 5338
手段 5334
差 5330
召开 5329
500 5328
ol 5327
三十@@ 5327
向@@ 5327
macao 5325
heavy 5324
why 5323
words 5323
success 5321
import 5320
stop 5320
伊@@ 5315
谈 5314
beach 5312
air@@ 5311
指定 5309
discussed 5308
website 5308
书面 5307
数量 5304
楼 5303
details 5299
u.s. 5297
已@@ 5297
球@@ 5297
wor@@ 5296
两岸关系 5296
eight 5293
速度 5292
造 5289
risk 5283
share 5283
sense 5281
就业 5280
bus 5279
金融 5278
providing 5272
either 5267
房屋 5267
ics 5265
务@@ 5265
简@@ 5265
销 5264
港@@ 5257
drive 5254
significant 5254
ys 5250
deal 5247
印度 5247
钱 5244
known 5240
回 5232
hu 5231
对此 5231
pacific 5227
对话 5225
身 5224
货@@ 5223
rule 5222
运作 5222
LO@@ 5221
etc 5218
sen@@ 5212
cur@@ 5209
依法 5208
陈水扁 5208
document 5204
趋势 5204
ching 5203
从事 5199
即@@ 5199
介乎 5198
包@@ 5196
一份 5192
language 5189
tasks 5189
南 5189
iz@@ 5188
检讨 5187
允许 5186
既 5186
只是 5185
internet 5183
cul@@ 5182
对外 5182
高度 5182
assets 5181
时代 5179
parts 5171
iraq 5169
重视 5168
发行 5162
contact 5160
明确 5160
medium 5158
记@@ 5154
建筑 5153
cre@@ 5152
讲话 5150
面对 5150
atic 5144
再次 5144
朝鲜 5144
balance 5142
托@@ 5141
评@@ 5140
软件 5140
工艺 5137
房@@ 5137
全 5134
打 5131
驻 5127
determined 5126
chemical 5124
ful 5123
documents 5121
深入 5120
－ 5119
territory 5118
承诺 5116
highly 5115
获@@ 5114
chung 5113
角 5110
交易 5108
center 5107
无法 5107
attended 5106
临时 5106
规范 5105
适应 5103
不要 5098
河 5094
labour 5093
entire 5092
事实 5090
管制 5090
enquiries 5087
一系列 5087
支@@ 5087
眼@@ 5087
写 5086
experts 5085
某@@ 5085
live 5080
prc 5079
取@@ 5079
办 5078
processing 5076
皮@@ 5076
整@@ 5073
知 5070
地点 5068
权@@ 5066
意识 5065
beginning 5062
今后 5062
求@@ 5061
降@@ 5060
certificate 5059
ob@@ 5059
讲 5055
holding 5054
上诉 5053
lot 5051
concerning 5050
呃 5050
观察 5050
activity 5048
agriculture 5046
ME@@ 5043
port 5043
容@@ 5041
降低 5040
端 5039
particularly 5038
事故 5038
协调 5038
铁@@ 5038
祖国 5037
现 5035
轻@@ 5034
provincial 5031
届 5030
benefit 5029
友好合作 5027
pu@@ 5026
道@@ 5026
avoid 5024
参@@ 5023
免@@ 5018
1994 5016
ear@@ 5016
primary 5015
爱 5015
writing 5013
reasons 5012
然而 5011
agreed 5008
最终 5006
started 5001
当地 5000
advised 4996
bro@@ 4995
inc@@ 4994
送 4993
危险 4992
gave 4991
审@@ 4991
car 4990
opinion 4989
When 4987
achieved 4987
net 4985
00@@ 4984
多年 4979
consider 4978
快 4976
一位 4975
德国 4970
ai@@ 4968
夫 4966
尼@@ 4965
17@@ 4964
ox@@ 4963
procedures 4963
性质 4963
青@@ 4961
enter 4960
控制@@ 4959
讯 4958
ods 4956
ser@@ 4956
现有 4954
consultation 4952
healthy 4951
友好 4951
事宜 4949
closely 4948
样 4948
作战 4947
implemented 4946
承@@ 4944
&apos;t 4942
供@@ 4941
跟 4941
部署 4937
所谓 4933
ber 4931
significance 4931
5% 4929
v 4927
ase 4924
afternoon 4921
接触 4921
民主 4918
actual 4917
coming 4917
degree 4913
尽管 4910
校@@ 4908
落 4906
focus 4905
software 4901
做好 4901
IC@@ 4899
korean 4899
rou@@ 4898
bed 4896
clearly 4895
follow 4895
轮 4892
blood 4890
teaching 4890
kowloon 4888
practical 4888
ass 4883
list 4883
广大 4883
premises 4879
reporter 4879
以后 4878
很大 4876
达成 4876
behalf 4875
消费 4874
micro@@ 4872
near 4872
tric 4871
度@@ 4869
TH@@ 4862
indicated 4861
rain 4861
漏@@ 4861
位置 4858
零@@ 4855
河@@ 4854
亚 4853
听 4853
PA@@ 4849
presented 4849
jointly 4848
资 4847
径 4845
aid 4844
latest 4842
初步 4842
eu 4841
客@@ 4837
尽快 4837
至于 4834
corruption 4826
wei 4823
tin 4821
kinds 4820
言 4820
改革开放 4819
formed 4816
seek 4814
速 4813
core 4812
effort 4811
quite 4810
朋友 4810
运 4810
ess 4808
wong 4808
included 4806
serve 4806
实 4806
交 4805
盘 4805
comm@@ 4802
商业 4801
成本 4800
evidence 4798
On 4797
lies 4797
想@@ 4794
heart 4792
遗@@ 4792
职 4790
seriously 4784
多个 4783
法国 4780
rates 4779
improved 4778
分布 4777
管理@@ 4775
难@@ 4774
公共 4773
thought 4772
设置 4772
群 4769
1992 4768
SO@@ 4764
sectors 4763
mu@@ 4762
攻@@ 4761
tang 4760
ack 4759
gl@@ 4759
kg 4758
stay 4757
势力 4757
implementing 4755
sovereignty 4755
限 4755
状态 4754
网@@ 4754
maximum 4751
富@@ 4749
开支 4747
象 4745
final 4744
surface 4744
意外 4744
operating 4743
licence 4741
DE@@ 4740
paragraph 4739
乐 4739
质@@ 4739
题 4739
雇主 4736
eg@@ 4735
甲@@ 4735
资助 4735
af@@ 4734
文章 4734
依据 4730
核心 4729
司法 4727
att@@ 4725
est@@ 4725
一日 4725
除了 4725
correct 4723
改进 4723
1993 4716
immigration 4715
ire 4713
教 4709
welcome 4708
summit 4707
行政@@ 4707
动物 4706
sign@@ 4703
亲@@ 4703
藉 4701
搞 4700
破坏 4700
ology 4699
Based 4698
备@@ 4698
现代 4697
largest 4696
mentioned 4696
年度 4696
活@@ 4696
公务员 4695
protect 4691
AN@@ 4690
钢@@ 4690
comrade 4689
有限公司 4689
季 4687
除@@ 4686
第一 4684
由@@ 4681
command 4680
且 4674
十五 4673
bur@@ 4671
人数 4670
allowed 4668
record 4664
音@@ 4662
transfer 4661
woman 4661
launched 4659
studied 4659
移@@ 4658
pr@@ 4657
调 4657
sal@@ 4656
cu@@ 4655
ular 4654
监察 4653
CH@@ 4649
seen 4649
american 4648
gradually 4643
char@@ 4642
potential 4640
思@@ 4640
external 4639
威胁 4639
Law 4637
录 4636
感 4636
沉@@ 4635
服 4634
q@@ 4633
sha 4633
立 4633
输@@ 4631
一致 4629
flu@@ 4626
prevention 4623
dr@@ 4622
maintaining 4621
外交 4620
条约 4618
applied 4616
tur@@ 4616
李登辉 4616
ot 4614
媒体 4614
employees 4613
ick 4611
ith@@ 4611
面积 4610
50@@ 4609
liable 4607
SE@@ 4606
12@@ 4605
假 4603
our@@ 4602
归@@ 4601
量@@ 4600
预测 4599
har@@ 4598
属@@ 4598
通 4598
Any 4597
律师 4596
目 4594
管理局 4592
ha 4591
33 4590
ay@@ 4590
facts 4589
接 4589
ill 4588
主张 4588
ium 4587
详情 4587
损害 4585
何@@ 4583
订@@ 4583
2007 4581
difficulties 4581
ones 4579
根本 4579
养@@ 4578
检验 4577
ian 4575
以色列 4575
india 4572
Ab@@ 4571
matters 4571
星期四 4571
previous 4569
内部 4569
算 4569
qian 4568
az@@ 4567
deep 4567
ish 4567
reference 4565
必要 4565
西方 4565
AR@@ 4563
升 4563
民 4560
凝@@ 4558
予以 4557
night 4555
zed 4554
载@@ 4554
river 4552
纪@@ 4552
温 4551
领@@ 4549
局@@ 4546
致电 4545
器@@ 4544
星期一 4544
sound 4543
ut@@ 4542
裁@@ 4541
communist 4539
特殊 4538
300 4537
except 4537
观@@ 4536
tor@@ 4531
声@@ 4529
ited 4528
政 4528
突@@ 4528
draft 4526
铁路 4525
ages 4520
generation 4520
合同 4520
accident 4519
innovation 4518
指导 4517
词 4517
figures 4515
physical 4510
consensus 4509
充分 4509
索 4508
装备 4504
喜@@ 4503
迅速 4503
污染 4502
airport 4501
美国@@ 4501
rather 4500
objective 4499
leave 4497
治@@ 4497
重新 4497
proposal 4495
provides 4495
某些 4493
mil@@ 4492
出售 4491
追@@ 4491
ff@@ 4490
星 4490
网页 4490
ir 4486
rise 4486
下列 4485
县 4484
巨大 4484
药物 4484
ins 4483
ze 4482
安全@@ 4482
ind@@ 4480
mal@@ 4479
pat@@ 4479
兴@@ 4476
buildings 4474
理由 4474
38 4473
36 4471
considered 4471
操作 4471
solution 4469
guangdong 4468
订 4468
飞@@ 4468
reach 4466
ats 4465
功@@ 4465
留@@ 4465
自然 4463
reasonable 4460
农民 4458
常 4457
effects 4455
provision 4455
speaking 4450
often 4448
先 4448
europe 4447
ning 4445
股 4445
平 4443
义 4441
愿 4440
banks 4439
target 4435
wide 4435
议会 4433
floor 4432
孩子 4432
serv@@ 4431
致 4430
inv@@ 4428
teng 4428
representative 4421
liu 4419
1,@@ 4417
卫生署 4417
book 4416
保险 4413
射 4413
autonomous 4410
冷@@ 4410
ack@@ 4407
近年来 4405
块 4401
安装 4400
第十@@ 4400
otherwise 4395
外交部 4395
ca@@ 4394
consideration 4392
结 4390
urged 4389
拒绝 4389
酸@@ 4387
extremely 4382
相当 4382
职业 4382
effectively 4380
体制 4380
raise 4378
谘询 4378
中美关系 4376
giving 4373
yesterday 4373
tly 4372
相应 4372
副@@ 4371
愿意 4369
whose 4367
please 4364
工具 4363
himself 4362
禁止 4362
计 4361
雷@@ 4360
comp@@ 4359
ther@@ 4359
间@@ 4359
county 4358
des 4358
expression 4358
ically 4358
坚决 4356
底 4355
第二@@ 4354
见@@ 4354
附表 4354
U 4353
联 4353
art 4352
满 4352
committees 4351
EN@@ 4350
expand 4349
主权 4347
benefits 4346
ll 4344
loss 4343
病人 4342
There 4339
zone 4337
&lt; 4334
ess@@ 4333
提升 4332
收费 4332
架 4332
goal 4329
一部分 4328
数目 4328
特性 4328
听@@ 4327
welfare 4326
Pro@@ 4323
负@@ 4323
Resul@@ 4321
创@@ 4316
圣@@ 4315
快速 4315
securities 4314
书@@ 4314
短@@ 4314
ce@@ 4313
现象 4313
溶@@ 4309
联络 4309
运行 4309
advance 4308
studies 4308
发展中国家 4307
技术@@ 4305
equ@@ 4303
lan@@ 4302
types 4302
入境 4302
只要 4302
hon 4301
关心 4299
links 4298
断@@ 4298
makes 4296
城 4294
Ac@@ 4293
资@@ 4292
' 4291
MO@@ 4288
sports 4288
效率 4286
campaign 4285
learning 4284
位@@ 4283
自动 4281
步 4279
< 4275
maintained 4273
size 4273
disease 4272
plant 4272
奥@@ 4271
教学 4271
航@@ 4271
ric@@ 4270
教师 4267
大型 4266
something 4261
第二十@@ 4261
损@@ 4258
original 4255
ve@@ 4255
立即 4255
财政 4253
poor 4252
牌@@ 4252
电脑 4252
yl@@ 4251
资本 4251
mag@@ 4250
tin@@ 4250
willing 4250
谱 4250
朝 4248
code 4247
rapid 4247
星期二 4247
真 4247
视 4247
communication 4245
艺术 4244
构成 4243
daily 4242
冲@@ 4242
告诉 4242
形@@ 4242
防御 4241
scope 4240
振@@ 4237
rest 4236
少 4235
急@@ 4235
藏 4235
海外 4233
cooperative 4229
MI@@ 4228
commerce 4228
hopes 4227
招@@ 4227
物品 4227
sure 4226
离开 4225
independent 4224
普@@ 4223
ulation 4222
冲突 4221
巴士 4221
世贸组织 4217
mind 4216
setting 4216
acting 4215
approach 4215
mass 4215
相对 4215
硬@@ 4215
authorized 4213
assessment 4210
吧 4210
formation 4209
病毒 4207
ving 4206
馆 4204
requirement 4203
此次 4203
巴 4201
regular 4200
wa@@ 4200
树@@ 4198
座 4195
duties 4193
社区 4193
maintenance 4192
aspects 4189
stations 4188
罪 4188
changed 4186
射@@ 4184
韩国 4184
referred 4182
交换 4182
势 4180
四个 4178
34 4175
aff@@ 4175
visited 4175
脱@@ 4175
死@@ 4174
television 4173
TA@@ 4172
ow@@ 4171
越@@ 4171
路线 4170
ratio 4169
区@@ 4169
差异 4169
ce 4167
履行 4167
房 4162
ner 4161
偏@@ 4160
症 4158
固@@ 4157
proposals 4156
结论 4156
补充 4156
当中 4155
恶@@ 4154
基地 4153
fer@@ 4152
假@@ 4152
PO@@ 4151
chi 4151
样@@ 4151
request 4150
规模 4150
concept 4147
ery 4147
actually 4146
一段 4146
won 4145
以便 4144
contributions 4141
参数 4136
IC 4134
began 4134
Amen@@ 4133
住宅 4130
厂 4126
passed 4125
优化 4125
担任 4125
周 4124
ched 4123
cold 4120
ud@@ 4120
控 4120
预计 4120
Di@@ 4119
ast 4119
现场 4119
ba@@ 4117
meanwhile 4117
finance 4115
难 4113
justice 4112
late 4112
users 4112
落@@ 4112
美方 4110
crisis 4108
ide 4108
福@@ 4108
销售 4108
discussion 4107
害 4107
resolution 4106
兰@@ 4104
老 4104
觉 4104
sim@@ 4103
办事处 4103
极 4100
证据 4100
ear 4099
ell@@ 4097
ore@@ 4097
ously 4097
别@@ 4097
加工 4097
Director 4096
mi@@ 4096
feel 4093
hk@@ 4090
击 4088
曲@@ 4088
ber@@ 4087
尼 4085
37 4083
族 4081
经常 4081
智@@ 4079
表格 4079
consumer 4078
批@@ 4078
液@@ 4078
越来越 4078
连续 4075
cut 4073
throughout 4072
当然 4070
农@@ 4067
55 4065
adopt 4065
女士 4064
negotiations 4062
不可 4062
复杂 4059
park 4057
shown 4056
discuss 4055
opened 4055
abroad 4054
秩序 4053
方针 4052
干 4049
tai 4047
周年 4045
版 4045
word 4043
平衡 4042
exhibition 4040
relating 4040
pla 4038
香@@ 4038
ov@@ 4037
关键 4036
og@@ 4034
relatively 4034
店 4033
非洲 4032
苏@@ 4031
cap@@ 4027
互@@ 4027
停止 4026
bodies 4025
fac@@ 4025
proceedings 4025
乙@@ 4025
saturday 4023
置 4023
meetings 4021
叶@@ 4020
江@@ 4020
built 4019
join 4019
校 4019
论坛 4019
estate 4013
inside 4012
non@@ 4012
cppcc 4011
仅 4010
ame 4009
determination 4008
记录 4007
他@@ 4005
completely 4004
感染 4004
According 4003
态 4002
物质 4002
职@@ 4001
ious 4000
arrived 3999
威@@ 3999
申请人 3999
致@@ 3999
powers 3996
指标 3996
进步 3995
途径 3995
负责人 3993
questions 3992
终@@ 3992
outstanding 3991
初@@ 3991
mark 3989
division 3988
treaty 3988
只@@ 3988
第二 3986
tung 3985
engineering 3984
早 3982
discipline 3978
会晤 3978
有些 3978
offer 3977
fighting 3975
child 3974
grade 3973
longer 3971
资讯科技 3971
del@@ 3969
等@@ 3968
became 3965
42 3964
语@@ 3964
dra@@ 3963
造@@ 3962
remain 3961
卡 3961
缺@@ 3961
美军 3958
逐步 3958
bay 3956
religious 3955
预防 3954
阳@@ 3952
idea 3950
nnnn 3947
岛 3945
file 3944
decreased 3943
facilitate 3941
影 3941
cal@@ 3940
elements 3940
fee 3940
sol@@ 3940
vari@@ 3940
几个 3940
警告 3937
pul@@ 3934
produce 3932
produced 3932
ton 3932
guarantee 3930
附近 3926
L.@@ 3924
fixed 3922
早@@ 3921
cell 3920
ging 3919
visiting 3919
成绩 3919
表面 3919
生物 3918
论@@ 3918
des@@ 3917
户 3917
successfully 3916
标 3915
census 3914
attitude 3913
designed 3913
image 3913
收到 3912
判@@ 3911
按@@ 3911
ped 3910
stress 3909
刊物 3909
四十@@ 3909
法规 3909
vo@@ 3906
太 3906
女 3906
promotion 3905
有权 3904
handle 3903
pollution 3903
投入 3903
远 3902
估计 3901
ators 3899
汇@@ 3899
mean 3898
教授 3897
ering 3894
为何 3894
研@@ 3894
pri@@ 3893
ret@@ 3893
committed 3892
ue 3892
attend 3890
ose 3890
耐@@ 3889
residential 3888
style 3888
承担 3888
teachers 3887
ICA@@ 3885
rich 3885
institute 3884
version 3883
诱@@ 3883
sil@@ 3882
hkt 3881
库 3881
bre@@ 3880
骨@@ 3879
体现 3878
给@@ 3878
零 3878
che@@ 3877
--@@ 3875
copy 3872
ick@@ 3871
瘤 3871
bas@@ 3870
prescribed 3870
SA@@ 3869
加大 3869
生效 3869
别 3868
ple 3866
zhou 3866
firm 3863
properly 3863
损失 3863
错误 3863
处于 3862
提问 3862
宗教 3861
educational 3860
超 3860
倍 3859
via 3856
宜 3856
They 3855
效 3855
placed 3854
同样 3854
TE@@ 3853
emergency 3852
年龄 3849
并非 3849
techn@@ 3848
走@@ 3845
另@@ 3842
fied 3841
支援 3841
谁 3840
转变 3839
cy@@ 3838
活 3838
立法 3838
班 3837
认真 3837
seeking 3834
稳@@ 3834
tourism 3833
证券 3833
ged 3832
running 3832
wish 3831
抑@@ 3829
starting 3828
办理 3828
realize 3827
根 3826
轮@@ 3825
ring 3824
厅 3824
though 3823
hydro@@ 3822
标志 3821
收 3818
confidence 3816
独@@ 3810
75 3809
encourage 3809
involving 3809
债@@ 3809
mobile 3807
援助 3807
相同 3806
lines 3805
回答 3805
奖 3805
日前 3805
科技@@ 3805
48 3804
socialism 3803
proper 3801
require 3799
stated 3798
mer@@ 3796
greatly 3795
员工 3795
吉@@ 3792
兵 3791
通常 3789
紧@@ 3785
在内 3784
包 3783
submitted 3782
有着 3782
汉@@ 3781
ines 3779
recorded 3779
嗯 3779
monitoring 3778
声明 3778
部@@ 3778
ile 3777
output 3777
pres@@ 3777
launch 3776
strive 3775
采@@ 3775
学院 3774
visits 3773
补 3773
丰富 3772
ahead 3770
ement 3770
突出 3768
药@@ 3768
concrete 3766
facing 3766
principal 3764
retail 3764
澳门 3764
矿 3764
换@@ 3763
园 3762
ches 3761
癌 3761
推出 3759
contents 3758
costs 3758
cover 3758
majority 3758
十 3758
详细 3758
looking 3756
审议 3756
持@@ 3756
依照 3755
脑@@ 3755
保险@@ 3754
entered 3753
总额 3753
犯 3752
additional 3751
环@@ 3751
离 3749
exp@@ 3748
credit 3747
集中 3747
Research 3746
peasants 3745
travel 3745
钱其琛 3745
妇女 3742
做出 3741
永@@ 3741
damage 3740
个@@ 3740
租@@ 3737
imports 3736
mission 3735
solve 3734
年代 3734
而是 3734
30@@ 3732
cells 3730
拘捕 3730
behind 3729
理解 3728
通信 3728
differences 3726
factor 3725
raised 3725
卫星 3725
失 3724
田 3724
1990 3723
extr@@ 3723
acts 3722
yang 3722
broad 3720
供应 3720
ari@@ 3719
can@@ 3718
余@@ 3718
始终 3716
套 3714
决策 3713
其它 3712
por@@ 3711
tal@@ 3711
rac@@ 3710
信号 3710
played 3709
measure 3708
新型 3708
judicial 3707
两年 3705
ao 3704
challenges 3704
sel@@ 3704
革命 3703
叫 3700
办公室 3698
IL@@ 3696
ep 3696
法例 3696
审 3695
顿 3695
IS 3693
crimes 3693
否则 3691
purchase 3690
款项 3690
类型 3689
towards 3688
效益 3688
ni@@ 3687
os 3687
清楚 3687
waste 3686
fair 3685
ize 3685
云@@ 3684
货币 3684
定罪 3683
退@@ 3682
青少年 3681
po 3679
square 3678
1% 3677
影@@ 3677
tal 3676
clinton 3675
trial 3675
自身 3673
peoples 3671
ological 3670
permanent 3670
true 3669
eastern 3666
unless 3666
第@@ 3666
计@@ 3666
越 3666
der@@ 3664
kept 3664
任@@ 3663
selected 3660
enhancing 3659
compatriots 3657
浓度 3657
likely 3656
accept 3655
located 3655
民政 3655
音 3653
accounts 3652
pen@@ 3651
els 3650
served 3650
prosperity 3649
ail 3648
抽@@ 3648
执法 3647
cult 3646
不足 3646
testing 3645
五十@@ 3645
bar@@ 3643
advantage 3640
ique 3640
语言 3638
研讨会 3637
食@@ 3637
generally 3636
legislation 3636
属于 3636
一百@@ 3635
息 3633
取消 3628
静@@ 3628
created 3626
比赛 3626
没 3626
clean 3624
安 3624
思 3623
nearly 3622
出版 3621
模拟 3621
远程 3621
大部分 3620
民众 3619
laid 3618
user 3618
职位 3618
listed 3617
Government 3615
demands 3614
矛盾 3614
邪教 3611
sites 3609
border 3608
safe 3608
放 3608
publications 3607
ved 3607
village 3607
follows 3606
字 3606
… 3605
合约 3604
strictly 3603
tech 3602
reporters 3600
weather 3599
湾仔 3598
27@@ 3597
晚上 3597
许可证 3596
hands 3594
deng 3593
断 3593
capability 3591
loc@@ 3591
sunday 3591
3% 3589
北 3589
inform 3588
structural 3587
名称 3587
测量 3587
adding 3585
楼宇 3585
队伍 3585
equal 3584
sha@@ 3584
unity 3583
提醒 3583
预算 3583
Ⅱ 3581
firmly 3580
mach@@ 3580
reality 3580
telecommunications 3580
compensation 3579
阻@@ 3579
New 3578
fication 3578
即将 3578
gi@@ 3577
左右 3577
公共关系 3576
UR@@ 3575
believed 3575
故@@ 3575
博@@ 3574
secondary 3572
治 3571
radio 3569
loans 3568
监管 3568
amendment 3566
sive 3566
必@@ 3566
／ 3565
探@@ 3564
步@@ 3564
补@@ 3562
CT@@ 3561
labor 3561
values 3561
连接 3561
Court 3560
对象 3560
掉 3560
乱 3559
纤@@ 3559
prior 3557
dialogue 3556
依@@ 3556
指挥 3556
budget 3555
批 3555
事项 3554
duc@@ 3553
fight 3553
nothing 3553
萨@@ 3553
动力 3550
bel@@ 3542
her@@ 3541
养 3541
cop@@ 3540
plan@@ 3540
tests 3539
方便 3539
SC@@ 3538
advantages 3538
月@@ 3537
Ex@@ 3536
letter 3536
比例 3536
建筑物 3535
solid 3534
居 3534
速@@ 3534
of@@ 3533
两国人民 3532
基本法 3532
includes 3531
计算机 3531
司 3530
政治@@ 3529
访华 3529
到@@ 3528
美元 3528
efficient 3527
ace 3526
dangerous 3525
中国共产党 3524
一国两制 3523
attempt 3522
super@@ 3522
展@@ 3522
items 3521
Sh@@ 3519
ninth 3519
44 3518
ine@@ 3518
partnership 3518
reforms 3517
成就 3517
learn 3515
ler 3514
力度 3514
dro@@ 3513
39 3512
difference 3511
ong@@ 3511
istic 3509
ple@@ 3509
强烈 3509
Authority 3508
form@@ 3507
世@@ 3506
developments 3504
高级 3504
speci@@ 3502
以外 3502
食 3501
framework 3498
粒 3495
毛@@ 3494
friends 3493
charges 3492
instead 3491
reduced 3490
apec 3488
fees 3488
depth 3487
权益 3487
orders 3486
国务@@ 3486
failure 3485
aging 3484
望 3484
tional 3483
旨在 3483
sources 3481
val@@ 3481
防 3480
sun 3479
脉 3478
施@@ 3477
appointment 3476
特色 3476
至今 3476
gain 3474
留 3474
石油 3474
enable 3473
significantly 3472
律 3472
tom@@ 3471
私@@ 3471
parents 3469
ust 3469
画 3469
respective 3468
顾问 3468
numbers 3467
同期 3467
志@@ 3465
2% 3464
切实 3464
pan@@ 3462
stri@@ 3462
足够 3462
岩 3459
ta@@ 3457
即使 3457
gr@@ 3456
izing 3456
engaged 3454
分配 3454
钢 3454
enjoy 3453
fall 3453
manufacturing 3453
全球化 3453
协定 3452
ption 3451
bri@@ 3449
米@@ 3447
consumption 3445
多次 3445
charged 3444
ey@@ 3444
saw 3444
any@@ 3443
den 3443
ening 3443
术 3443
做法 3442
Co@@ 3441
现实 3441
satisfied 3440
告知 3440
8% 3439
shares 3439
entitled 3437
第三@@ 3434
最佳 3432
provinces 3431
wife 3431
aimed 3429
drugs 3428
moment 3427
居@@ 3427
氧@@ 3427
顺利 3427
green 3425
堂 3425
市场经济 3423
营 3423
guidance 3422
really 3421
tics 3421
破@@ 3421
No 3420
bs 3420
展 3420
至少 3420
事务处 3418
医疗 3416
植物 3416
为此 3414
infrastructure 3413
另一方面 3413
言@@ 3411
青年 3411
售@@ 3409
怀疑 3408
LE@@ 3407
prepared 3407
ji@@ 3405
52 3402
circles 3402
CE@@ 3401
酒@@ 3401
permit 3400
软@@ 3400
41 3397
体育 3397
optim@@ 3396
satellite 3395
叶 3394
征@@ 3393
establishing 3392
israel 3392
contacts 3391
sl@@ 3391
满足 3391
info 3390
社会@@ 3390
查 3389
遵守 3388
resolve 3387
总结 3386
亿 3381
法官 3380
α 3379
emb@@ 3377
send 3377
transportation 3377
相互 3375
被@@ 3375
陆@@ 3374
investigations 3373
罗 3372
军事@@ 3371
AP@@ 3370
申@@ 3370
owner 3369
pass 3369
繁荣 3368
除非 3368
为期 3365
社 3365
remote 3363
更好 3363
65 3361
中央@@ 3361
uc@@ 3359
亿@@ 3359
共有 3359
快@@ 3359
普遍 3359
货 3359
suitable 3358
公园 3358
展览 3357
观念 3357
7% 3356
持 3355
汇 3355
洛@@ 3355
participate 3353
行使 3353
om 3350
船只 3349
driving 3348
politics 3348
search 3348
era 3345
十年 3345
43 3343
经贸 3343
24@@ 3342
trading 3342
weight 3341
录得 3341
次@@ 3341
铁 3341
电视 3340
毒@@ 3339
那个 3339
cheng 3338
密切 3337
信心 3336
鱼 3336
investors 3335
下来 3332
france 3331
takes 3331
growing 3330
arrangement 3326
corresponding 3324
ists 3324
sentenced 3323
条款 3323
truth 3322
住@@ 3322
重申 3322
总部 3321
缩 3320
Dis@@ 3318
司长 3318
验@@ 3318
iii 3316
简单 3316
sw@@ 3315
mail 3312
他人 3311
地址 3311
liqu@@ 3309
首 3309
中华@@ 3308
废@@ 3308
delivered 3307
exc@@ 3307
safeguard 3307
亦可 3307
外长 3307
通知书 3306
accession 3305
features 3305
化学 3305
士@@ 3305
此间 3305
就@@ 3304
野@@ 3303
technologies 3302
vol@@ 3302
fa@@ 3301
充@@ 3300
星期六 3300
continuously 3299
enti@@ 3296
integrity 3296
jo@@ 3295
revealed 3294
worth 3294
生命 3294
配 3294
institution 3293
享有 3293
积@@ 3292
ss 3290
submit 3289
职责 3288
aim 3287
巩固 3287
anniversary 3286
heads 3286
currency 3284
ns 3284
拟@@ 3284
虫 3284
燃@@ 3283
bul@@ 3281
germany 3281
育 3281
互联网 3279
松 3279
ben@@ 3278
探索 3278
multi@@ 3277
nor 3277
宽@@ 3277
秘书长 3277
opinions 3276
平等 3276
易@@ 3274
毒 3274
煤@@ 3274
spec@@ 3272
扫@@ 3272
enough 3271
freedom 3270
已有 3270
accounting 3268
dev@@ 3268
义务 3268
dem@@ 3267
treated 3267
53 3266
ays 3266
suspected 3266
业界 3266
receive 3265
yer 3264
master 3263
旧 3263
missiles 3261
求 3261
link 3260
sum 3259
工程@@ 3259
ash 3258
积 3257
耶@@ 3256
washington 3254
启@@ 3254
uh 3253
容易 3253
能源 3251
ore 3250
各地 3250
ethnic 3249
mrs 3249
stance 3249
掌握 3249
democracy 3248
虚@@ 3248
ion 3246
ome@@ 3246
Commissioner 3244
chai 3243
投诉 3243
Part 3242
containing 3242
江 3242
节目 3242
resistance 3241
共同努力 3241
网上 3241
ows 3240
田@@ 3240
工资 3237
感谢 3237
前景 3236
服@@ 3236
ely 3235
whom 3235
inf@@ 3233
主题 3231
公路 3231
obtain 3230
电子@@ 3230
communications 3228
properties 3228
边@@ 3228
host 3226
塞@@ 3226
村 3226
hoped 3225
护@@ 3225
注 3225
胡锦涛 3224
lives 3222
agent 3221
sing@@ 3221
turned 3221
ships 3218
y-@@ 3217
著@@ 3217
流动 3214
soil 3213
人民币 3212
类似 3211
thereof 3208
visitors 3208
误@@ 3207
弱 3205
AL@@ 3204
ban@@ 3204
mor@@ 3203
疾病 3202
Objective 3201
Schedul@@ 3200
个别 3200
occurred 3199
ideas 3198
initial 3198
贯彻 3198
xiaoping 3196
瓦@@ 3196
africa 3191
changing 3190
hall 3190
lack 3190
尊重 3190
弹@@ 3190
绝@@ 3190
fast 3189
海军 3189
世 3187
缴付 3187
两名 3186
参观 3186
坐@@ 3186
角@@ 3185
keeping 3184
ade 3183
cheung 3183
投资者 3183
本身 3183
learned 3181
moreover 3181
vir@@ 3181
ip@@ 3174
Micro@@ 3173
企图 3173
摩@@ 3173
订立 3173
23@@ 3172
发布 3172
底@@ 3172
塔@@ 3170
邮@@ 3170
agreements 3169
vessel 3169
两种 3168
摘要 3167
Board 3166
fit 3166
类别 3166
hol@@ 3165
lab@@ 3165
换 3165
conducting 3164
生产力 3163
ai 3162
huge 3162
warning 3162
演 3162
register 3161
星@@ 3161
隐@@ 3161
46 3159
UD@@ 3158
看法 3158
认可 3157
invitation 3156
race 3156
资讯 3156
win 3155
marked 3154
yi 3154
区内 3153
统计调查 3153
公民 3151
宣@@ 3151
文明 3151
experiences 3150
及时 3150
驻@@ 3150
鲁@@ 3149
SP@@ 3148
炉 3148
cargo 3147
如下 3147
龙@@ 3147
食品 3146
Mo@@ 3145
men@@ 3144
ake 3142
收益 3141
片@@ 3141
motion 3139
以前 3139
草@@ 3138
adjustment 3137
Wh@@ 3136
守 3136
根@@ 3135
胡@@ 3135
sam@@ 3133
藏@@ 3132
请求 3131
articles 3130
wave 3130
国外 3130
operators 3129
opposition 3129
救@@ 3129
4% 3128
56 3128
贸易@@ 3127
随 3127
hour 3126
诉讼 3124
check 3122
ministers 3121
机遇 3121
white 3120
my@@ 3119
透露 3118
职务 3117
She 3115
职能 3115
课@@ 3115
高层 3115
tation 3114
Committee 3112
团结 3112
worked 3111
Qu@@ 3110
味 3110
交往 3109
角色 3109
ann@@ 3108
危机 3108
poly@@ 3106
organized 3105
何 3104
row 3103
shenzhen 3102
胶 3102
sions 3100
globalization 3099
福利 3099
ight 3098
伯@@ 3098
british 3097
国防 3097
酒 3097
ambassador 3096
enemy 3096
With 3095
highest 3095
告@@ 3093
出发 3092
展示 3092
概念 3091
一下 3090
布 3090
散@@ 3089
考察 3089
anim@@ 3088
licen@@ 3088
sor@@ 3088
只能 3088
马克思主义 3088
affect 3086
says 3086
citizens 3083
ok 3082
建造 3082
wen 3080
索@@ 3080
纯@@ 3080
靠 3080
ens 3079
编制 3079
阐述 3078
t-@@ 3077
记 3076
nine 3075
ended 3074
municipal 3074
利率 3072
chi@@ 3070
bound 3069
封闭 3069
曲 3069
箱 3069
iting 3068
ju@@ 3068
assembly 3067
胶@@ 3067
owners 3066
bearing 3065
character 3065
double 3065
expenditure 3065
below 3064
reduction 3064
种@@ 3064
效应 3063
phot@@ 3061
含 3061
官方 3061
attending 3060
准 3058
适合 3057
almost 3056
games 3056
一套 3056
飞行 3054
联盟 3053
层@@ 3052
complex 3049
meets 3049
基本@@ 3048
库@@ 3048
conver@@ 3047
express 3046
卖 3046
果 3046
roc@@ 3045
6% 3044
密 3043
夏@@ 3041
监@@ 3040
足@@ 3040
适@@ 3040
危害 3039
访 3039
ls 3038
材 3038
礼@@ 3038
choice 3037
remarks 3037
抵@@ 3036
extent 3035
空气 3035
为什么 3034
劳@@ 3034
宝@@ 3031
finally 3029
β 3029
康乐 3028
wall 3027
公约 3027
清洁 3027
localities 3026
眼 3025
continuous 3024
炎 3024
抗 3023
collection 3022
movement 3022
证书 3022
lost 3021
官@@ 3020
曾经 3019
400 3018
african 3018
执@@ 3018
hearing 3016
medicine 3016
minutes 3016
priority 3016
conviction 3013
elected 3013
高兴 3011
threat 3010
51 3009
supported 3009
证实 3009
territorial 3008
少@@ 3008
attacks 3007
屋 3007
株 3006
negative 3005
ask 3003
木 3003
needed 3002
工作@@ 3001
constantly 3000
登@@ 2999
贝@@ 2998
sar 2997
助@@ 2997
MS 2996
enhanced 2995
read 2994
pprb 2993
不再 2992
严格 2992
大使 2992
sho@@ 2991
职工 2991
she@@ 2990
克林顿 2990
肉 2990
预期 2990
景@@ 2989
距离 2989
滑@@ 2987
转移 2986
rose 2985
基层 2985
放弃 2985
tw@@ 2982
vis@@ 2982
advice 2980
吃 2980
磁@@ 2980
仿@@ 2978
倒 2978
productive 2977
tors 2977
aw@@ 2976
主持 2976
投票 2976
逾 2975
sul@@ 2972
印 2972
背景 2971
党中央 2970
train 2969
有所 2968
path 2967
分离 2967
ew@@ 2966
金属 2966
ath 2965
友谊 2965
禁@@ 2965
limit 2964
manager 2964
私人 2964
希@@ 2962
觉@@ 2962
85 2961
yu 2961
26@@ 2960
guidelines 2959
完@@ 2959
66 2958
cou@@ 2958
figure 2957
returned 2957
征 2957
chan 2956
02 2955
医@@ 2954
1991 2952
法律@@ 2951
晶@@ 2950
individuals 2949
目@@ 2948
47 2947
lea@@ 2947
scene 2947
么 2946
alism 2945
break 2945
han@@ 2945
塞 2945
还@@ 2945
release 2944
wel@@ 2943
呼@@ 2943
第三十@@ 2943
购 2943
95 2941
动态 2941
ently 2940
forth 2939
losses 2939
圆@@ 2939
未能 2939
extended 2938
实际上 2938
强大 2938
一天 2936
驾驶 2935
direc@@ 2934
fying 2934
load 2933
仪式 2933
维修 2932
york 2931
施工 2930
争@@ 2929
amendments 2928
skills 2928
制作 2928
测 2928
simple 2927
yp@@ 2927
invited 2926
美国政府 2926
corporation 2925
须@@ 2925
guide 2924
participation 2924
Web 2923
door 2922
九龙 2922
法定 2922
are@@ 2921
ash@@ 2921
序@@ 2921
penalty 2920
procedure 2920
safeguarding 2920
现行 2920
粮食 2920
hygiene 2919
和平统一 2919
氨@@ 2919
madam 2918
μ 2918
储@@ 2918
异 2918
99 2917
cri@@ 2916
selling 2915
局局长 2915
ket 2914
一行 2914
树 2914
深化 2911
granted 2910
tv 2910
初 2909
深刻 2909
rent 2908
一场 2908
beneficial 2907
衣@@ 2907
soldiers 2906
全国人大常委会 2906
地带 2906
明年 2906
ib@@ 2904
supporting 2904
甘@@ 2903
harbour 2902
marine 2902
读 2902
决议 2901
10.@@ 2900
followed 2900
lin 2900
boundary 2899
revenue 2899
tory 2899
几乎 2899
sti@@ 2898
尽 2897
通讯 2896
拨款 2895
背@@ 2895
ow 2894
残@@ 2894
9% 2892
increases 2892
publication 2892
ready 2892
extensive 2891
监禁 2891
观点 2888
alization 2887
english 2887
steps 2887
使@@ 2887
detailed 2886
一批 2886
地震 2885
改造 2885
tomorrow 2884
施行 2884
较@@ 2884
Development 2880
gs 2880
兰 2880
活性 2880
Its 2879
spread 2879
交通@@ 2878
吸引 2877
integration 2876
gold 2875
jec@@ 2875
operational 2875
reserve 2874
植@@ 2874
第三 2874
distance 2873
investigated 2873
practices 2873
书记 2872
工人 2872
至@@ 2872
ruling 2871
explore 2870
recovery 2870
省@@ 2870
治理 2869
消费者 2868
families 2866
hksar 2865
integrated 2865
ES 2863
essential 2862
场@@ 2862
° 2861
reaction 2860
shi@@ 2860
晚@@ 2859
initiative 2858
批评 2857
certainly 2856
intelligence 2856
powerful 2855
件@@ 2855
果@@ 2855
participants 2854
骨 2854
CD@@ 2853
int@@ 2853
planned 2853
找到 2853
ished 2852
委员长 2852
平台 2852
数据@@ 2852
lands 2851
zing 2851
孔 2851
穿@@ 2851
11.@@ 2850
Cl@@ 2850
多少 2850
烟@@ 2850
考@@ 2850
除外 2850
吴@@ 2849
持有 2849
claim 2848
对抗 2848
觉得 2847
comply 2845
候选人 2845
欧@@ 2845
Be@@ 2844
绝对 2844
ish@@ 2843
designated 2842
劳工处 2840
reg@@ 2839
ward 2838
奇@@ 2838
分区 2837
国有企业 2837
英语 2836
branch 2835
涉嫌 2834
不论 2832
described 2831
ho 2830
先后 2830
国会 2830
杂@@ 2830
ak 2829
perform 2829
延@@ 2829
牛@@ 2829
rok 2827
胜@@ 2827
false 2826
pattern 2826
wing 2826
界@@ 2825
催@@ 2824
尽@@ 2824
sufficient 2823
透@@ 2823
一方 2822
借@@ 2822
ances 2821
smooth 2821
professor 2820
decrease 2819
镜 2819
popular 2818
去@@ 2818
封@@ 2818
applicant 2817
ders 2817
fur@@ 2817
shi 2817
英 2817
deputies 2816
民族@@ 2814
总署 2813
SU@@ 2811
non-@@ 2811
grain 2810
控@@ 2809
高于 2809
writ@@ 2808
﹑ 2808
各方 2807
演习 2807
争取 2806
毒品 2805
伤@@ 2804
本会 2804
户@@ 2803
春@@ 2803
evaluation 2802
损 2802
正是 2802
认@@ 2802
写@@ 2799
待 2799
hor@@ 2798
nam@@ 2798
消除 2798
皮 2798
attached 2797
length 2797
youth 2797
identity 2796
comb@@ 2795
sec@@ 2795
糖 2794
讲@@ 2794
mother 2793
58 2792
回应 2791
附@@ 2791
侧 2789
抵达 2789
决心 2787
offered 2786
三十分 2786
华盛顿 2786
定性 2786
指引 2786
实质 2785
CON@@ 2783
ably 2783
constitution 2783
试图 2781
back@@ 2780
determine 2780
沿@@ 2780
bridge 2778
inten@@ 2778
灵@@ 2778
headquarters 2777
vigorously 2777
统计数字 2777
seized 2776
bing 2775
tre@@ 2775
较大 2775
usually 2772
案@@ 2772
相比 2772
accepted 2771
digital 2771
局面 2771
沙 2771
tsang 2770
在于 2770
散 2769
满@@ 2769
concentration 2768
我军 2767
乳@@ 2766
可否 2766
幅 2766
赴 2766
jintao 2764
缓@@ 2764
补偿 2764
伊朗 2763
录@@ 2763
就此 2762
54 2761
违法 2759
expansion 2758
qichen 2757
做@@ 2757
莱@@ 2757
everyone 2756
国民党 2756
武@@ 2756
民主@@ 2756
谢@@ 2756
IA@@ 2755
award 2754
紧急 2754
studying 2753
介@@ 2753
channels 2751
牌照 2751
深 2750
ain 2749
killed 2749
telephone 2749
史@@ 2749
环境保护 2749
leg@@ 2748
大厦 2748
民进党 2748
含@@ 2747
外汇 2747
强化 2747
中东 2746
By 2745
ert 2745
heard 2745
trying 2745
举@@ 2745
理想 2745
indicates 2744
幕 2743
染@@ 2743
sold 2742
Control 2741
bringing 2741
post@@ 2741
各自 2740
anyone 2739
29@@ 2737
und@@ 2736
加拿大 2736
磋商 2736
targets 2735
休@@ 2735
进出口 2735
0% 2734
awareness 2733
southern 2733
图书馆 2733
满意 2733
粘@@ 2733
qualified 2732
粉 2732
monetary 2731
rapidly 2731
水质 2731
龙 2731
becoming 2729
建交 2729
金额 2729
bal@@ 2728
决@@ 2728
拟 2728
被捕 2728
ational 2727
capable 2726
呈@@ 2726
2,@@ 2725
atory 2725
杨@@ 2724
发射 2723
短 2723
韩@@ 2723
lam@@ 2722
row@@ 2722
提名 2722
centres 2721
debt 2721
今 2721
研究@@ 2721
受伤 2720
喷@@ 2720
容 2720
Li@@ 2719
playing 2719
proved 2718
便@@ 2718
旅客 2718
territories 2717
国民经济 2717
增进 2717
emphasized 2716
requires 2716
准@@ 2716
各位 2716
宪法 2716
购@@ 2716
quickly 2715
三十日 2714
莫@@ 2714
为主 2711
大国 2711
vast 2710
素质 2710
助理 2709
academic 2708
香港@@ 2708
ker 2707
roads 2707
ef@@ 2706
ised 2705
predic@@ 2705
programmes 2705
events 2704
局势 2704
sd 2703
协商 2702
comrades 2701
第一次 2701
公正 2699
comes 2698
increasingly 2698
rer 2698
制品 2698
bon@@ 2697
sets 2697
bor@@ 2694
环保 2693
仪 2692
时说 2691
NE@@ 2690
died 2690
制订 2689
析 2688
59 2687
奇 2686
beaches 2685
cat@@ 2684
发放 2684
planes 2682
regards 2682
差@@ 2682
怕 2682
来源 2682
电讯 2682
确@@ 2682
cle@@ 2681
ght 2681
49 2680
shan 2680
半 2680
总书记 2680
规例 2680
使得 2679
estimated 2678
那里 2678
combined 2677
组合 2677
ligh@@ 2676
sized 2676
一贯 2676
还要 2676
IV@@ 2675
日益 2674
ton@@ 2673
红 2673
organisations 2672
关闭 2672
粉@@ 2672
raising 2671
statistical 2671
dollar 2670
whe@@ 2670
putin 2669
最好 2669
apart 2668
fell 2668
塑@@ 2668
纽约 2668
质素 2667
For@@ 2666
dri@@ 2666
寻求 2666
岩@@ 2666
flight 2665
女子 2664
竞争力 2663
经历 2663
护 2662
AS@@ 2661
happy 2661
investigate 2661
具备 2661
粒@@ 2661
费@@ 2661
邮政 2661
中华民族 2660
增 2660
星期日 2660
乘@@ 2659
灌@@ 2659
American 2658
倾@@ 2658
frequency 2656
这么 2656
termination 2655
框架 2653
械 2653
收集 2652
星期 2652
负 2652
note 2651
准则 2649
折@@ 2649
走向 2648
12.@@ 2647
占@@ 2647
各类 2647
evening 2646
storage 2646
抓 2646
环 2646
公里 2645
谈到 2645
federation 2643
nit@@ 2641
所得 2639
扩@@ 2639
拿 2639
桥 2638
经贸合作 2638
600 2637
alized 2637
remains 2637
strengthened 2636
采访 2636
年底 2635
科学@@ 2635
素@@ 2635
许可 2635
ror 2633
二百@@ 2633
imposed 2632
阴@@ 2632
ining 2631
scheduled 2631
新闻@@ 2631
现正 2631
分钟 2629
declaration 2628
hit 2628
重建 2628
盐 2627
盖 2627
信息@@ 2626
填@@ 2626
广播 2626
patient 2625
OR@@ 2624
中美 2624
视为 2624
Im@@ 2623
弹 2623
passengers 2622
businesses 2620
failed 2620
low@@ 2620
text 2619
官兵 2619
easy 2618
excellent 2618
筹@@ 2618
pression 2617
唯一 2617
场所 2616
web 2615
破产 2615
逃@@ 2615
城@@ 2614
多种 2614
expanding 2613
其实 2613
dly 2612
ta 2612
卢@@ 2612
更改 2611
精神@@ 2611
附 2610
围@@ 2609
裂@@ 2609
成效 2607
guiding 2605
lu 2605
temporary 2605
月份 2605
bot@@ 2604
exist 2604
课 2604
calls 2603
迹 2603
称为 2602
变动 2601
大楼 2601
前提 2600
mid 2599
严@@ 2599
值@@ 2599
IP 2598
ml 2598
海上 2598
op 2597
百分之@@ 2597
程@@ 2596
Mar@@ 2595
everything 2595
liberation 2595
acc@@ 2593
dealing 2593
peninsula 2593
一家 2593
fish 2592
审查 2592
hongzhi 2591
tried 2591
适用@@ 2591
sup@@ 2590
Republic 2589
covered 2589
push 2588
til@@ 2588
减 2588
角度 2587
裂 2586
ordered 2585
fy 2584
rely 2584
听取 2584
98 2583
festival 2583
fu 2583
干涉 2583
李洪志 2583
serving 2582
ron@@ 2581
fec@@ 2580
tures 2580
weeks 2580
客户 2579
所作 2579
cro@@ 2578
直至 2578
ain@@ 2577
oper@@ 2577
主管部门 2577
告 2577
洗@@ 2576
无论 2574
tan@@ 2573
elections 2572
检控 2570
o-@@ 2569
forming 2568
止 2568
醇 2567
besides 2566
江主席 2566
Au@@ 2565
mer 2564
旅@@ 2564
diseases 2563
gar@@ 2563
被判 2563
泰国 2562
缺乏 2562
肝@@ 2562
03 2560
大规模 2560
游 2560
banking 2559
ishing 2559
合法 2559
Res@@ 2558
despite 2558
置@@ 2558
hon@@ 2557
ther 2556
票@@ 2556
film 2555
suspended 2555
tes 2553
67 2551
没@@ 2551
creating 2550
draw 2550
eng 2550
message 2550
景 2549
国有 2548
US 2547
protecting 2547
现状 2547
sity 2546
截至 2546
歌@@ 2546
fri@@ 2545
comparison 2544
effectiveness 2544
痛 2544
麻@@ 2544
Se@@ 2543
drawn 2543
kim 2543
quantity 2542
截@@ 2542
肯定 2542
转让 2542
pilot 2540
呈 2540
籍 2540
阵 2540
雨@@ 2540
fuel 2539
log@@ 2539
固定 2539
良 2539
井 2538
剧 2538
启动 2538
灯 2538
grant 2537
severe 2537
transformation 2537
左@@ 2537
一旦 2536
晚 2534
一千@@ 2533
新加坡 2533
有利 2533
felt 2532
找 2532
旋@@ 2532
！ 2532
claimed 2531
ination 2531
保留 2531
揭@@ 2531
盛@@ 2531
causes 2530
favorable 2530
侵犯 2530
函@@ 2530
广告 2530
explo@@ 2529
紧张 2529
逐渐 2529
Ⅰ 2528
昨日 2528
resolutely 2527
62 2526
instance 2526
团@@ 2526
端@@ 2525
谘 2525
performed 2524
relief 2524
烟 2524
降 2524
vessels 2523
生产@@ 2523
marxism 2522
欢 2522
completion 2521
holds 2521
SS 2520
channel 2520
employed 2520
reaching 2520
世界@@ 2519
ame@@ 2518
confirmed 2518
uphold 2518
存款 2518
致力 2518
competent 2517
olympic 2517
暂停 2517
诺@@ 2516
发言 2515
ax@@ 2514
ily 2514
腐@@ 2514
Ti@@ 2513
posts 2513
普京 2513
AT@@ 2511
ading 2511
hotline 2511
脉@@ 2511
mot@@ 2510
薄@@ 2510
建筑@@ 2509
convention 2508
panel 2508
alone 2507
gross 2507
tru@@ 2507
57 2506
discussions 2506
频 2506
conclusion 2505
障碍 2505
ories 2504
al-@@ 2503
employers 2503
劳动 2503
定期 2503
翻@@ 2503
ray 2502
刑事 2502
scre@@ 2500
separate 2500
赛@@ 2500
源@@ 2499
男@@ 2498
faced 2497
逗留 2497
fifth 2496
inter 2496
根本利益 2496
TS 2494
坚@@ 2494
繁忙 2493
coun@@ 2492
igh@@ 2492
meaning 2492
records 2492
雨 2492
fore@@ 2491
spiritual 2491
做到 2491
兼 2491
answer 2490
ind 2490
二十日 2490
特区政府 2490
财@@ 2490
200@@ 2487
dom@@ 2487
location 2487
notes 2487
rice 2486
十五日 2486
俄@@ 2485
冰@@ 2485
detec@@ 2484
resource 2484
金融@@ 2484
ples 2483
accidents 2482
father 2482
corporate 2481
platform 2481
微 2481
杀@@ 2481
社@@ 2481
烧 2480
生产总值 2480
航空 2480
网络@@ 2479
ale 2478
iv@@ 2478
μ@@ 2478
切 2477
发展@@ 2477
姆 2477
暴@@ 2477
银@@ 2477
麦@@ 2477
限@@ 2476
亮 2475
新界 2475
本人 2475
诊断 2475
赔偿 2475
expenses 2474
那样 2474
tion@@ 2473
移 2473
possession 2472
二零零四年 2472
巨@@ 2472
Si@@ 2471
gener@@ 2471
气体 2471
类@@ 2471
很@@ 2470
law@@ 2469
disc@@ 2467
divided 2467
navy 2467
settlement 2467
排放 2467
moving 2466
直 2466
read@@ 2465
extend 2464
免 2463
全体 2463
namely 2462
statutory 2462
dynamic 2461
倒@@ 2461
ung 2460
市场@@ 2459
乘客 2458
肿@@ 2458
身体 2457
acy 2456
英文 2456
更新 2455
singapore 2454
害@@ 2454
永远 2452
English 2449
strict 2449
王 2449
EL@@ 2448
revolution 2448
二零零零年 2448
松@@ 2448
gg@@ 2447
positions 2446
下去 2446
briefed 2445
situations 2445
dy 2444
han 2444
profit 2444
三条 2443
乎 2443
历@@ 2443
司@@ 2443
知@@ 2443
mechan@@ 2442
smuggling 2441
suggestions 2441
yan 2441
更大 2441
支 2439
ER 2438
不到 2438
有否 2438
款额 2437
访@@ 2437
艘 2436
问@@ 2436
comprehensively 2435
森 2435
读@@ 2435
法案 2434
ences 2433
wind@@ 2433
冲 2432
tel@@ 2431
选民 2431
参考 2430
FOR 2429
ST 2429
species 2429
vote 2429
付 2429
基础设施 2428
尚未 2428
receiving 2427
结构调整 2427
网址 2427
草 2427
observed 2425
hard@@ 2424
indeed 2423
兼@@ 2423
十日 2422
britain 2421
sym@@ 2421
操@@ 2421
委 2420
promoted 2419
未经 2419
continuing 2418
境内 2418
drop 2415
lay 2415
mao 2415
pip@@ 2415
废物 2415
遭 2415
1989 2414
68 2414
contracts 2414
evil 2414
gre@@ 2414
枪 2414
经理 2414
ograph@@ 2413
selection 2413
分类 2413
杜@@ 2413
监测 2413
突破 2413
三十一日 2411
塔 2411
手术 2411
领 2411
事务局 2410
intellectual 2409
大力 2409
浆 2409
ecological 2408
models 2408
observe 2408
厚@@ 2408
双边 2408
财务 2408
议@@ 2407
货品 2407
gives 2405
talk 2405
reducing 2404
termin@@ 2404
ust@@ 2404
笑 2404
bid 2403
七日 2403
延长 2403
courts 2402
nu@@ 2402
康@@ 2402
群@@ 2401
tel 2400
域 2400
card 2398
谈@@ 2398
He@@ 2397
gdp 2397
普通 2397
40@@ 2395
yuen 2395
今@@ 2395
抓好 2395
railway 2394
二零零一年 2394
ingly 2393
脚@@ 2393
遭到 2393
rol@@ 2392
港口 2392
役 2391
惊@@ 2391
犹@@ 2391
丽 2390
PRO@@ 2389
online 2389
spo@@ 2389
down@@ 2388
称@@ 2387
profits 2385
student 2385
优惠 2385
engage 2382
presidential 2382
remove 2382
revised 2382
block 2381
organ 2381
荣@@ 2381
remaining 2380
provisional 2379
师@@ 2379
档 2379
污@@ 2379
mal 2378
ym@@ 2378
渠道 2378
clu@@ 2377
da@@ 2377
议案 2377
percentage 2376
福 2376
tong 2375
关键@@ 2375
商业@@ 2375
64 2374
cra@@ 2374
买@@ 2374
裁定 2374
IF@@ 2373
background 2373
cha@@ 2373
72 2372
female 2372
onto 2372
分析@@ 2372
潮 2372
肌@@ 2372
mine 2371
神 2371
蓝@@ 2371
这方面 2371
oph@@ 2370
ree 2370
judge 2369
每天 2369
错 2369
agencies 2368
operate 2368
主管 2368
courses 2367
救 2367
礼 2367
职员 2367
胜 2367
转化 2367
prospects 2366
围 2366
飞 2366
introduce 2365
plants 2365
唐家璇 2365
其后 2364
bear 2363
横@@ 2363
输入 2363
ounds 2362
ID@@ 2361
cer@@ 2361
sustained 2361
请@@ 2361
water@@ 2360
coordination 2359
profound 2359
trip 2359
配置 2359
tim@@ 2358
工作人员 2358
DA@@ 2357
委任 2357
lcq@@ 2355
形象 2355
统筹 2355
IL 2354
易 2354
aviation 2353
exchanged 2353
年来 2353
示@@ 2353
ately 2352
sm@@ 2352
ink 2351
中华人民共和国 2351
北约 2351
eu@@ 2350
押 2350
flo@@ 2348
fresh 2348
waters 2348
广东 2348
描述 2348
fiscal 2347
contribution 2346
controlled 2346
五个 2346
灾 2346
AD@@ 2345
atmosphere 2345
critical 2345
寄@@ 2345
clin@@ 2344
sic 2344
生物@@ 2344
卖@@ 2343
discharge 2342
guilty 2342
restructuring 2342
专门 2342
模 2342
疗@@ 2342
院校 2342
regarded 2341
司机 2341
Registrar 2338
dpp 2338
冲击 2338
来看 2338
books 2337
勒 2337
包含 2337
引 2337
扣@@ 2337
障 2337
payable 2335
磨@@ 2334
execution 2333
radi@@ 2333
大多数 2333
Char@@ 2332
drawing 2332
signing 2332
政党 2332
紧密 2332
赞赏 2332
CT 2331
certificates 2331
pace 2331
丙@@ 2331
arts 2330
许 2330
complaints 2328
decisions 2328
israeli 2328
150 2327
civilization 2327
hill 2327
machinery 2327
一九九八年 2327
册 2327
ths 2326
sin@@ 2325
thanks 2324
热线 2324
善@@ 2323
敌@@ 2323
的士 2323
ets 2322
事实上 2322
伟大 2322
传媒 2322
invest 2320
newly 2320
stresses 2320
县@@ 2320
纵@@ 2319
这位 2319
NO@@ 2318
玻@@ 2318
gone 2317
wanted 2317
concluded 2316
causing 2315
pe 2315
candidates 2314
∶ 2314
知识产权 2314
wi@@ 2313
董@@ 2312
ro 2311
刚 2311
接近 2311
deeply 2310
na@@ 2310
蒙@@ 2310
该处 2310
there@@ 2309
二零零五年 2309
低于 2309
确认 2309
economies 2308
hand@@ 2308
加上 2307
设有 2307
六十@@ 2306
末 2306
氧化@@ 2306
设@@ 2306
主动 2305
尺@@ 2305
母@@ 2305
航 2305
syn@@ 2304
应付 2304
goes 2303
Bo@@ 2302
These 2302
interview 2302
organised 2301
reading 2301
Pl@@ 2300
二十八日 2300
lam 2299
monthly 2299
not@@ 2299
买 2299
conscientiously 2298
aries 2297
会上 2297
壁 2297
elderly 2296
今天下午 2296
吸收 2296
烧@@ 2296
ites 2295
共和国 2295
代替 2294
侵@@ 2294
命 2294
泥 2294
话@@ 2294
liability 2293
ending 2292
kok 2292
tically 2292
系数 2292
越南 2292
preparations 2291
ref@@ 2291
史 2291
柱 2291
guests 2290
二十七日 2290
十二日 2290
脑 2289
with@@ 2288
全国@@ 2288
ell 2287
land@@ 2287
怎样 2287
IM@@ 2286
vulnerability 2286
币 2286
hal@@ 2285
Gu@@ 2284
宁@@ 2284
aring 2283
ock 2283
之中 2283
友 2283
扩展 2283
杀 2283
甲 2283
评论 2283
strike 2282
特定 2282
marriage 2281
似乎 2281
放在 2281
founding 2280
众 2280
olog@@ 2279
CE 2278
办@@ 2278
走私 2277
feature 2276
structures 2276
truly 2276
众@@ 2276
传播 2276
palestinian 2275
舰 2275
前进 2274
许@@ 2274
十四日 2273
博士 2273
糖@@ 2273
刚@@ 2272
委会 2272
eth@@ 2271
兴趣 2270
号@@ 2270
得以 2270
calcul@@ 2269
logistics 2269
动员 2269
氧 2269
participating 2268
responsibilities 2268
US@@ 2267
ris@@ 2267
atic@@ 2266
q 2266
十六日 2266
凭@@ 2265
池 2265
networks 2264
亦@@ 2263
sections 2262
因而 2262
登 2262
ities 2259
作业 2259
彻底 2259
玉@@ 2259
移动 2259
76 2258
ee 2258
poverty 2258
脂 2258
&gt; 2257
mr. 2257
commissioner 2256
大约 2256
born 2255
二十三日 2255
余 2255
chem@@ 2254
explained 2254
均@@ 2254
61 2253
xinjiang 2253
世界贸易组织 2253
ga@@ 2252
齐@@ 2252
french 2251
朱@@ 2251
成长 2250
父母 2250
basically 2249
chair@@ 2249
ned 2249
二十五日 2249
believes 2248
ub@@ 2248
丝 2248
lic@@ 2247
dic@@ 2245
总是 2245
道德 2245
appear 2244
le-@@ 2244
遇到 2244
饮@@ 2244
da 2243
tou@@ 2241
胜利 2241
relative 2240
蚀 2240
cards 2239
十九日 2239
if@@ 2238
in-@@ 2238
当选 2238
空军 2238
交易@@ 2237
发达国家 2236
1.5 2235
SH@@ 2235
conducive 2235
unable 2235
加以 2235
沟通 2235
ail@@ 2234
判 2233
坚定 2233
月底 2233
潜@@ 2232
领袖 2232
IP@@ 2231
ensuring 2231
ownership 2231
tered 2231
二十四日 2230
警 2230
itor 2229
spending 2229
suggested 2229
unified 2229
delivery 2228
跑 2228
advisory 2227
iran 2227
itation 2227
十八日 2227
期限 2227
郑@@ 2227
top@@ 2226
二十六日 2226
终止 2226
邮票 2226
Effec@@ 2225
湖@@ 2225
中央军委 2224
Par@@ 2223
imp@@ 2223
二十一日 2223
tun@@ 2222
失败 2222
悬@@ 2222
ened 2221
变成 2221
暂时 2221
豁免 2221
med 2220
款@@ 2220
院@@ 2220
梁@@ 2219
续 2219
International 2218
LE 2218
债务 2218
尤@@ 2218
有助于 2218
电影 2218
theme 2217
ordinary 2216
女性 2216
统@@ 2216
顾@@ 2216
的@@ 2215
monitor 2214
升幅 2214
最低 2214
格式 2214
检获 2214
跳@@ 2214
三日 2213
期望 2213
舞@@ 2213
财政@@ 2213
Un@@ 2212
met@@ 2211
国防部长 2211
> 2210
exercises 2210
ku@@ 2210
九日 2209
撤销 2209
Ap@@ 2207
徒 2206
america 2205
mechanisms 2204
sequ@@ 2204
signs 2204
wat@@ 2204
艾@@ 2204
范@@ 2204
challenge 2203
san@@ 2203
七年 2203
分为 2203
劳动@@ 2203
employer 2202
programs 2202
之外 2202
奖@@ 2202
off@@ 2201
五日 2201
干扰 2201
High 2200
二零零三年 2200
足 2200
behavi@@ 2199
为止 2199
寸 2199
nato 2198
例@@ 2198
招待会 2198
1988 2197
collected 2197
tering 2197
xu 2197
总督 2197
ces 2196
interested 2196
雅@@ 2196
add 2195
governing 2195
卫 2195
接获 2195
purchased 2194
子女 2194
National 2193
employee 2193
metres 2192
身份 2192
PS 2191
jobs 2191
双 2191
成分 2191
确实 2191
aims 2190
领土 2190
deposit 2189
happ@@ 2189
holders 2189
weak 2189
伊 2189
续@@ 2189
formulated 2187
一是 2187
极大 2187
化学@@ 2186
培@@ 2186
回到 2185
活力 2185
近日 2185
wil@@ 2183
云 2183
尿@@ 2183
混合 2183
论述 2183
parameters 2182
roots 2182
举 2182
久 2182
hom@@ 2181
sustainable 2181
同一 2181
据悉 2181
鱼@@ 2181
No@@ 2180
乡 2180
二十二日 2180
往来 2180
battle 2178
准确 2178
街@@ 2178
不可@@ 2177
难以 2177
associated 2176
fails 2175
launching 2175
ude 2175
82 2174
学者 2174
ina 2173
纪录 2173
component 2172
investments 2172
spoke 2172
unemployment 2172
生态 2172
So@@ 2171
ency 2171
保护@@ 2171
disaster 2170
tremendous 2169
政府部门 2169
wishes 2168
型@@ 2168
63 2167
consent 2167
处罚 2167
deemed 2166
german 2166
So 2165
putting 2165
root 2165
用作 2165
露 2165
ach 2164
hua 2164
保 2163
境外 2163
雄@@ 2163
,@@ 2162
大幅 2161
震@@ 2161
pakistan 2160
showing 2160
右@@ 2160
loan 2159
oning 2159
递 2159
阳 2159
AC@@ 2158
ges 2158
intention 2158
全港 2156
squ@@ 2155
surveillance 2155
纸@@ 2155
producing 2154
victims 2154
video 2154
wage 2154
教育@@ 2153
有力 2153
评 2153
辖下 2153
library 2152
乌@@ 2152
序 2152
穆@@ 2152
iraqi 2151
固 2151
志 2151
induc@@ 2149
indian 2148
提 2148
第一个 2148
iti@@ 2146
实力 2144
验 2144
parliament 2143
pose 2143
三通 2143
二零零二年 2143
proportion 2142
track 2142
去年同期 2142
顺@@ 2142
委托 2141
早日 2141
competitive 2140
seminar 2140
托 2140
consultations 2139
时刻 2138
2008 2137
深圳 2137
forced 2136
洲 2136
当事人 2135
1986 2134
eous 2134
伦敦 2134
hkma 2133
variety 2133
六年 2133
戏 2133
租 2133
schemes 2132
consistent 2131
二十九日 2131
差距 2131
来访 2131
assist 2130
画@@ 2130
系统@@ 2130
entering 2129
guangzhou 2129
二日 2129
His 2128
产量 2128
800 2127
que 2127
warm 2127
浮@@ 2127
积金 2127
04 2126
劳工 2126
卫@@ 2126
fujian 2125
各个领域 2125
page 2124
NG@@ 2123
ater 2123
墙 2123
核准 2123
迪 2123
infection 2122
minimum 2121
查阅 2121
grounds 2120
injured 2120
oriented 2119
历史@@ 2118
恩 2118
概@@ 2118
跨@@ 2118
菜 2117
中学 2116
repeatedly 2115
兵@@ 2115
夫人 2115
covering 2114
hel@@ 2114
violation 2114
absor@@ 2113
kmt 2113
preparation 2113
吃@@ 2113
薪酬 2113
multi 2112
执政 2112
胞@@ 2112
Governor 2111
au 2111
marks 2111
pain@@ 2111
propaganda 2111
居住 2111
破 2111
grow 2110
joining 2110
上年 2110
双边关系 2110
丰@@ 2109
supreme 2108
transmission 2108
公平 2108
尼亚 2108
担心 2108
触@@ 2108
课题 2108
chang 2107
warfare 2107
多项 2107
Str@@ 2106
隆 2106
澳@@ 2105
该名 2105
Col@@ 2104
En@@ 2104
fol@@ 2103
厚 2103
恶 2103
纪念 2103
频@@ 2103
broadcast 2102
character@@ 2101
学会 2100
回归 2099
而定 2099
Experi@@ 2098
copies 2098
引导 2098
必将 2098
近期 2098
ases 2097
guard 2097
座谈会 2097
VE@@ 2096
complicated 2096
representing 2096
更为 2096
诚@@ 2096
remained 2095
人民共和国 2095
尚 2094
立法@@ 2094
谋@@ 2094
hen@@ 2093
丁@@ 2093
十七日 2093
ction 2092
大小 2092
australia 2091
法新社 2091
rap@@ 2090
publicity 2089
分歧 2089
隔 2089
定义 2088
灰@@ 2088
cam@@ 2087
declared 2087
合并 2087
签@@ 2086
1987 2085
hundred 2085
leung 2085
信任 2085
II 2084
carrier 2084
大纲 2083
..@@ 2082
名单 2082
消耗 2082
跟进 2082
判决 2081
附件 2081
claims 2080
mining 2080
rog@@ 2080
中日 2080
夜 2080
巴基斯坦 2080
往@@ 2080
洪@@ 2080
食环署 2080
cpi 2079
named 2079
names 2079
oma 2078
主体 2078
朝@@ 2078
爆炸 2078
,000 2077
架构 2077
components 2076
驾@@ 2076
risks 2075
六日 2075
proc@@ 2074
代理 2074
富 2073
Al 2072
conf@@ 2072
introduction 2072
mun 2072
commodities 2071
是因为 2071
粗@@ 2071
摄@@ 2070
重组 2070
销@@ 2070
removed 2069
tif@@ 2069
74 2068
ide@@ 2068
pow@@ 2067
伦@@ 2067
典@@ 2067
声音 2067
some@@ 2066
公共@@ 2066
电力 2066
码头 2066
赶@@ 2066
As@@ 2065
业主 2065
expert 2064
multiple 2064
southbound 2064
thereby 2064
声称 2064
护理 2064
paying 2063
strongly 2063
二是 2063
良@@ 2063
secretariat 2062
循环 2062
78 2061
appeared 2061
resolved 2061
em 2060
yield 2060
南行 2060
哈 2060
commander 2059
examine 2059
与@@ 2058
亚太地区 2058
峰 2058
益@@ 2058
immediate 2057
净 2057
十三日 2056
引发 2056
legitimate 2055
reiterated 2055
shape 2055
菌@@ 2055
achieving 2054
theoretical 2054
上台 2054
折 2054
版本 2054
盐@@ 2054
社会保障 2054
经贸关系 2054
议题 2053
General 2052
The@@ 2052
handled 2052
三百 2052
党的建设 2052
ined 2050
签订 2049
长远 2049
nor@@ 2048
ric 2048
泰@@ 2048
当作 2047
cing 2046
贵@@ 2046
韩 2046
饰 2046
household 2045
环保署 2045
等级 2045
assi@@ 2044
thoroughly 2044
亡 2044
十一日 2044
各个 2044
businessmen 2043
prosecution 2043
派@@ 2043
状@@ 2043
袭击 2043
101 2042
Car@@ 2042
公顷 2042
像@@ 2041
杆 2041
歌 2040
合适 2039
rain@@ 2037
sted 2037
信托 2037
值得 2037
冒@@ 2037
06 2036
gap 2036
健@@ 2036
术@@ 2036
ains 2035
ffe@@ 2035
有限 2035
舱 2035
队@@ 2035
them@@ 2034
服务业 2034
Model 2033
bit@@ 2033
cont@@ 2033
手续 2033
梁 2033
青 2033
queen 2032
硫@@ 2032
脏 2031
coastal 2030
减轻 2030
degrees 2029
reflect 2029
些 2029
作者 2029
AB@@ 2028
缘 2028
需@@ 2028
adhere 2027
connec@@ 2026
看来 2026
缩@@ 2026
默@@ 2026
总体 2024
manpower 2022
暂@@ 2022
aling 2021
旁 2021
赋予 2021
applies 2020
disputes 2020
失去 2020
pur@@ 2019
realized 2019
sensitive 2019
加速 2019
反华 2019
四日 2019
Gen@@ 2018
cir@@ 2018
佩@@ 2018
村@@ 2018
ID 2017
United 2017
桩 2017
88 2016
丽@@ 2015
壳 2015
acted 2014
votes 2014
扩散 2014
玩@@ 2014
康 2013
Q 2012
Fe@@ 2011
埃@@ 2011
聆@@ 2011
载有 2011
鸡 2011
退休 2010
SS@@ 2009
全军 2009
宗旨 2009
canada 2008
moved 2008
客人 2008
盖@@ 2008
sit@@ 2007
sub 2007
境 2007
李 2007
麦 2007
useful 2006
directed 2005
坡 2005
暗@@ 2005
96 2004
ment@@ 2004
情报 2004
系列 2004
随后 2004
顶@@ 2004
resulting 2003
Hy@@ 2002
assistant 2002
ult 2002
现已 2002
belief 2001
intended 2001
赵@@ 2001
鉴于 2001
conflict 2000
imported 2000
庆祝 1999
渗@@ 1999
1984 1998
Technology 1998
cancer 1998
measured 1998
nel 1998
准许 1998
朗 1998
弃 1996
cent@@ 1995
几年 1995
controlling 1994
yu@@ 1994
潜力 1994
一间 1993
原来 1993
获取 1993
adjusted 1992
asean 1992
sa@@ 1992
cash 1991
佛@@ 1991
守@@ 1991
工业@@ 1990
必然 1990
董建华 1990
Man@@ 1989
万美元 1988
友好关系 1988
recommendations 1987
恩@@ 1987
毛 1987
tons 1986
thailand 1985
纸 1985
首都 1985
Shi@@ 1984
令人 1984
织@@ 1984
自治区 1984
遵@@ 1984
northern 1983
顶 1983
funded 1982
图像 1982
directors 1981
将@@ 1981
询 1981
epd 1980
instrument 1980
meters 1980
removal 1980
shipping 1980
抓@@ 1980
电视台 1980
重要性 1980
69 1979
92 1979
后来 1979
班@@ 1979
TO@@ 1978
楼@@ 1978
鸟 1978
decline 1977
tour 1977
净@@ 1977
面前 1977
One 1976
objectives 1976
tual 1976
答 1976
输 1976
Pol@@ 1975
pon@@ 1975
笔 1975
荷 1975
steady 1974
开发@@ 1974
步伐 1974
殖 1974
禁毒 1974
ign@@ 1973
male 1973
丝@@ 1973
曼 1973
若@@ 1973
uni@@ 1972
入境处 1972
89 1971
lim@@ 1971
附属 1971
domin@@ 1970
雷 1970
investigating 1969
stra@@ 1969
能否 1969
applying 1968
pic@@ 1968
帐@@ 1967
stat@@ 1966
内政 1966
完整 1966
封 1966
彩@@ 1966
搞好 1966
欢@@ 1966
议 1966
counter 1965
tsuen 1965
一方面 1965
刻 1965
命@@ 1965
考试 1965
dead 1964
huang 1964
lo 1964
册@@ 1964
纹 1964
菲律宾 1964
decide 1963
criteria 1962
punishment 1962
zones 1962
ger 1961
嘉@@ 1961
fix@@ 1960
poultry 1960
comments 1959
unique 1959
练 1959
element 1958
yan@@ 1958
partner 1957
rescue 1957
supports 1956
纪律 1956
examined 1955
ster@@ 1955
ster 1954
工作者 1954
1000 1953
contains 1953
岸 1952
牵@@ 1952
compu@@ 1951
ration 1951
保存 1951
引入 1951
lat@@ 1950
百 1950
巴勒斯坦 1949
SP 1948
display 1948
八日 1948
兴建 1948
思考 1948
疫@@ 1948
Inter@@ 1947
73 1946
inary 1946
route 1946
tested 1946
着@@ 1946
announcement 1945
cc@@ 1945
sum@@ 1945
台湾同胞 1945
孔@@ 1945
oun@@ 1944
sample 1944
refuse 1943
RI@@ 1942
object 1942
两地 1942
全国政协 1942
涂@@ 1942
jiaxuan 1941
地面 1941
引进 1941
追求 1941
释 1941
规管 1940
beyond 1939
regulatory 1939
优先 1939
寻找 1939
昨天 1939
缓 1939
识别 1939
ation@@ 1938
installed 1938
人大 1938
亿港元 1938
所指 1938
率@@ 1938
辅助 1938
86 1937
incidents 1937
outline 1937
ush@@ 1937
accelerate 1936
easily 1936
海洋 1936
袋 1936
0,000 1935
km 1935
任期 1935
确立 1935
Tra@@ 1934
embassy 1934
77 1933
码@@ 1933
试 1933
ss@@ 1932
agree 1931
alist 1931
脂@@ 1931
首相 1931
equivalent 1930
concerns 1929
interference 1929
judgment 1929
permitted 1929
孙@@ 1928
begin 1927
thy 1927
aspect 1926
victory 1926
牙@@ 1926
71 1925
managing 1925
moral 1925
即时 1925
彩 1925
曾@@ 1925
沿 1925
districts 1924
leisure 1924
identified 1923
有助 1923
绿@@ 1922
自然@@ 1922
舆论 1922
蒂@@ 1922
wit@@ 1921
利润 1921
燃料 1921
vision 1920
自由@@ 1920
Some 1919
医 1919
87 1918
主办 1918
bat@@ 1917
ye 1917
zhao 1917
报导 1917
agents 1916
aware 1916
剧@@ 1916
澳 1916
爆发 1916
bil@@ 1915
broadcasting 1915
ye@@ 1915
灵 1915
ji 1914
permission 1914
protocol 1914
repair 1914
名义 1914
Ph@@ 1913
Secretary 1911
lor@@ 1910
unification 1910
拿@@ 1910
纳入 1910
admitted 1909
样本 1909
致辞 1909
ound 1908
ck 1907
maritime 1907
家长 1907
市长 1907
怀@@ 1907
海峡两岸 1907
祖国大陆 1907
holder 1906
支出 1906
commencement 1905
transferred 1905
文化@@ 1905
长者 1905
represent 1904
simply 1904
衣 1904
PR@@ 1903
京 1903
梅@@ 1903
looked 1902
拍@@ 1902
杰@@ 1902
pass@@ 1901
wars 1901
朝鲜半岛 1901
迟浩田 1901
阿 1900
处置 1899
拖@@ 1899
contain 1898
jun 1898
pursue 1898
赢得 1898
CP 1897
aggression 1897
teacher 1897
坏 1897
缴 1897
螺@@ 1897
露@@ 1897
preventing 1896
工厂 1896
朱熔基 1896
氏 1896
不管 1895
收取 1895
高度重视 1895
玛@@ 1894
considering 1893
offences 1893
stone 1893
明日 1892
joined 1891
ali@@ 1890
raw 1890
心理 1890
collective 1889
covers 1889
理事会 1889
First 1888
其次 1888
calculated 1887
cen@@ 1887
count 1887
行人 1887
2.5 1886
军区 1886
效@@ 1886
0.5 1885
What 1885
vietnam 1885
北京@@ 1885
对外开放 1885
全国人大 1884
helping 1883
smo@@ 1883
taxes 1883
共同@@ 1883
将来 1883
工会 1883
contained 1882
来到 1882
领土完整 1882
reporting 1881
步骤 1881
艇 1881
* 1880
missing 1880
ya 1880
会计@@ 1880
物价指数 1880
秘书 1880
转入 1880
ley 1879
contra@@ 1878
getting 1878
grasp 1878
tain 1878
冷战 1878
constant 1877
敌 1877
94 1876
钱@@ 1876
所在 1875
performing 1874
1980 1873
custom@@ 1873
admission 1872
introduc@@ 1872
传 1872
战略@@ 1872
舱@@ 1872
防治 1872
greatest 1871
guang@@ 1871
reli@@ 1871
对策 1871
避@@ 1871
distributed 1870
influ@@ 1869
儿子 1869
划@@ 1869
创建 1869
意味着 1869
deposits 1868
计算@@ 1868
集体 1868
grand 1867
席 1867
镇 1867
120 1866
academy 1866
暴力 1866
联邦 1866
ots 1865
父亲 1865
pool 1864
organize 1863
competitiveness 1862
wid@@ 1862
ys@@ 1862
cast 1861
shel@@ 1861
旋 1861
答@@ 1861
辛@@ 1861
earth 1860
制造业 1860
税收 1860
enc@@ 1859
run@@ 1859
solic@@ 1859
等等 1859
肉@@ 1859
该署 1859
contribute 1857
electricity 1857
equality 1857
licensing 1857
rob@@ 1857
宁 1857
慢@@ 1857
cho@@ 1856
historic 1856
拜@@ 1856
教学@@ 1856
Internet 1854
defendant 1854
head@@ 1854
专员 1854
聚 1854
别的 1853
1985 1852
hear 1852
变得 1852
funding 1851
momentum 1851
oti@@ 1851
剂@@ 1851
Water 1850
少数 1850
自治@@ 1850
applicants 1849
arrest 1849
新政府 1849
13.@@ 1848
arti@@ 1847
connected 1847
干预 1847
禽流感 1847
execu@@ 1846
injury 1845
plus 1845
蒸@@ 1845
Regulations 1844
leaving 1844
形态 1844
07 1842
CC@@ 1842
closer 1842
combination 1842
detection 1842
湾泳滩 1842
CO 1841
把握 1841
致力于 1841
ables 1840
becomes 1840
pil@@ 1840
cycle 1839
taxi 1839
voice 1839
旧@@ 1839
Le@@ 1838
avi@@ 1838
winning 1838
periods 1837
其余 1837
母 1837
继 1837
软 1837
houses 1836
origin 1836
techniques 1836
carefully 1835
collision 1835
thank 1835
tured 1835
伙伴 1835
学员 1835
work@@ 1834
上半年 1834
取代 1834
激烈 1834
Lo@@ 1833
harm 1833
restrictions 1833
save 1833
伟@@ 1833
每月 1833
deployment 1832
nationalities 1831
ka 1830
stipulated 1830
穿 1830
elling 1829
违@@ 1829
nec@@ 1828
动机 1828
审计 1828
益 1828
窗@@ 1828
lcsd 1826
spring 1826
印尼 1826
意大利 1826
违例 1826
thousand 1825
七十@@ 1825
滤@@ 1825
腹@@ 1825
ae 1824
bad 1824
recognition 1824
allocation 1823
applicable 1823
chance 1823
hospitals 1823
武力 1823
ied 1822
proceed 1822
句 1822
洋 1822
港币 1822
紫@@ 1822
J 1821
gue 1821
sky 1821
suspension 1821
AN 1820
practitioners 1820
军方 1820
必 1820
gained 1819
input 1819
五十 1819
解放军 1819
possibility 1818
东盟 1818
贮@@ 1818
以往 1817
范畴 1817
Z 1816
agenda 1816
briefing 1816
医管局 1816
另有 1816
隔@@ 1816
fishing 1815
nur@@ 1815
三名 1815
两次 1815
付@@ 1814
令@@ 1814
圈 1814
逆@@ 1814
Te@@ 1813
grass 1813
trical 1813
浏览 1813
脚 1813
FA@@ 1812
conflicts 1812
sch@@ 1812
替 1812
系@@ 1812
ko@@ 1810
ourselves 1810
津贴 1810
胺 1810
choose 1809
marketing 1809
realizing 1809
schedule 1809
义@@ 1809
典 1809
adap@@ 1808
exceeding 1808
电台 1808
跌幅 1808
latter 1807
也许 1807
息@@ 1807
long@@ 1806
manage 1805
universities 1805
药品 1805
贵 1805
arm 1804
ts@@ 1804
undertaking 1804
一步 1804
conservation 1803
植 1803
emp@@ 1802
occasions 1802
斜 1802
犯@@ 1802
种类 1802
霍@@ 1802
静 1802
gh 1801
可靠 1801
慢 1801
货柜 1801
钟 1801
dalai 1800
existence 1800
mid@@ 1800
付款 1800
plays 1799
免费 1799
全文 1799
成熟 1799
com 1798
rising 1798
噪@@ 1797
chain 1796
widely 1796
oppose 1795
空缺 1795
综@@ 1795
However 1794
专题 1794
架@@ 1794
继@@ 1794
陈述 1794
送交 1793
eds 1792
ty@@ 1792
入世 1792
发售 1792
民间 1792
absolutely 1791
bir@@ 1791
具体@@ 1791
失业 1791
朱閒基 1791
ese 1790
reminded 1790
幼@@ 1790
树立 1790
被告 1790
amb@@ 1789
guo 1789
neither 1789
Commission 1788
Subject 1788
ant@@ 1788
辩@@ 1788
defined 1787
Company 1785
克服 1785
并未 1785
resear@@ 1784
二十一 1784
如今 1784
很快 1784
lai 1783
保安 1783
释放 1783
雇佣 1783
communists 1782
person@@ 1782
700 1781
partners 1781
contradictions 1780
num@@ 1780
总数 1780
Ste@@ 1779
appears 1779
含有 1779
Trans@@ 1778
federal 1778
ip 1778
体育@@ 1778
kers 1777
speak 1777
一支 1777
浅@@ 1777
用来 1776
correc@@ 1775
on-@@ 1775
tsui 1775
戴@@ 1775
晶 1775
紧 1775
ac 1774
入狱 1774
seems 1773
powell 1772
姓名 1772
总值 1772
涉@@ 1772
drivers 1771
eral 1771
中小企业 1771
层次 1770
责@@ 1770
yes 1769
与此同时 1769
往往 1769
免疫 1768
态@@ 1768
illegally 1767
制裁 1767
MA 1766
author 1766
yau 1766
唐@@ 1766
每日 1766
linked 1765
liter@@ 1765
sou@@ 1765
农产品 1765
self-@@ 1764
val 1764
腐败 1764
转换 1764
迪@@ 1764
重大@@ 1764
passing 1763
围绕 1763
小学 1763
commitment 1761
spac@@ 1761
是从 1761
Every 1760
盆@@ 1760
plenary 1759
二零零六年 1759
Cor@@ 1758
两会 1758
伤害 1758
显 1758
灭@@ 1758
OP@@ 1757
compl@@ 1757
LC 1756
吨 1756
成员国 1756
气氛 1756
IO@@ 1755
valid 1755
面向 1755
香港特别行政区 1755
Party 1754
rever@@ 1754
徐@@ 1754
financing 1753
到达 1753
思想@@ 1753
chau 1752
convicted 1752
preceding 1752
Sim@@ 1751
UN@@ 1751
birth 1751
\ 1750
auth@@ 1750
sanctions 1750
separately 1750
划分 1750
向前 1750
母亲 1750
进口货 1750
invested 1749
turning 1749
偷@@ 1749
党委 1749
浓@@ 1749
Although 1748
TO 1748
政权 1748
candidate 1747
采购 1746
earnestly 1745
rest@@ 1745
高技术 1745
anti-@@ 1744
frequent 1744
girl 1744
topic 1744
互利 1744
惠@@ 1744
alities 1743
particul@@ 1743
payments 1743
争议 1743
州@@ 1743
改为 1743
Chan@@ 1742
compliance 1742
jurisdiction 1742
mankind 1742
quar@@ 1742
timely 1742
优质 1742
60@@ 1741
municipalities 1741
买卖 1741
笔@@ 1741
驶@@ 1741
sh 1740
vit@@ 1740
地球 1740
尽量 1740
crucial 1739
dropped 1739
tivity 1739
亚太经合组织 1739
烈 1739
abuse 1738
ff 1738
revolutionary 1738
民主党 1738
沙田 1738
词@@ 1738
dar@@ 1737
secret 1737
陶@@ 1736
鲜@@ 1736
ior 1735
swimming 1735
wood 1735
taxation 1734
敏感 1734
献@@ 1734
deepen 1733
pos@@ 1733
阵@@ 1733
1,000 1732
苦@@ 1732
files 1731
广 1731
grassroots 1730
shar@@ 1730
dre@@ 1729
家禽 1729
迷@@ 1729
tension 1728
Per@@ 1727
tibetan 1727
transactions 1727
尖@@ 1727
fehd 1726
hear@@ 1726
informed 1726
三讲 1726
公斤 1726
组成部分 1726
ION 1725
welcomed 1725
怎@@ 1725
撞 1725
自主 1725
自我 1725
天气 1724
室@@ 1724
activ@@ 1723
hence 1723
refused 1723
调节 1723
08 1722
GE@@ 1722
installation 1722
newspaper 1722
automatic 1721
corpor@@ 1721
inst@@ 1720
依靠 1720
武装 1720
诗@@ 1720
Ⅲ 1719
club 1718
mutually 1718
oral 1718
债券 1718
待遇 1718
监督@@ 1718
prohibited 1717
冠@@ 1717
陪同 1717
ED 1716
acute 1716
址 1716
辆 1716
验证 1716
recognize 1715
凯@@ 1715
刊@@ 1715
哥 1715
diff@@ 1714
司法@@ 1714
goals 1713
reception 1713
parking 1712
洁@@ 1712
长时间 1712
doc@@ 1711
ision 1711
得出 1711
smoothly 1710
协作 1710
跌 1710
larger 1709
lose 1709
memory 1709
surplus 1709
权限 1709
PE@@ 1708
detained 1708
tunnel 1708
全世界 1708
帕@@ 1708
ath@@ 1707
环节 1707
governor 1706
lif@@ 1706
ports 1706
sentence 1706
restricted 1705
teams 1705
错@@ 1705
ana 1704
distribu@@ 1704
当天 1704
索取 1704
高效 1704
re-@@ 1703
rit@@ 1703
会员 1703
MENT 1702
accompanied 1702
allows 1702
helped 1702
舒@@ 1702
stands 1701
季@@ 1701
map 1700
probably 1700
但@@ 1700
IG@@ 1699
下载 1699
邪教组织 1699
10,000 1698
museum 1698
轨道 1698
encouraging 1697
instructions 1697
之日起 1697
售 1697
级@@ 1697
邓小平 1697
险 1697
appreciation 1696
′ 1696
住户 1696
凡@@ 1696
洋@@ 1696
皇@@ 1696
私营 1696
Serv@@ 1695
danger 1695
headed 1695
一人 1695
奋斗 1695
That 1694
dom 1694
泥@@ 1694
然@@ 1694
移民 1694
艺术@@ 1694
Ma@@ 1693
ental 1693
rail@@ 1693
或是 1693
exists 1692
phone 1692
所述 1692
注射 1692
胆@@ 1692
continues 1691
im 1691
ney 1691
passenger 1691
professionals 1691
仅@@ 1691
敏@@ 1691
相结合 1690
负担 1690
diag@@ 1689
extension 1689
posed 1689
sell 1689
servants 1689
University 1688
授予 1688
欠@@ 1688
stood 1687
刺激 1687
多名 1687
照顾 1687
留下 1687
faces 1686
foot@@ 1686
gri@@ 1686
丁 1686
expect 1685
智 1685
祖@@ 1685
practic@@ 1684
constitutional 1683
标记 1683
〔 1682
诺 1682
pling 1681
sy@@ 1681
土壤 1681
排 1681
83 1680
band 1680
势@@ 1680
dry 1679
valuable 1679
屋@@ 1679
hung 1678
ures 1678
〕 1678
腔 1678
若干 1678
链@@ 1678
Central 1677
ocean 1677
soci@@ 1677
夜@@ 1677
学家 1677
牛 1677
Service 1676
随时 1676
arch@@ 1675
consumers 1675
peak 1675
proof 1675
严重@@ 1675
纪念@@ 1675
罪名 1675
金融机构 1675
di 1674
orientation 1674
东部 1674
劳 1674
客观 1674
工商@@ 1674
无须 1674
ils 1673
reconnaissance 1673
一宗 1672
协@@ 1672
仪@@ 1671
considers 1670
j 1670
ki@@ 1670
utilization 1670
饲@@ 1670
ard@@ 1669
numerous 1669
价@@ 1669
审批 1669
高新技术 1669
ie 1668
medi@@ 1668
充分@@ 1668
怎么 1668
李岚清 1668
浪@@ 1668
轴 1668
轴@@ 1668
龄 1668
1.2 1667
compar@@ 1667
仲裁 1667
ban 1666
yl 1666
legco 1665
板@@ 1665
滩 1665
愿望 1664
minority 1663
修 1663
offering 1662
totally 1662
对台 1662
3,@@ 1661
arm@@ 1661
boo@@ 1661
hab@@ 1661
hi 1661
lau 1661
urgent 1661
coll@@ 1660
expanded 1660
尾@@ 1660
酮 1660
PC 1659
享受 1659
仁 1659
技能 1657
披露 1657
署@@ 1657
艺@@ 1657
雪@@ 1657
fr@@ 1656
operated 1656
比率 1656
don@@ 1655
opposed 1654
多数 1654
有机 1654
睡@@ 1654
break@@ 1653
二千 1653
烯 1653
监 1653
雄 1653
1982 1652
mort@@ 1652
勇@@ 1652
个人@@ 1651
肺@@ 1651
腺@@ 1651
舍 1651
识 1651
象@@ 1651
.1 1650
presence 1650
recognized 1650
ress 1650
wants 1650
97 1649
Su@@ 1649
改 1649
毁 1649
electrical 1648
军官 1648
小巴 1648
扬 1648
桑@@ 1648
cooperate 1647
dispute 1647
encouraged 1647
formulate 1647
suffered 1647
同胞 1647
indicate 1646
谢 1646
arising 1645
gran@@ 1645
peri@@ 1645
中间 1645
研制 1645
第四十@@ 1645
Sy@@ 1644
high@@ 1644
乘 1644
华人 1644
金管局 1644
园@@ 1643
纪 1643
absolute 1642
tool 1642
今天上午 1642
因应 1642
新疆 1642
法人 1642
股市 1642
黑 1642
produc@@ 1641
五国 1641
功 1641
夫@@ 1641
EA@@ 1640
calling 1640
findings 1640
proceeding 1640
京@@ 1640
高科技 1640
allowing 1639
sla@@ 1639
talent 1639
北部 1639
宪@@ 1639
wai 1638
南部 1638
尾 1638
床@@ 1638
bar 1637
宽 1637
核武器 1637
carbon 1636
mation 1636
sand 1636
straits 1636
immun@@ 1635
impossible 1635
organic 1635
shor@@ 1635
周围 1635
套@@ 1635
辩论 1635
app@@ 1634
attach 1633
ere 1633
inspec@@ 1633
topics 1633
房委会 1633
常规 1632
hur@@ 1631
使用@@ 1631
冬@@ 1631
处理@@ 1631
学位 1631
物业 1631
陈 1631
按揭 1630
边界 1630
erv@@ 1629
spe@@ 1629
起诉 1629
resolving 1628
sem@@ 1628
淋@@ 1628
特别@@ 1628
重要讲话 1628
farmers 1627
外资 1627
buses 1626
一级 1626
场地 1626
堡 1626
距 1626
副本 1625
频率 1625
biggest 1624
ideology 1624
righ@@ 1624
八年 1624
a-@@ 1623
ands 1623
作品 1623
疏@@ 1623
81 1622
diverted 1622
umn 1622
东西 1622
遭受 1622
钻@@ 1622
How 1621
sessions 1621
之下 1621
任意 1621
期待 1621
汽@@ 1621
特区 1621
追究 1621
15.@@ 1620
From 1620
bases 1620
pp@@ 1620
zedong 1620
充分发挥 1620
发动 1620
灭 1620
自行 1620
达赖 1620
obligations 1619
rs 1619
zh@@ 1619
乡@@ 1619
作风 1619
南非 1619
日后 1619
欲 1619
14.@@ 1618
79 1618
ome 1618
席@@ 1618
炮 1618
contractors 1617
interpretation 1617
managed 1617
preliminary 1617
title 1617
91 1616
GA@@ 1616
Shan@@ 1616
ease 1616
一道 1616
空中 1616
耳@@ 1616
页 1615
chan@@ 1614
flying 1614
习@@ 1614
occup@@ 1613
oned 1613
一辆 1613
197@@ 1612
cadre 1612
ero@@ 1612
heading 1612
奋@@ 1612
患 1612
经济体制 1612
emphasis 1611
可能性 1611
缴@@ 1611
遇@@ 1611
xiamen 1610
枪@@ 1610
debts 1609
pleased 1609
wages 1609
承 1609
氯@@ 1609
specially 1608
周期 1608
野 1608
constructed 1607
difficulty 1607
fru@@ 1607
枚 1607
相反 1607
融资 1607
HC@@ 1606
ancy 1606
fill 1606
oth 1606
violence 1606
待@@ 1606
电视@@ 1606
PRE@@ 1605
jan 1605
overcome 1605
rev@@ 1605
种种 1605
解放 1605
50,000 1604
fab@@ 1604
satisfaction 1604
TE 1603
TRA@@ 1603
obvious 1603
weak@@ 1603
滑 1603
篇 1603
自治 1603
eventually 1602
qing 1602
开幕 1602
realization 1601
tine 1601
责 1601
颜@@ 1601
asing 1600
doubt 1600
organisation 1600
硬 1600
被控 1600
motorists 1599
应用@@ 1599
滥用 1599
酯 1599
Conclusion 1598
jin@@ 1598
应对 1598
狗 1598
留意 1598
TER@@ 1597
eable 1597
wrong 1597
驱@@ 1597
fail 1596
perspective 1596
候@@ 1596
隧道 1596
CR@@ 1595
hectares 1595
ours 1595
券 1595
报告书 1594
统 1594
闭@@ 1594
症@@ 1593
碰@@ 1593
eligible 1592
探 1592
荣 1592
acti@@ 1591
对待 1591
旁@@ 1591
显然 1591
瓦 1591
科学技术 1591
know@@ 1590
她们 1590
幸@@ 1590
肾@@ 1590
Region 1589
eliminate 1589
strategies 1589
与其 1589
依然 1589
冷 1589
汇率 1589
chapter 1588
virtue 1588
助 1588
四条 1588
摘 1588
额外 1588
两者 1587
formal 1586
letters 1586
创 1586
始@@ 1586
链 1586
separation 1585
刑罚 1585
回收 1585
宝 1585
浸@@ 1585
碳@@ 1585
Elec@@ 1584
computers 1584
cutting 1584
ems 1584
star@@ 1584
悲@@ 1584
男 1584
alliance 1583
stages 1583
递交 1583
2-@@ 1582
会否 1582
检 1582
iling 1581
ur 1581
南北 1581
友@@ 1581
gent 1580
议长 1580
料@@ 1579
氮 1579
辐射 1579
Group 1578
乔@@ 1578
习 1578
众多 1577
挤@@ 1577
杯 1577
演练 1577
一九九七年 1576
旅行 1576
认同 1576
crip@@ 1575
devices 1575
nov@@ 1575
sight 1575
地下 1575
Management 1574
本国 1574
真实 1574
dh 1573
perfect 1573
prepare 1573
upholding 1573
关税 1573
十二@@ 1573
岛@@ 1573
庆@@ 1573
got 1572
adverti@@ 1571
eding 1571
tran@@ 1571
ope 1570
proliferation 1569
prove 1569
清理 1569
abide 1568
bonds 1568
condi@@ 1568
mayor 1568
尚@@ 1568
山道 1568
划 1567
reviewed 1566
Fu@@ 1565
households 1565
ous@@ 1564
不但 1564
人民大会堂 1564
tuen 1563
屯门 1563
正如 1563
aled 1562
black 1562
exceed 1562
itted 1562
undertakings 1562
一部 1562
侦察 1562
债 1562
停 1562
朱 1562
84 1561
COM@@ 1561
EX@@ 1561
debate 1561
dium 1561
之际 1561
刚刚 1561
式@@ 1561
crow@@ 1560
tively 1560
tradition 1560
trends 1560
detention 1559
saving 1559
大局 1559
审判 1559
摆@@ 1559
爆@@ 1559
餐 1559
临 1558
党员 1558
delay 1557
here@@ 1557
任命 1557
水域 1557
attaches 1556
deepening 1556
onal 1556
picture 1556
制约 1556
响应 1556
巡@@ 1556
归 1556
contrary 1555
high-@@ 1555
帐 1555
弱@@ 1555
院长 1555
永久 1554
独特 1554
直到 1554
航空@@ 1554
赖@@ 1554
stocks 1553
站@@ 1553
93 1552
不得不 1552
伸@@ 1552
澳大利亚 1552
社会福利 1552
cru@@ 1551
tian 1551
百分之二十 1551
enhancement 1550
filled 1550
liber@@ 1550
lit@@ 1550
seeing 1550
subjects 1550
哪@@ 1550
甚@@ 1550
Special 1549
college 1549
locations 1549
败 1548
ault 1547
categories 1547
升级 1547
dance 1546
专责 1546
certified 1545
frequently 1545
fun@@ 1545
protected 1545
sometimes 1545
collec@@ 1544
sending 1544
terrorist 1544
七条 1544
相似 1544
demonstrated 1543
符 1543
靠@@ 1543
stu@@ 1542
experienced 1541
weapon 1541
季度 1541
弗@@ 1541
申请@@ 1541
adequate 1540
soviet 1540
员@@ 1540
解除 1540
誉 1540
deficit 1539
wards 1539
国务卿 1539
港元 1539
若有 1539
都@@ 1539
LU@@ 1538
audi@@ 1538
stronger 1538
互相 1538
荃湾 1538
Op@@ 1537
Pre@@ 1537
cas@@ 1537
posite 1537
exposed 1536
ham@@ 1536
membership 1536
package 1536
全年 1536
敬@@ 1536
bin 1535
boost 1535
commodity 1535
判断 1535
朱邦造 1535
阻止 1535
ense 1534
kin@@ 1534
meat 1534
涵盖 1534
环境@@ 1534
繁@@ 1534
臣 1534
pun@@ 1533
senate 1533
元朗 1533
比如 1533
GE 1532
ie@@ 1532
后果 1532
插@@ 1532
数据库 1532
杰 1532
IR 1531
中有 1531
乱@@ 1531
帐户 1531
d-@@ 1530
iv 1530
passeng@@ 1530
复苏 1530
退 1530
亲切 1529
说法 1529
合署 1528
detail 1527
measuring 1527
研究所 1527
.2 1526
composed 1526
大道 1526
提案 1526
警务人员 1526
银 1526
lie 1525
军售 1525
有所@@ 1525
照片 1525
arity 1524
intensify 1524
kung 1524
阻 1523
ap 1522
reserves 1522
cy 1521
eb@@ 1521
sharing 1521
aching 1520
counter@@ 1520
戏@@ 1520
pay@@ 1519
returning 1519
equipped 1518
ra 1518
垂@@ 1518
左 1518
版@@ 1518
科学家 1518
计算机@@ 1518
重复 1518
Or@@ 1517
attract 1516
requested 1516
代理人 1516
搜查 1516
湖 1515
章程 1515
骗 1515
stic 1514
埃及 1514
prison 1513
瑞@@ 1512
decades 1511
分享 1511
肥 1511
discus@@ 1510
forest 1510
meth@@ 1510
sai 1510
剪@@ 1510
拓展 1510
珠@@ 1510
邓小平理论 1510
canal 1509
item 1509
军人 1508
投资@@ 1508
Me@@ 1507
issuing 1507
pre 1507
accurate 1506
ased 1506
civilian 1506
rational 1506
zeng 1506
敏 1506
貌 1506
burden 1505
definitely 1505
occasion 1504
resident 1504
select 1504
大选 1504
迷 1504
originally 1503
treasury 1503
抗议 1503
aly@@ 1502
rup@@ 1502
supervisory 1502
侵略 1502
destroyed 1501
functional 1501
三是 1501
deeds 1500
肠@@ 1500
谈话 1500
ams 1499
derived 1499
捕@@ 1499
百分之十@@ 1499
际 1499
ared 1498
assigned 1498
multilateral 1498
佳 1498
各界 1498
接纳 1498
有效@@ 1498
苦 1498
货值 1498
ising 1497
replace 1497
seize 1497
借 1497
odi@@ 1496
pec@@ 1496
坦@@ 1496
dam@@ 1495
mixed 1495
街道 1495
转口货 1495
analyses 1494
feelings 1494
两国论 1494
愈@@ 1494
拆@@ 1494
援@@ 1494
针 1494
flexible 1493
trafficking 1493
反腐败 1493
尝试 1493
闪@@ 1493
collect 1492
consistently 1492
ions 1492
liaison 1492
欧 1492
na 1491
shot 1491
ush 1491
较为 1491
exertion 1490
london 1490
借鉴 1490
旗@@ 1490
汇报 1490
肌 1490
amounts 1489
ghts 1489
guided 1489
ounded 1489
substantial 1489
肥@@ 1489
问候 1489
会计 1488
体力 1488
坏@@ 1488
雇 1488
autom@@ 1487
nevertheless 1487
terrorism 1487
回顾 1487
迎接 1487
category 1486
continually 1486
impose 1486
taipei 1486
实验室 1486
concepts 1485
广州 1485
盘@@ 1485
AM@@ 1484
aking 1484
broken 1484
东亚 1484
哥@@ 1484
feng 1483
kai 1483
previously 1483
并会 1483
情形 1483
溢@@ 1483
reflected 1482
五时 1482
awarded 1481
encing 1481
identify 1481
古巴 1481
广东省 1481
抢@@ 1481
Foreign 1480
bol@@ 1480
conc@@ 1480
报纸 1480
灯@@ 1480
ards 1479
statements 1479
年轻 1479
徒刑 1479
IB@@ 1478
bo 1478
ti 1478
两项 1478
八十@@ 1478
本月 1478
flag 1477
有限@@ 1477
颗@@ 1477
junction 1476
谱@@ 1476
initiatives 1475
ram@@ 1475
会面 1475
广阔 1475
纲领 1475
闻 1475
nai 1474
焊@@ 1474
肤 1474
雇用 1474
奥运会 1473
曼@@ 1473
apped 1472
circulation 1472
receipts 1472
全面@@ 1472
兹 1472
dy@@ 1471
refer 1471
是@@ 1471
injuries 1470
lers 1470
武器装备 1470
construc@@ 1469
corporations 1469
天然气 1469
总裁 1469
摇@@ 1469
生成 1469
CP@@ 1468
每次 1468
千年 1467
唱@@ 1467
领导@@ 1467
mix@@ 1466
observation 1466
prob@@ 1466
secure 1466
16.@@ 1465
储 1465
对华 1465
尽早 1465
appl@@ 1464
ition 1464
measurement 1464
voting 1464
姆@@ 1464
川 1464
规律 1464
诉 1464
America 1463
asting 1463
发给 1463
守则 1463
黄 1463
afp 1462
life@@ 1462
rig@@ 1462
spent 1462
不变 1462
专用 1462
二十 1462
行政区 1462
thorough 1461
储备 1461
2010 1460
台北 1460
小心 1460
未有 1460
疲@@ 1460
责任@@ 1460
辞 1460
descri@@ 1459
slightly 1459
wealth 1459
刀 1459
吊@@ 1459
宣言 1459
湿@@ 1459
偶@@ 1458
Bi@@ 1457
STA@@ 1457
closing 1457
eration 1457
factory 1457
优 1457
届满 1457
ner@@ 1456
人均 1456
财政司 1456
针@@ 1456
classes 1455
kets 1455
limits 1455
城市规划 1455
Cal@@ 1454
优秀 1454
alls 1453
璃 1453
moun@@ 1452
receipt 1452
therapy 1452
偿 1452
动议 1452
古 1452
监控 1452
稀@@ 1452
菲@@ 1452
consultative 1451
短期 1451
abl@@ 1450
treat 1450
吸 1450
呀 1450
real@@ 1449
人群 1449
地盘 1449
ich 1448
directions 1447
prop@@ 1447
六个月 1447
利息 1447
contingent 1446
exploration 1446
laboratory 1446
vic@@ 1446
十一@@ 1446
两天 1445
侦察机 1445
谴责 1445
贯彻落实 1445
赫@@ 1445
3-@@ 1444
calculation 1444
represented 1444
rid 1444
理念 1444
earthquake 1443
tsim 1443
扣 1443
苯@@ 1443
察 1442
振 1442
镇@@ 1442
esting 1441
haotian 1441
将军 1441
欣@@ 1441
泉 1441
略 1441
身份证 1441
abol@@ 1440
advancing 1440
insul@@ 1440
lad@@ 1440
层面 1440
渔@@ 1440
occupational 1439
事务署 1439
小型 1439
表演 1439
食肆 1439
Administration 1438
两军 1438
恐@@ 1438
11@@ 1437
gang 1437
ive 1437
vention 1437
会长 1437
倾向 1437
外交@@ 1437
率领 1437
胸@@ 1437
2,000 1436
pntr 1436
qualifications 1436
roadside 1436
土耳其 1436
没收 1436
疫 1436
sheng 1435
thousands 1435
梯 1435
浪 1435
dealt 1434
公 1434
广场 1434
故 1434
数额 1434
阿富汗 1434
islands 1433
radiation 1433
resi@@ 1433
appoint 1432
yugoslavia 1432
睦邻友好 1432
租金 1432
足以 1432
不够 1431
亲 1431
lift 1430
修复 1430
更是 1430
essed 1429
prov@@ 1429
resume 1429
万人 1429
医疗@@ 1429
脱 1429
control@@ 1428
hot@@ 1428
wen@@ 1428
一体化 1428
explain 1427
printing 1427
出任 1427
单一 1427
progressive 1426
viol@@ 1426
熟@@ 1426
符@@ 1426
经费 1426
薪 1426
10th 1425
Education 1425
似 1425
第二次 1425
grew 1424
song 1424
加深 1424
同事 1424
连同 1424
同月 1423
囊 1423
约束 1423
conce@@ 1422
itable 1422
shing 1422
teen 1422
tex@@ 1422
接收 1422
秘密 1422
amended 1421
hotel 1421
ex 1420
relatives 1420
早上 1420
融合 1420
Construction 1419
clim@@ 1419
scientists 1419
shortly 1419
糊 1419
constructive 1418
shu@@ 1418
行驶 1418
satisfactory 1417
大众 1417
锦@@ 1417
Ba@@ 1416
chang@@ 1416
stamps 1416
承建商 1416
法治 1416
铸@@ 1416
subsequently 1415
资源@@ 1415
cars 1414
chee 1414
processes 1414
towns 1414
vac@@ 1414
shap@@ 1413
tax@@ 1413
家人 1413
曾荫权 1413
owing 1412
一半 1412
阿拉伯 1412
隧@@ 1412
confrontation 1411
creation 1411
warned 1411
澳洲 1411
独 1411
返回 1411
qi 1410
律@@ 1410
恶化 1410
毁@@ 1410
通用 1410
EM 1409
堆 1409
屏@@ 1409
稿 1409
贫@@ 1409
鲍威尔 1409
elled 1408
sid@@ 1408
健 1408
砂@@ 1408
迎@@ 1408
branches 1407
desire 1407
liabilities 1407
nationality 1407
tionary 1407
太空 1407
宫 1407
王伟 1407
universal 1406
厂@@ 1406
练兵 1406
capabilities 1405
营运 1405
SA 1404
令人@@ 1404
prospec@@ 1403
seats 1403
unions 1403
供应商 1403
侧@@ 1403
天桥 1403
就要 1403
discovered 1402
ece 1402
ov 1402
公报 1402
售价 1402
宗@@ 1402
composition 1401
database 1401
love 1401
supervis@@ 1401
一代 1401
ices 1400
objects 1400
什@@ 1400
沿海 1400
港岛 1400
第四@@ 1400
electoral 1399
inquiry 1399
requests 1399
减低 1399
北韩 1399
区议会 1399
秋@@ 1399
衍@@ 1399
consequences 1398
disposal 1398
hosted 1398
mos@@ 1398
occur 1398
rati@@ 1398
reliable 1398
sars 1398
sciences 1398
演讲 1398
赫 1398
起到 1398
brief 1397
担@@ 1397
有意 1397
统计@@ 1397
饭 1397
tower 1396
来港 1396
contractor 1395
sex 1395
使用者 1395
迈@@ 1395
cell@@ 1394
forecast 1394
井@@ 1394
伦 1394
医学 1394
安置 1394
响 1393
布希 1393
cel@@ 1392
contain@@ 1392
oring 1392
reasonably 1392
xi 1392
合格 1392
adopting 1391
ili@@ 1391
平方米 1391
建设@@ 1391
5,000 1390
regime 1390
seas@@ 1390
stream 1390
可行 1390
育@@ 1390
衰@@ 1390
considerable 1389
交换意见 1389
伙 1389
跟@@ 1389
eastbound 1388
hainan 1388
innovations 1388
mountain 1388
国情 1388
fav@@ 1387
focused 1387
trac@@ 1387
yi@@ 1387
一万@@ 1387
代表大会 1387
否认 1387
泵 1387
胎 1387
chlor@@ 1386
exposure 1386
vital 1386
听到 1386
复 1386
战斗力 1386
皇后 1386
辨@@ 1386
clothing 1385
enormous 1385
xiang 1385
路边 1385
closure 1384
path@@ 1384
二八 1384
900 1383
Vi@@ 1383
arrival 1383
ne 1383
泄@@ 1383
组织@@ 1383
bility 1382
influenza 1382
less@@ 1382
routes 1382
仍@@ 1382
厘@@ 1382
柴油 1382
磷@@ 1382
辖@@ 1382
邻 1382
1-@@ 1381
Bank 1381
imag@@ 1381
ought 1381
township 1381
transition 1381
扎@@ 1381
据@@ 1381
沃@@ 1381
练@@ 1381
Rec@@ 1380
indonesia 1380
merchandise 1380
participated 1380
tide 1380
巴西 1380
把@@ 1380
稻 1380
适宜 1380
频繁 1380
domain 1379
nanjing 1379
祝贺 1379
09 1378
arduous 1378
attr@@ 1378
gathering 1378
患@@ 1378
耗@@ 1378
邻@@ 1378
twice 1377
商界 1377
饱@@ 1377
minor 1376
presents 1376
岛内 1376
竞选 1376
统计数据 1376
零售业 1376
17.@@ 1375
design@@ 1375
oul@@ 1375
tot@@ 1375
不久 1375
两位 1375
顺 1375
餐@@ 1375
Po@@ 1374
tain@@ 1374
健全 1374
精 1374
net@@ 1373
practi@@ 1373
专业@@ 1373
第四 1373
阿尔@@ 1373
Administrative 1372
fairly 1372
ises 1372
print 1372
中共中央 1372
转达 1372
250 1371
irs 1371
missions 1371
openly 1371
appearance 1370
bet@@ 1370
taiwanese 1370
奏 1370
当年 1370
移交 1370
dering 1369
国际事务 1369
consolidate 1368
shared 1368
subsequent 1368
eing 1367
ired 1367
settle 1367
tom 1367
1983 1366
controls 1366
mod@@ 1366
判处 1366
十二 1366
appe@@ 1365
associations 1365
bangzao 1365
cement 1365
opposing 1365
代表@@ 1365
矩@@ 1365
行事 1365
eless 1364
落后 1364
Sub@@ 1363
tives 1363
出口@@ 1363
刻@@ 1363
生存 1363
选出 1363
Rem@@ 1362
fre@@ 1362
prominent 1362
十分@@ 1362
李瑞环 1362
fusion 1361
solutions 1361
势头 1361
太平洋 1361
本质 1361
magistr@@ 1360
rence 1360
shrine 1360
九五 1360
积极@@ 1360
贸@@ 1359
趣 1359
黄泥 1359
conven@@ 1358
prof@@ 1358
short@@ 1358
「 1358
遏制 1358
释@@ 1358
din@@ 1357
farm 1356
ica 1356
kwai 1356
ran 1356
切实可行 1356
抛@@ 1356
肠 1356
认证 1356
ison 1355
mul@@ 1355
returns 1355
shop 1355
招标 1355
零售 1355
worldwide 1354
杆@@ 1354
三百@@ 1353
书面@@ 1353
巴黎 1353
羊@@ 1353
航天 1353
begun 1352
jian 1352
miss 1352
平均@@ 1352
建设性 1352
添加 1352
联合国@@ 1352
ba 1351
clean@@ 1351
customers 1351
phenomenon 1351
国民 1351
整顿 1351
旅游业 1351
监狱 1351
论文 1351
谷 1351
ane 1350
deliver 1350
remarkable 1350
smaller 1350
」 1350
好处 1350
日起 1350
讯@@ 1350
三次 1349
庆 1349
绝 1349
ef 1348
scholars 1348
叫@@ 1348
根本@@ 1348
综合@@ 1348
裁决 1348
21st 1347
IES 1347
arri@@ 1347
essence 1347
parent 1347
philippines 1347
其他人 1347
崇@@ 1347
飞行员 1347
constitute 1346
ides 1346
palestine 1346
承办 1346
搜@@ 1346
覆@@ 1346
齐 1346
S-@@ 1345
censtatd 1345
pers 1345
彼此 1345
罪案 1345
defend 1344
punished 1344
stepped 1344
习惯 1344
投 1344
额@@ 1344
鼓@@ 1344
fined 1343
ills 1343
music 1343
出去 1343
小泉 1343
RU@@ 1342
cabinet 1342
hwa 1342
束 1342
缺陷 1342
elev@@ 1341
lying 1341
multi-@@ 1341
readjustment 1341
伪造 1341
忆 1341
文字 1341
畅@@ 1341
coordinate 1340
漂@@ 1340
琴 1340
竞争@@ 1340
贴 1340
equity 1339
introducing 1339
妻子 1339
应有 1339
文本 1339
organizational 1338
上市 1338
犯罪@@ 1338
respiratory 1337
本报 1337
猛@@ 1337
顾客 1337
coal 1336
diplomacy 1336
flats 1336
option 1336
春 1336
deployed 1335
southeast 1335
忠@@ 1335
炼 1335
River 1334
书店 1334
盛 1334
fear 1333
feasibility 1333
授@@ 1333
铺@@ 1333
finding 1332
hun@@ 1332
narcotics 1332
synthe@@ 1332
两党 1332
台海 1332
工商 1332
念 1332
northbound 1331
stly 1331
刊 1331
可见 1331
大大 1331
撤@@ 1331
百分之零点 1331
筛@@ 1331
Hu@@ 1330
代价 1330
八条 1330
列入 1330
所属 1330
残疾 1330
金融危机 1330
隆@@ 1330
ells 1329
伟 1329
宏@@ 1329
投标 1329
文书 1329
枝 1329
鉴定 1329
1979 1328
hood 1328
slow 1328
遗产 1328
prec@@ 1327
tank 1326
wast@@ 1326
六个 1326
考验 1326
跨 1326
i.e. 1325
itting 1325
vitality 1325
wise 1325
东京 1325
注重 1325
莫斯科 1325
broad@@ 1324
cope 1324
fir@@ 1324
interpre@@ 1324
lev@@ 1324
recommended 1324
ual 1324
卷@@ 1324
教训 1324
早期 1324
荷兰 1324
要素 1324
la 1323
促使 1323
共享 1323
抓住 1323
流量 1323
cour@@ 1322
deb@@ 1322
distur@@ 1322
olu@@ 1322
religion 1322
γ 1322
栏 1322
ca 1321
whatever 1321
学术 1321
指责 1321
涌道 1321
缝 1321
aside 1320
关系@@ 1320
勤@@ 1320
现金 1320
财富 1320
Am@@ 1319
achievement 1319
mb@@ 1319
thanked 1319
yed 1319
打算 1319
governmental 1318
sought 1318
upgrading 1318
著 1318
stamp 1317
亚太 1317
六条 1317
证人 1317
钟@@ 1317
锅@@ 1317
Na@@ 1316
awards 1316
intensive 1316
involve 1316
ld@@ 1316
sichuan 1316
染 1316
adjust 1315
企业家 1315
四百 1315
了@@ 1314
城镇 1314
震 1314
gro@@ 1313
outcome 1313
precisely 1313
ship@@ 1313
virus 1313
刑@@ 1313
十五@@ 1313
政协 1313
讼 1313
Sur@@ 1312
conventional 1312
crack 1312
handed 1312
prolonged 1312
shift 1312
sixth 1312
列出 1312
擦 1312
&#@@ 1311
dig@@ 1311
fung 1311
伤亡 1311
这场 1311
exclusive 1310
拒@@ 1310
政局 1310
览 1310
client 1309
frame 1309
卸@@ 1309
.5 1308
My 1308
arab 1308
offers 1308
propri@@ 1308
之上 1308
总量 1308
战场 1308
才@@ 1308
迁@@ 1308
crossing 1307
damaged 1307
ing-@@ 1307
oration 1307
三种 1307
年初 1307
郭@@ 1307
Exc@@ 1306
comparing 1306
seat 1306
凌晨 1306
防空 1306
acks 1305
信息技术 1305
熔@@ 1305
退出 1305
annex 1304
firms 1304
specifically 1304
伪@@ 1304
深入@@ 1304
1.3 1303
atively 1303
ids 1303
residence 1303
respects 1303
upgrade 1303
名为 1303
日本政府 1303
鸡@@ 1303
lets 1302
sincere 1302
石油@@ 1302
营办 1302
IR@@ 1301
sin 1301
杂志 1301
橡@@ 1301
charac@@ 1300
classified 1300
敢 1300
讨 1300
询@@ 1300
货车 1300
destruction 1299
koizumi 1299
tmd 1299
五条 1299
宇@@ 1299
航空公司 1299
雪 1299
BA 1298
renewal 1298
tric@@ 1298
再度 1298
狂@@ 1298
胃@@ 1298
husband 1297
ko 1297
stationed 1296
tools 1296
zealand 1296
交付 1296
构 1296
缓和 1296
coordinated 1295
modified 1295
厦门 1295
哲@@ 1295
士兵 1295
战斗 1295
Information 1294
su 1294
丹@@ 1294
促@@ 1294
奉行 1294
帮 1294
挂@@ 1294
焦@@ 1294
纠纷 1294
舞 1294
18.@@ 1293
moscow 1293
spir@@ 1293
visual 1293
ata 1292
victim 1292
删除 1292
奠定 1292
抱 1292
滚@@ 1292
牧@@ 1292
锋 1292
analysed 1291
steel 1291
ural 1291
圆 1291
安理会 1291
mei 1290
supplies 1290
tow@@ 1290
坐 1290
昌 1290
promptly 1289
score 1289
undertake 1289
一个月 1289
用以 1289
纷纷 1289
营商 1289
骗@@ 1289
ministerial 1288
nar@@ 1288
带动 1288
漏 1288
split 1287
substance 1287
tourist 1287
欺@@ 1287
言论 1287
阶@@ 1287
chron@@ 1286
pop@@ 1286
不断@@ 1286
日至 1286
罪@@ 1286
驶 1286
inspections 1285
拨@@ 1285
bookstore 1284
disclosed 1284
zheng 1284
事务@@ 1284
外商投资 1284
漫@@ 1284
香 1284
declined 1283
ener@@ 1283
既@@ 1283
Pe@@ 1282
ored 1282
witnessed 1282
温家宝 1282
americans 1281
ancient 1281
ced 1281
regiment 1281
steadily 1281
市区 1281
科索沃 1281
esd 1280
带有 1280
荒@@ 1280
cycl@@ 1279
esti@@ 1279
末@@ 1279
icate 1278
interface 1278
merely 1278
preparing 1278
resulted 1278
修正 1278
打破 1278
绘@@ 1278
西班牙 1278
ient 1277
summary 1277
增长率 1277
宝贵 1277
香港特区 1277
complaint 1276
依法@@ 1276
标签 1276
accused 1275
func@@ 1275
pressing 1275
survival 1275
三十 1275
MD@@ 1274
establishments 1274
七个 1274
出生 1274
台商 1274
界别 1274
ute 1273
watch 1273
潜艇 1273
计划@@ 1273
arbitr@@ 1272
iness 1272
memb@@ 1272
一事 1272
护照 1272
NS 1271
Rel@@ 1271
asset 1271
ful@@ 1271
fulfill 1271
tribunal 1271
呼吸系统 1271
寻@@ 1271
苗 1271
Multi@@ 1270
jun@@ 1270
puts 1270
勤 1270
团长 1270
时间表 1270
暴 1270
稍后 1270
disciplinary 1269
realistic 1269
tokyo 1269
一经 1269
于是 1269
墨西哥 1269
鉴@@ 1269
险@@ 1269
AS 1268
offenders 1268
刺 1268
晓@@ 1268
艺 1268
韦@@ 1268
hum@@ 1267
到底 1267
排除 1267
目录 1267
exceeded 1266
gn@@ 1266
hot 1266
ranks 1266
自觉 1266
RT 1265
arranged 1265
fashion 1265
凭 1265
名字 1265
述@@ 1265
使命 1264
地图 1264
桶 1264
affecting 1263
assessed 1263
fraud 1263
信息化 1263
孤@@ 1263
秒 1263
荷@@ 1263
bes 1262
millennium 1262
vers 1262
偿@@ 1262
南韩 1262
外经贸部 1262
描 1262
BO@@ 1261
ET@@ 1261
Ro@@ 1261
concerted 1261
repe@@ 1261
四名 1261
当日 1261
所说 1261
继承 1261
comment 1260
entertainment 1260
pension 1260
permits 1260
合法@@ 1260
喜 1260
播 1260
获准 1260
逐@@ 1260
陆 1260
集中@@ 1260
biological 1259
organizing 1259
vietnamese 1259
zhong@@ 1259
纲要 1259
accordingly 1258
examples 1258
usual 1258
下稿代 1258
岗位 1258
tem@@ 1257
海关人员 1257
游泳 1257
生态@@ 1257
vacc@@ 1256
speeches 1255
屋宇 1255
引致 1255
engaging 1254
lanqing 1254
tell 1254
voluntary 1254
五千 1254
吉 1254
怪 1254
战机 1254
无论是 1254
潜在 1254
签证 1254
羊 1254
bers 1253
borne 1253
presentation 1253
外地 1253
transaction 1252
开拓 1252
passage 1251
剖@@ 1251
je@@ 1250
ozp 1250
右 1250
首脑会议 1250
correctly 1249
mes 1249
personally 1249
望@@ 1249
考 1249
World 1248
entirely 1248
phys@@ 1248
pursuant 1248
tobacco 1248
一九八@@ 1248
总局 1248
滨 1248
训 1248
-based 1247
creative 1247
gene@@ 1247
pursuing 1247
世贸 1247
嘉宾 1247
exhib@@ 1246
separated 1246
伏 1246
ger@@ 1245
水资源 1245
猪 1245
铜 1245
constitu@@ 1244
resc@@ 1244
不准 1244
数码 1244
Eng@@ 1243
FOR@@ 1243
clo@@ 1243
involves 1243
oxide 1243
午@@ 1243
Province 1242
ager 1242
amounted 1242
cere@@ 1242
innovative 1242
ners 1242
reflects 1242
zoned 1242
久@@ 1242
刊登 1242
壮@@ 1242
有时 1242
荡 1242
kuomintang 1241
naval 1241
ranking 1241
忙 1241
暖 1241
物流 1241
秘书处 1241
积极参与 1241
罚@@ 1241
OD@@ 1240
asc@@ 1240
port@@ 1240
sole 1240
赖 1240
blue 1239
nation@@ 1239
worker 1239
半岛 1239
哪 1239
增幅 1239
硅@@ 1239
缆 1239
迁 1239
aqu@@ 1238
chosen 1238
活跃 1238
灰 1238
Ne@@ 1237
TR@@ 1237
携带 1237
替代 1236
disabled 1235
procuratorial 1235
repeated 1235
vigorous 1235
yong@@ 1235
公共服务 1235
北角 1235
座@@ 1235
提到 1235
气候 1235
煤 1235
表决 1235
趋@@ 1235
轨 1235
采 1235
bid@@ 1234
职业@@ 1234
.3 1233
holidays 1233
季节性 1233
幅度 1233
P-@@ 1232
audit 1232
盗版 1232
这份 1232
PER@@ 1231
合物 1231
符合@@ 1231
运输@@ 1231
镜@@ 1231
autonomy 1230
cepa 1230
hin@@ 1230
ousness 1230
流通 1230
添@@ 1230
碎 1230
IE@@ 1229
mong 1229
硝@@ 1229
Fi@@ 1228
confident 1228
专利 1228
乙 1228
enthusiasm 1227
len@@ 1227
阅 1227
iled 1226
条所 1226
eyes 1225
messages 1225
qui@@ 1225
regularly 1225
vehicular 1225
可行性 1225
查处 1225
谷@@ 1225
landing 1224
pot@@ 1224
胀 1224
cataly@@ 1223
exceeds 1223
famous 1223
oms 1223
phil@@ 1223
丧失 1223
举报 1223
似@@ 1223
婚姻 1223
搭@@ 1223
文学 1223
电脑@@ 1223
织 1223
诗 1223
通道 1223
非政府 1223
Customs 1222
ered 1222
identification 1222
severely 1222
wo 1222
外部 1222
弯@@ 1222
歧视 1222
表示感谢 1222
CD 1221
lights 1221
我要 1221
波兰 1221
百分@@ 1221
outlook 1220
shek 1220
国内@@ 1220
届时 1220
过渡 1220
Techn@@ 1219
Typ@@ 1219
solved 1219
stop@@ 1219
wah 1219
执照 1219
现代@@ 1219
crew 1218
传染病 1218
袭 1218
States 1217
parks 1217
westbound 1217
采取措施 1217
题@@ 1217
suffering 1216
中新社 1216
城市@@ 1216
细节 1216
add@@ 1215
tianjin 1215
唱 1215
群体 1215
driven 1214
generations 1214
hongkong 1214
mineral 1214
登记册 1214
迫 1214
isation 1213
斗 1213
绿色 1213
败@@ 1213
Mea@@ 1212
ements 1212
settled 1212
trades 1212
夏 1212
相互@@ 1212
舰@@ 1212
苏 1212
轻 1212
逊 1212
Sp@@ 1211
doctors 1211
serves 1211
wo@@ 1211
中央政府 1211
撞机 1211
accounted 1210
zoning 1210
七百 1210
元首 1210
吕秀莲 1210
国防部 1210
挂 1210
灾害 1210
career 1209
coverage 1209
instruments 1209
建成 1209
腿 1209
虽 1209
金钱 1209
dong@@ 1208
oh 1208
san 1208
-term 1207
4,@@ 1207
allocated 1207
ama 1207
founded 1207
inflation 1207
promulgated 1207
止@@ 1207
determining 1206
indic@@ 1206
protective 1206
solving 1206
trouble 1206
tting 1206
xi@@ 1206
人大代表 1206
全力 1206
历史性 1206
组建 1206
辉 1206
RC 1205
bus@@ 1205
kosovo 1205
ord@@ 1205
republican 1205
天文台 1205
竞@@ 1205
邮政局 1205
normally 1204
互访 1204
棉@@ 1204
金钟 1204
faster 1203
swe@@ 1203
wider 1203
带领 1203
戒@@ 1203
颗 1203
.4 1202
bra@@ 1202
kwun 1202
ltd 1202
renminbi 1202
yun 1202
地产 1202
奶@@ 1202
略@@ 1202
Lin@@ 1201
allies 1201
过境 1201
阶 1201
kes 1200
ny 1200
之内 1200
伴@@ 1200
无疑 1200
级别 1200
During 1199
发达 1199
失踪 1199
诚意 1199
赏 1199
Sing@@ 1198
assess 1198
attained 1198
initi@@ 1198
matic 1198
参议院 1198
禁 1198
积累 1198
霸权主义 1198
asi@@ 1197
kilometers 1197
seemed 1197
stepping 1197
一件 1197
owed 1196
supplied 1196
以此 1196
商会 1196
著名 1196
银行@@ 1196
雅 1196
tam@@ 1195
不满 1195
决 1195
外交政策 1195
开放@@ 1195
循 1195
灵活 1195
途 1195
遵循 1195
防范 1195
PA 1194
mandatory 1194
严峻 1194
就是说 1194
股票 1194
讲座 1194
鼻@@ 1194
icity 1193
化合物 1193
ino 1192
tial 1192
unprecedented 1192
明白 1192
踏@@ 1192
alize 1191
essing 1191
仔 1191
夹@@ 1191
翼 1191
营业 1191
delegates 1190
itors 1190
productivity 1190
实事求是 1190
有何 1190
Among 1189
arian 1189
roll 1189
削减 1189
祖国统一 1189
顾 1189
TA 1188
integrate 1188
regul@@ 1188
requiring 1188
– 1188
乡村 1188
芯@@ 1188
薪金 1188
贴@@ 1188
exemption 1187
jia 1187
原有 1187
泡 1187
疑@@ 1187
赞@@ 1187
Sc@@ 1186
ulated 1186
不了 1186
倍@@ 1186
南联盟 1186
卷 1186
absence 1185
feeling 1185
恐怖@@ 1185
Studies 1184
cap 1184
definition 1184
哪些 1184
白宫 1184
荧@@ 1184
jiabao 1183
registry 1183
valley 1183
国家主权 1183
1981 1182
Power 1182
discussing 1182
mature 1182
pain 1182
show@@ 1182
各级党委 1182
心理@@ 1182
脸 1182
marking 1181
反导 1181
宣传@@ 1181
挖@@ 1181
熟悉 1181
chongqing 1180
licences 1180
separatist 1180
博物馆 1180
巡查 1180
扶@@ 1180
Beijing 1179
comprising 1179
召@@ 1179
尖沙咀 1179
直升机 1179
苏联 1179
conduc@@ 1178
iring 1178
vacancies 1178
婚@@ 1178
希腊 1178
肝 1178
Analy@@ 1177
DO@@ 1177
thro@@ 1177
une 1177
乃至 1177
＜ 1177
Effects 1176
adj@@ 1176
bel 1176
careful 1176
circul@@ 1176
knows 1176
派出 1176
限期 1176
buy 1175
formulation 1175
lasting 1175
mode 1175
汉 1175
转向 1175
IT 1174
amend 1174
tec@@ 1174
100,000 1173
Congress 1173
thai 1173
thir@@ 1173
waiting 1173
吴仪 1173
家属 1173
自愿 1173
130 1172
Ge@@ 1172
artillery 1172
concentrated 1172
formula 1172
game 1172
incurred 1172
surely 1172
八个 1172
庞大 1172
centr@@ 1171
specialized 1171
抓紧 1171
被告人 1171
DC 1170
institutional 1170
tened 1170
typ@@ 1170
共和党 1170
清晰 1170
证件 1170
prin@@ 1169
地说 1169
泰 1169
知识@@ 1169
草图 1169
贺@@ 1169
3.5 1168
concentrate 1168
emission 1168
falling 1168
挑@@ 1168
Chairman 1167
econom@@ 1167
load@@ 1167
pending 1167
play@@ 1167
qiao 1167
一向 1167
彼@@ 1167
聘用 1167
accord 1166
tioning 1166
一段时间 1166
停车场 1166
公营 1166
邦 1166
1972 1165
arats 1165
atten@@ 1165
cordial 1165
tackle 1165
和解 1165
描@@ 1165
结婚 1165
讨@@ 1165
characterized 1164
reaches 1164
什 1164
普 1164
零零 1164
Association 1163
climate 1163
战略性 1163
联合@@ 1163
appro@@ 1162
approve 1162
looks 1162
全局 1162
出版@@ 1162
对付 1162
梯@@ 1162
tiz@@ 1161
人物 1161
港湾 1161
科研@@ 1161
精神文明 1161
虚假 1161
命运 1160
泊车 1160
阅读 1160
acqu@@ 1159
arbitrary 1159
officially 1159
psych@@ 1159
娱乐 1159
屈@@ 1159
收回 1159
纯 1159
缩短 1159
铜@@ 1159
format 1158
外交部长 1158
接着 1158
民航 1158
润@@ 1158
视察 1158
attracted 1157
ette 1157
infected 1157
国内外 1157
播@@ 1157
观众 1157
语文 1157
递@@ 1157
1978 1156
nationwide 1156
xing 1156
国王 1156
指控 1156
生命@@ 1156
简化 1156
Cy@@ 1155
lock 1155
pro 1155
一时 1155
新西兰 1155
酒店 1155
110 1154
Network 1154
iter@@ 1154
restaurant 1154
槽 1154
第七@@ 1154
裁判 1154
behavior 1153
carri@@ 1153
olution 1153
oz@@ 1153
voters 1153
假期 1153
大批 1153
Bri@@ 1152
chamber 1152
entr@@ 1152
技巧 1152
比重 1152
福建 1152
通报 1152
exploitation 1151
间接 1151
eh 1150
intervention 1150
卫生@@ 1150
发送 1150
常委会 1150
爆 1150
警队 1150
DC@@ 1149
bio@@ 1149
gol@@ 1149
suspects 1149
境@@ 1149
批出 1149
President 1148
akes 1148
rehabilitation 1148
tendency 1148
九十@@ 1148
佛 1148
勒@@ 1148
参拜 1148
认 1148
clearance 1147
ept 1147
far@@ 1147
flyover 1147
ki 1147
render 1147
sters 1147
刑事@@ 1147
选拔 1147
19.@@ 1146
motor 1145
nomination 1145
国际法 1145
exemp@@ 1144
历 1144
硫 1144
entrepreneurs 1143
二十五 1143
儿@@ 1143
共产党 1143
ace@@ 1142
asses 1142
interim 1142
堆@@ 1142
廉@@ 1142
飞弹 1142
coast 1141
papers 1141
rooms 1141
患有 1141
composite 1140
listen 1140
refers 1140
wimax 1140
单独 1140
想法 1140
缓解 1140
逻辑 1140
judging 1139
praised 1139
tings 1139
斜@@ 1139
精确 1139
致使 1139
Super@@ 1138
honor 1138
summer 1138
热烈 1138
首席 1138
1.1 1137
C-@@ 1137
fax 1137
var@@ 1137
各族人民 1137
清洗 1137
西行 1137
赞成 1137
izes 1136
replaced 1136
时机 1136
炮@@ 1136
跟踪 1136
RT@@ 1135
manufacturers 1135
二百 1135
嘛 1135
魂 1135
dong 1134
indices 1134
propose 1134
resist 1134
善 1134
感情 1134
柱@@ 1134
avian 1133
cuba 1133
hai 1133
homes 1133
lane 1133
sible 1133
不愿 1133
格局 1133
百分之三十 1133
销货 1133
ew 1132
gy@@ 1132
庭 1132
由此 1132
cau@@ 1131
cults 1131
portion 1131
speeding 1131
依 1131
启用 1131
此类 1131
申报 1131
Mr. 1130
South 1130
eld 1130
中共中央政治局 1130
复兴 1130
法制 1130
项@@ 1130
aud@@ 1129
pack@@ 1129
partial 1129
phen@@ 1129
quarters 1129
queensway 1129
勘@@ 1128
各界人士 1128
族@@ 1128
淡@@ 1128
锁 1128
italy 1127
obstruc@@ 1127
persist 1127
碳 1127
Coun@@ 1126
TN@@ 1126
conve@@ 1126
liang 1126
matri@@ 1126
parame@@ 1126
rail 1126
summar@@ 1126
understood 1126
审理 1126
救援 1126
adhe@@ 1125
enter@@ 1125
lawful 1125
mit@@ 1125
空气污染 1125
annette 1124
electric 1124
reserv@@ 1124
simil@@ 1124
印刷 1124
国民@@ 1124
征收 1124
革命@@ 1124
flu 1123
htm 1123
保养 1123
卵@@ 1123
妥善 1123
pir@@ 1122
star 1122
struc@@ 1122
事先 1122
前面 1122
只会 1122
机动 1122
脊@@ 1122
记者会 1122
anything 1121
bills 1121
breach 1121
horiz@@ 1121
培育 1121
氏@@ 1121
演出 1121
长期以来 1121
occupied 1120
匹@@ 1120
峰会 1120
弄 1120
扬@@ 1120
腺 1120
部份 1120
马来西亚 1120
images 1119
minds 1119
公屋 1119
痛苦 1119
结构@@ 1119
criminals 1118
ws 1118
逮捕 1118
避 1118
阻碍 1118
Discus@@ 1117
atically 1117
cited 1117
translation 1117
whereas 1117
一百 1117
姐 1117
恐怖主义 1117
辅@@ 1117
邮件 1117
MEN@@ 1116
Mc@@ 1116
description 1116
enjoyed 1116
incorporated 1116
publishing 1116
主流 1116
使馆 1116
透明度 1116
20.@@ 1115
伙伴关系 1115
本次 1115
柬埔寨 1115
潮@@ 1115
attempted 1114
temporarily 1114
二条 1114
先进性 1114
容许 1114
扰@@ 1114
汤@@ 1114
circular 1113
gulf 1113
开设 1113
提前 1113
核证 1113
欲@@ 1113
豆 1113
marxist 1112
mentally 1112
regulate 1112
scored 1112
传真 1112
奖励 1112
CN@@ 1111
ential 1111
exit 1111
older 1111
upper 1111
售卖 1111
改道 1111
火箭 1111
用地 1111
脸@@ 1111
谋求 1111
British 1110
talking 1110
企业@@ 1110
教科书 1110
Gra@@ 1109
Two 1109
acceptance 1109
债权人 1109
坚拿道 1109
着重 1109
criticized 1108
idation 1108
interaction 1108
ken 1108
危险@@ 1108
各区 1108
编号 1108
靖国神社 1108
cape 1107
latin 1107
ori@@ 1107
reve@@ 1107
恒@@ 1107
意愿 1107
bom@@ 1106
chun 1106
mexico 1106
ond 1106
red@@ 1106
坝 1106
奥 1106
妇 1106
葡萄@@ 1106
还会 1106
迟@@ 1106
evaluate 1105
formulating 1105
improvements 1105
Vir@@ 1104
tan 1104
百分之二点 1104
百分点 1104
相互了解 1104
forged 1103
manufacture 1103
务实 1103
口头 1103
柔@@ 1103
洪 1103
省委 1103
磁 1103
编 1103
spaces 1102
冯@@ 1102
意志 1102
报名 1102
掘 1102
Cu@@ 1101
aids 1101
driver 1101
origin@@ 1101
petro@@ 1101
pushing 1101
replacement 1101
retro@@ 1101
survi@@ 1101
埋@@ 1101
若否 1101
领取 1101
Services 1100
roles 1100
attain 1099
kwan 1099
relationships 1099
sav@@ 1099
thers 1099
洗 1099
疫苗 1099
种植 1099
ey 1098
jin 1098
salary 1098
zhejiang 1098
清除 1098
痛@@ 1098
碱 1098
返@@ 1098
21@@ 1097
5-@@ 1097
男性 1097
CM@@ 1096
gains 1096
golden 1096
jockey 1096
quarterly 1096
光碟 1096
威 1096
宪报 1096
行政部门 1096
边境 1096
集会 1096
Our 1095
bly 1095
counterfeit 1095
grown 1095
sovereign 1095
游戏 1095
诸@@ 1095
达成协议 1095
Department 1094
defin@@ 1094
ounding 1094
spot 1094
三点 1094
不利 1094
初期 1094
华侨 1094
即可 1094
航天@@ 1094
隙 1094
managers 1093
stor@@ 1093
举措 1093
康复 1093
教统 1093
camp 1092
dimensional 1092
gan@@ 1092
perhaps 1092
surve@@ 1092
umb@@ 1092
佐@@ 1092
八百 1092
isolated 1091
istics 1091
judges 1091
nd 1091
sting 1091
刑事责任 1091
国政府 1091
济@@ 1091
译@@ 1091
阀 1091
Rules 1090
witness 1090
况 1090
爆炸@@ 1090
社署 1090
虑 1090
警员 1090
议程 1090
commitments 1089
mentation 1089
oud 1089
undertaken 1089
中文 1089
争 1089
帐目 1089
黎@@ 1089
City 1088
gradu@@ 1088
十六@@ 1088
旺角 1088
石广生 1088
联合公报 1088
防卫 1088
颁发 1088
alternative 1087
damages 1087
rying 1087
transit 1087
稍@@ 1087
辞职 1087
高度评价 1087
estates 1086
failing 1086
george 1086
superiority 1086
庄@@ 1086
热情 1086
物资 1086
闭 1086
bao 1085
dates 1085
kil@@ 1085
sun@@ 1085
unchanged 1085
校长 1085
钠 1085
Cro@@ 1084
F-@@ 1084
ranging 1084
拘@@ 1084
森@@ 1084
竟 1084
acquire 1083
simultaneously 1083
信贷 1083
国务院@@ 1083
尺 1083
惑 1083
桥梁 1083
RY 1082
fleet 1082
体制改革 1082
兴 1082
券@@ 1082
危 1082
Process 1081
classification 1081
happened 1081
html 1081
min 1081
】 1081
巧@@ 1081
搜索 1081
渐@@ 1081
金正日 1081
defence 1080
satellites 1080
塘 1080
当代 1080
戴 1080
百分之一点 1080
... 1079
Do@@ 1079
五百 1079
民事@@ 1079
阶层 1079
airs 1078
australian 1078
flood 1078
ols 1078
ren 1078
shr@@ 1078
speaker 1078
striving 1078
严厉 1078
内阁 1078
和平@@ 1078
研发 1078
税务 1078
Cir@@ 1077
alling 1077
ardi@@ 1077
s-@@ 1077
建造业 1077
旅游@@ 1077
诊 1077
contr@@ 1076
excessive 1076
jian@@ 1076
sub-@@ 1076
ug@@ 1076
won@@ 1076
上面 1076
九年 1076
十三 1076
岗 1076
chong 1075
ond@@ 1075
options 1075
statisticalbookstore 1075
介 1075
桌@@ 1075
臂 1075
tox@@ 1074
仅仅 1074
寒@@ 1074
细 1074
财政年度 1074
锁@@ 1074
4-@@ 1073
impl@@ 1073
phenomena 1073
seizure 1073
ums 1073
xin 1073
【 1073
互动 1073
五百@@ 1073
促 1073
电信 1073
盟@@ 1073
贫困 1073
We@@ 1072
compiled 1072
container 1072
spon@@ 1072
suffer 1072
刑 1072
利亚 1072
议定书 1072
custody 1071
proposes 1071
sen 1071
vocational 1071
几天 1071
抱@@ 1071
Je@@ 1070
diesel 1070
municipality 1070
孙玉玺 1070
执行@@ 1070
误 1070
lessons 1069
xed 1069
列为 1069
径@@ 1069
激励 1069
突然 1069
纠正 1069
communities 1068
lease 1068
transparency 1068
刚才 1068
森林 1068
海岸 1068
adoption 1067
obligation 1067
occupation 1067
例子 1067
妥 1067
思路 1067
CL@@ 1066
Japan 1066
friend 1066
td 1066
例外 1066
公安机关 1066
多边 1066
统治 1066
蓄@@ 1066
负债 1066
遥@@ 1066
SB@@ 1065
gathered 1065
heritage 1065
inqu@@ 1065
obtaining 1065
ported 1065
pring 1065
sement 1065
本年 1065
氢@@ 1065
蛋 1065
emerged 1064
haw@@ 1064
refu@@ 1064
sion@@ 1064
译 1064
髓 1064
luo 1063
retirement 1063
今晚 1063
党组织 1063
北京市 1063
政制 1063
跳 1063
180 1062
after@@ 1062
destroy 1062
inner 1062
幕@@ 1062
年内 1062
疆 1062
Wel@@ 1061
acquired 1061
furthermore 1061
kar@@ 1061
porting 1061
tile 1061
ital 1060
killing 1060
neighborly 1060
混乱 1060
祥 1060
秀 1060
abm 1059
fighter 1059
丹 1059
应急 1059
联合声明 1059
苯 1059
Val@@ 1058
mostly 1058
obstacles 1058
ruihuan 1058
savings 1058
tender 1058
乐观 1058
奋 1058
愈 1058
海域 1058
违背 1058
铝@@ 1058
Area 1057
drought 1057
filling 1057
narrow 1057
none 1057
surrounding 1057
修正案 1057
少数民族 1057
ented 1056
fan 1056
restriction 1056
talked 1056
verification 1056
商讨 1056
实在 1056
摆脱 1056
渔护署 1056
的确 1056
 1056
jing@@ 1055
s. 1055
壁@@ 1055
老人 1055
肺 1055
decade 1054
executed 1054
holiday 1054
outer 1054
psychological 1054
xin@@ 1054
一度 1054
搬@@ 1054
贾@@ 1054
35@@ 1053
CS@@ 1053
Corporation 1053
breakthrough 1053
edi@@ 1053
ferry 1053
lement 1053
rein@@ 1053
tioned 1053
大事 1053
昆@@ 1053
滞@@ 1053
董 1053
透 1053
satisfy 1052
villages 1052
withdraw 1052
取决于 1052
怀 1052
烯@@ 1052
识@@ 1052
arily 1051
consult 1051
decisive 1051
obviously 1051
preferential 1051
proven 1051
respond 1051
violated 1051
基本上 1051
炸@@ 1051
群众@@ 1051
broke 1050
foster 1050
丈夫 1050
出台 1050
学科 1050
Convention 1049
cred@@ 1049
ough 1049
qualification 1049
seem 1049
collaboration 1048
mosquito 1048
naturally 1048
rid@@ 1048
战区 1048
搜集 1048
有益 1048
Her 1047
Sol@@ 1047
fisheries 1047
督@@ 1047
科研 1047
Road 1046
SC 1046
Their 1046
practicing 1046
reti@@ 1046
shortage 1046
subscri@@ 1046
zero 1046
一一 1046
人为 1046
泡@@ 1046
flexibility 1045
posing 1045
vals 1045
世界各地 1045
乃@@ 1045
百万 1045
顾及 1045
colleagues 1044
graduate 1044
scen@@ 1044
symposium 1044
东南亚 1044
察@@ 1044
Ser@@ 1043
Treatment 1043
attempts 1043
depend@@ 1043
trained 1043
主导 1043
二五 1043
过来 1043
Rev@@ 1042
Through 1042
depends 1042
occurrence 1042
requ@@ 1042
stopped 1042
十分重视 1042
此事 1042
迟 1042
Exchange 1041
advis@@ 1041
helps 1041
season 1041
强制 1041
整合 1041
第二季 1041
鲜 1041
citizen 1040
contributed 1040
enforce 1040
followers 1040
notification 1040
possess 1040
依赖 1040
眠 1040
详@@ 1040
xim@@ 1039
yen 1039
最为 1039
热烈欢迎 1039
formally 1038
予@@ 1038
忍@@ 1038
摩 1038
整 1038
送往 1038
explanation 1037
patterns 1037
summ@@ 1037
tonnes 1037
yo@@ 1037
之所以 1037
忠 1037
Can@@ 1036
exercising 1036
expressing 1036
lung 1036
pursu@@ 1036
talents 1036
产权 1036
大埔 1036
宋@@ 1036
故意 1036
施加 1036
经营@@ 1036
Met@@ 1035
adjustments 1035
cs 1035
generated 1035
outdoor 1035
quan 1035
鞋 1035
ming@@ 1034
付出 1034
储存 1034
自从 1034
解决问题 1034
Pres@@ 1033
criticism 1033
mus@@ 1033
newspapers 1033
yun@@ 1033
一九@@ 1033
banner 1032
ith 1032
mist@@ 1032
players 1032
propag@@ 1032
sponsored 1032
冒 1032
对手 1032
搞@@ 1032
桥@@ 1032
U.@@ 1031
antly 1031
dedicated 1031
neg@@ 1031
忧@@ 1031
流域 1031
蒂 1031
酰@@ 1031
SO 1030
契 1030
完全@@ 1030
拔 1030
接待 1030
流行 1030
author@@ 1029
beautiful 1029
collecting 1029
recovered 1029
restaurants 1029
人力资源 1029
响@@ 1028
国务委员 1028
图谋 1028
封路 1028
调查科 1028
附有 1028
fruitful 1027
reportedly 1027
ured 1027
严 1027
产值 1027
发扬 1027
男人 1027
聘 1027
Cer@@ 1026
RB@@ 1026
ier 1026
illicit 1026
two-@@ 1026
不良@@ 1026
押@@ 1026
第一季 1026
embar@@ 1025
prosperous 1025
终于 1025
计画 1025
遗传 1025
郎 1025
anning 1024
enquiry 1024
infring@@ 1024
let@@ 1024
lowest 1024
ole 1024
始 1024
翰 1024
董事会 1024
誓@@ 1024
近年 1024
accelerated 1023
mentary 1023
model@@ 1023
十一时 1023
新一轮 1023
新形势下 1023
concurrently 1022
disasters 1022
hole 1022
i-@@ 1022
manufac@@ 1022
outward 1022
taining 1022
国防@@ 1022
备忘录 1022
意图 1022
掌@@ 1022
氮@@ 1022
表述 1022
陷 1022
霉@@ 1022
5,@@ 1021
Tro@@ 1021
atives 1021
consists 1021
shen 1021
佳@@ 1021
分组 1021
思维 1021
正面 1021
突击 1021
MT@@ 1020
acked 1020
focusing 1020
sively 1020
处在 1020
失业率 1020
expectations 1019
theories 1019
ung@@ 1019
保密 1019
泊 1019
睛 1019
conversion 1018
ester@@ 1018
new@@ 1018
rep@@ 1018
编辑 1018
行程 1018
displayed 1017
extra 1017
interfere 1017
mr@@ 1017
upcoming 1017
wee@@ 1017
为首 1017
出于 1017
印刷版 1017
常常 1017
指导@@ 1017
relying 1016
submarine 1016
worthy 1016
七十 1016
接到 1016
毕业 1016
电子邮件 1016
真的 1016
等待 1016
统一大业 1016
限度 1016
centers 1015
excise 1015
mpf 1015
ops 1015
oured 1015
wan@@ 1015
三大 1015
中国人民解放军 1015
家庭@@ 1015
期内 1015
禽@@ 1015
Produc@@ 1014
corps 1014
estimate 1014
turkey 1014
zes 1014
上将 1014
地铁 1014
多元化 1014
档案 1014
此项 1014
aps 1013
context 1013
demonstration 1013
uring 1013
大臣 1013
获悉 1013
部长级 1013
1.6 1012
Har@@ 1012
therein 1012
zation 1012
人口@@ 1012
六十 1012
变革 1012
GEN@@ 1011
appealed 1011
dered 1011
grading 1011
offensive 1011
sincerity 1011
暗 1011
董事 1011
财 1011
Sch@@ 1010
balanced 1010
ven 1010
想要 1010
旗 1010
日常 1010
粮 1010
规 1010
诊@@ 1010
逃 1010
邮购 1010
鲍@@ 1010
develop@@ 1009
examining 1009
height 1009
oth@@ 1009
promise 1009
亲自 1009
右翼 1009
策划 1009
Economic 1008
tac@@ 1008
中午 1008
棉 1008
退休金 1008
160 1007
Fun@@ 1007
dignity 1007
lunar 1007
ort 1007
outbreak 1007
广播@@ 1007
撞@@ 1007
章@@ 1007
进而 1007
20,000 1006
allowance 1006
demonstrate 1006
flights 1006
purch@@ 1006
三千 1006
内外 1006
吹@@ 1006
毫米 1006
缴纳 1006
Sil@@ 1005
cooper@@ 1005
depend 1005
jing 1005
市政 1005
某种 1005
自焚 1005
行车 1005
LA 1004
purchasing 1004
中说 1004
伯 1004
昌@@ 1004
磨 1004
自动化 1004
豪@@ 1004
铺 1004
Mon@@ 1003
Under 1003
fa 1003
wanchai 1003
纷@@ 1003
默 1003
TH 1002
contrast 1002
decreases 1002
ei@@ 1002
geographical 1002
guangxi 1002
revision 1002
successively 1002
tionally 1002
uk@@ 1002
增多 1002
展望 1002
推荐 1002
检查@@ 1002
物理 1002
认真@@ 1002
评审 1002
贸易额 1002
CA 1001
Sal@@ 1001
ballistic 1001
consci@@ 1001
tenants 1001
农 1001
日本@@ 1001
菜@@ 1001
调查@@ 1001
Trade 1000
elli@@ 1000
goodwill 1000
ony 1000
possibly 1000
rowing 1000
venue 1000
visible 1000
上来 1000
醒 1000
arran@@ 999
nal 999
四十 999
极为 999
诚 999
AF@@ 998
alleg@@ 998
ure@@ 998
尘@@ 998
府 998
炸弹 998
绝大多数 998
harmful 997
哦 997
在场 997
总区 997
政务司 997
监视 997
茶@@ 997
1.4 996
divi@@ 996
navigation 996
人体 996
商贸 996
四百@@ 996
挥@@ 996
邓@@ 996
驾车 996
advances 995
afcd 995
busy 995
grades 995
lok 995
拨 995
渡@@ 995
焦点 995
调动 995
counties 994
deal@@ 994
extensively 994
fies 994
parliamentary 994
人民法院 994
拼@@ 994
绪 994
街市 994
键 994
下半年 993
外贸 993
奉@@ 993
宾@@ 993
智利 993
祖 993
衡 993
belong 992
cultivation 992
curriculum 992
grave 992
travelling 992
yasukuni 992
珍@@ 992
筋 992
纺@@ 992
经营者 992
罪犯 992
RS 991
atin@@ 991
cambodia 991
ested 991
兆@@ 991
多方面 991
提出@@ 991
普及 991
泽@@ 991
Alg@@ 990
uk 990
百分之十 990
耀@@ 990
萨 990
EM@@ 989
bin@@ 989
demanded 989
honest 989
issuance 989
list@@ 989
proceeds 989
qi@@ 989
仔@@ 989
十二时 989
大使馆 989
肯 989
livelihood 988
pra@@ 988
specify 988
必需 988
明天 988
赤@@ 988
apping 987
任职 987
候 987
制止 987
急 987
早前 987
柯@@ 987
柴@@ 987
进口@@ 987
铝 987
Asia 986
DS 986
accelerating 986
authorization 986
fel@@ 986
venues 986
visa 986
中期 986
人手 986
刀@@ 986
单元 986
摊@@ 986
Jo@@ 985
abilities 985
brings 985
deliber@@ 985
escal@@ 985
filed 985
seasonally 985
yers 985
yuxi 985
垃圾 985
戈@@ 985
消费品 985
碱@@ 985
第三次 985
0s 984
Em@@ 984
ok@@ 984
regulating 984
sus 984
仁@@ 984
凤@@ 984
前途 984
协 984
clients 983
er-@@ 983
年前 983
DP 982
abo@@ 982
enabled 982
haz@@ 982
progres@@ 982
党和国家 982
和谐 982
身上 982
colon@@ 981
eget@@ 981
峰@@ 981
滥@@ 981
触 981
首脑 981
Now 980
corrupt 980
ests 980
garden 980
incomes 980
targeted 980
tious 980
七时 980
三国 980
大幅度 980
掩@@ 980
mp@@ 979
slow@@ 979
tickets 979
wrote 979
仪器 979
忘@@ 979
窄 979
Also 978
bombing 978
institutes 978
neighbors 978
quota 978
○ 978
出境 978
千 978
涌@@ 978
试点 978
Ag@@ 977
paris 977
public@@ 977
worried 977
一再 977
亮@@ 977
介入 977
唯@@ 977
屠@@ 977
本署 977
赛马会 977
Data 976
chow 975
explosion 975
reviewing 975
十八 975
stream@@ 974
weaponry 974
zhi@@ 974
职权 974
Human 973
fighters 973
ham 973
isc@@ 973
受害人 973
大大@@ 973
猪@@ 973
缺 973
钙 973
齿@@ 973
advancement 972
batch 972
commit 972
contemporary 972
judg@@ 972
petroleum 972
urge 972
利用外资 972
咨询 972
孟@@ 972
尊严 972
慎@@ 972
推向 972
漆 972
选票 972
IA 971
customer 971
fro@@ 971
happen@@ 971
journalists 971
人民政府 971
新年 971
毛泽东 971
美好 971
脱困 971
超越 971
edly 970
installations 970
二十四 970
副委员长 970
私家车 970
签发 970
财政部 970
North 969
feasible 969
mp 969
tariff 969
幻@@ 969
音乐 969
IV 968
La@@ 968
airspace 968
arer 968
→ 968
上涨 968
多人 968
实例 968
正义 968
pt 967
凸@@ 967
污 967
瓶 967
秀@@ 967
fle@@ 966
genetic 966
geo@@ 966
二级 966
娜 966
港人 966
耶夫 966
跑@@ 966
Because 965
FE@@ 965
ern@@ 965
rental 965
suspend 965
基金会 965
弄@@ 965
收支 965
渐 965
耗 965
GA 964
Three 964
dependent 964
forec@@ 964
gram@@ 964
parallel 964
stru@@ 964
充满 964
尖 964
播出 964
endorsed 963
extreme 963
genic 963
k-@@ 963
lawyers 963
preserve 963
凋@@ 963
宣称 963
轻微 963
陷@@ 963
addressed 962
breaking 962
examinations 962
faith 962
hing 962
lived 962
morrison 962
profoundly 962
publicly 962
十四@@ 962
大于 962
己 962
旺@@ 962
物价 962
38@@ 961
dual 961
ound@@ 961
primarily 961
刺@@ 961
振兴 961
cher 960
lar@@ 960
却@@ 960
截止 960
日内瓦 960
牙 960
进度 960
Mr 959
Nor@@ 959
organ@@ 959
化验 959
各项@@ 959
服务中心 959
GH@@ 958
ater@@ 958
drew 958
mines 958
suddenly 958
阔 958
雾 958
At@@ 957
human@@ 957
qin 957
zhong 957
墙@@ 957
岭 957
廉 957
扭@@ 957
mongolia 956
remark 956
update 956
东区 956
九时 956
公安@@ 956
口岸 956
废除 956
灾难 956
瓷 956
1.8 955
Chief 955
acking 955
continu@@ 955
du 955
graphy 955
positively 955
rectification 955
succeed 955
气象@@ 955
裔 955
设定 955
辞@@ 955
ah@@ 954
consecutive 954
l-@@ 954
radar 954
sheung 954
享@@ 954
党派 954
发布会 954
梦@@ 954
facility 953
rmb 953
据此 953
Ta@@ 952
sham 952
tening 952
welcomes 952
句@@ 952
商机 952
喉@@ 952
扎 952
菲 952
是不是 951
晋@@ 951
backward 950
拜 950
硅 950
行径 950
警务处 950
accommodation 949
itary 949
stem 949
systematic 949
授 949
死刑 949
氢 949
订明 949
abor@@ 948
duction 948
excess 948
prescri@@ 948
从中 948
更换 948
积极性 948
绿化 948
聪@@ 948
誓 948
诺夫 948
ali 947
disarmament 947
inci@@ 947
在座 947
最多 947
0-@@ 946
El@@ 946
Ni@@ 946
addi@@ 946
adverse 946
carries 946
jiangsu 946
恶劣 946
牢@@ 946
缩小 946
落成 946
1970 945
DI@@ 945
Mat@@ 945
cc 945
gun@@ 945
interviewed 945
malaysia 945
rete 945
stimul@@ 945
具@@ 945
气象 945
concentr@@ 944
extending 944
rocket 944
交易所 944
危@@ 944
珠 944
Land 943
consum@@ 943
intensified 943
withdrawal 943
乌克兰 943
加剧 943
坚定不移 943
拍 943
模块 943
策 943
航行 943
persistently 942
个月 942
打道 942
bright 941
exactly 941
medicines 941
modern@@ 941
十四 941
后勤 941
密切@@ 941
抵 941
裁 941
140 940
discrimination 940
initiated 940
shops 940
感觉 940
瓜 940
稳 940
accepting 939
chaired 939
communique 939
fate 939
hop@@ 939
samples 939
trillion 939
不顾 939
匀 939
困境 939
宾 939
尘 939
炭 939
知悉 939
证监会 939
诊所 939
eye 938
fang 938
ramp 938
spectrum 938
侨@@ 938
启 938
硕@@ 938
老师 938
认定 938
SD@@ 937
assumed 937
resumption 937
tanks 937
别人 937
欧洲@@ 937
狭@@ 937
ME 936
Ministry 936
Sha@@ 936
commonly 936
compulsory 936
harmony 936
massive 936
reconstruction 936
ries 936
shore 936
sia 936
三项 936
二七 936
找@@ 936
舞台 936
迫@@ 936
雷达 936
assume 935
atures 935
escape 935
持牌 935
效力 935
bit 934
eve 934
profession 934
wal@@ 934
囚犯 934
第三季 934
财经 934
首长 934
eighth 933
than@@ 933
回避 933
祝愿 933
Gaz@@ 932
affir@@ 932
fal@@ 932
南省 932
技@@ 932
玩 932
AC 931
Of 931
adapt 931
fly 931
rem@@ 931
struggles 931
zxs 931
串@@ 931
外来 931
怒 931
西九龙 931
105 930
animal 930
cp@@ 930
idity 930
protest 930
tele@@ 930
turing 930
公开@@ 930
多极化 930
遗憾 930
cease 929
illnesses 929
respondents 929
放宽 929
朗@@ 929
烈@@ 929
pan 928
reforming 928
selec@@ 928
友好@@ 928
拥@@ 928
灾@@ 928
经济社会 928
Mechanism 927
argu@@ 927
independently 927
kazakhstan 927
movements 927
ultimate 927
wind 927
讯息 927
趋 927
非正式 927
girls 926
graph@@ 926
交界 926
保安局 926
兄弟 926
全党 926
勇 926
基建 926
港澳 926
燃 926
瑞 926
23.@@ 925
approximately 925
ect 925
hundreds 925
hus@@ 925
league 925
superi@@ 925
七一 925
交流@@ 925
取缔 925
吴邦国 925
国际形势 925
对方 925
者@@ 925
耦@@ 925
非法@@ 925
高等教育 925
Mac@@ 924
avenue 924
checks 924
departmental 924
ication 924
ideals 924
motor@@ 924
relates 924
固定@@ 924
窗 924
dam 923
delta 923
trees 923
你@@ 923
信仰 923
区别 923
版权 923
ades 922
guo@@ 922
objection 922
叙利亚 922
里面 922
accuracy 921
fever 921
preventive 921
system@@ 921
一九九六年 921
严格@@ 921
捷 921
S. 920
arena 920
copyright 920
探员 920
晨 920
极端 920
覆 920
duration 919
hong@@ 919
presided 919
processed 919
两人 919
孩 919
研 919
seventh 918
uniform 918
奶 918
忽视 918
杂 918
浦@@ 918
病例 918
笑@@ 918
管理人员 918
纤 918
舍@@ 918
陷入 918
acquisition 917
ng 917
pursuit 917
rank 917
导向 917
生态环境 917
第八@@ 917
诸多 917
ails 916
fm 916
jp 916
representation 916
婴儿 916
弹道导弹 916
束@@ 916
梦 916
窃@@ 916
贸 916
agg@@ 915
evolution 915
signal 915
tenth 915
迹象 915
Bas@@ 914
brazil 914
industri@@ 914
noon 914
recover 914
sincerely 914
不安 914
亏@@ 914
回升 914
皆 914
boards 913
ideal 913
macroeconomic 913
mapping 913
作物 913
情报@@ 913
战术 913
祗 913
附加 913
john 912
promised 912
一句 912
中华 912
吓 912
烷 912
brand 911
deaths 911
kwok 911
recogn@@ 911
whenever 911
污染物 911
薪@@ 911
battlefield 910
containers 910
falls 910
grants 910
中等 910
AT 909
Conc@@ 909
Pr@@ 909
big@@ 909
mur@@ 909
nat@@ 909
tsing 909
武 909
社会治安 909
薄 909
颈 909
高素质 909
Fl@@ 908
negotiation 908
procurement 908
sexual 908
sharp 908
tourists 908
侦@@ 908
播放 908
比亚 908
潮流 908
3,000 907
CU@@ 907
certification 907
sured 907
surpris@@ 907
violent 907
惨@@ 907
棒 907
茨 907
西贡 907
跃@@ 907
Ob@@ 906
effec@@ 906
researchers 906
soft 906
surveys 906
β@@ 906
与会 906
中环 906
感受 906
提供@@ 906
浮 906
advocate 905
amid 905
inated 905
merg@@ 905
selecting 905
创造@@ 905
外商 905
沈@@ 905
深水 905
游行 905
nan@@ 904
secret@@ 904
崩@@ 904
很难 904
童@@ 904
驱动 904
Security 903
Western 903
cons@@ 903
enabling 903
住房 903
契@@ 903
斯特 903
渡 903
累计 903
齿 903
Reg@@ 902
民意 902
牺牲 902
fare 901
married 901
necessity 901
procuratorate 901
suit 901
圣 901
难题 901
AL 900
NS@@ 900
capita 900
rement 900
tak 900
venture 900
九个 900
劳动力 900
告士 900
游客 900
父 900
alo@@ 899
answered 899
hang 899
moves 899
可靠性 899
团结@@ 899
性别 899
日子 899
柜@@ 899
电子商务 899
讼@@ 899
10% 898
分割 898
妙 898
嵌@@ 898
执法@@ 898
-up 897
alleged 897
highway 897
pearl 897
spots 897
别国 897
心脏病 897
guest 896
suicide 896
一笔 896
关联 896
发起 896
恐怖 896
护士 896
目前为止 896
翻译 896
谋 896
馀 896
GRA@@ 895
reconciliation 895
丑@@ 895
和谈 895
本来 895
缅甸 895
cotton 894
estimates 894
guangsheng 894
indi@@ 894
phones 894
rendered 894
viewed 894
一九七@@ 894
之处 894
变更 894
吐@@ 894
派发 894
肯@@ 894
选定 894
配套 894
GB@@ 893
Health 893
ROM 893
eption 893
indicating 893
stan@@ 893
websites 893
新闻界 893
疑问 893
百分之三点 893
营造 893
虫@@ 893
entrusted 892
instruction 892
outlets 892
否 892
如欲 892
白皮书 892
百分之五十 892
盲@@ 892
证明书 892
预定 892
daugh@@ 891
graphic 891
南方 891
尉健行 891
芬 891
那时 891
鸿@@ 891
effic@@ 890
gloucester 890
万吨 890
十二个 890
招聘 890
膨@@ 890
陆续 890
book@@ 889
canadian 889
noting 889
ration@@ 889
芳 889
4.5 888
6,@@ 888
bia 888
distor@@ 888
lien 888
los@@ 888
patent 888
popular@@ 888
中将 888
何时 888
反而 888
妨碍 888
癌@@ 888
cup 887
全民 887
出席会议 887
夺@@ 887
定位 887
康文署 887
张万年 887
瑞典 887
管道 887
输往 887
Is 886
greetings 886
listing 886
phases 886
rating 886
仔细 886
处分 886
律政司 886
界定 886
疑 886
communic@@ 885
notify 885
textile 885
原子@@ 885
恰@@ 885
惩罚 885
生活@@ 885
用水 885
财务@@ 885
Bra@@ 884
distinc@@ 884
ethics 884
exploring 884
illness 884
kid@@ 884
onds 884
ores@@ 884
remuneration 884
工业化 884
手中 884
难民 884
editorial 883
inspected 883
saddam 883
出访 883
宫@@ 883
耀 883
gan 882
kwong 882
reinforce 882
封锁 882
Time 881
appraisal 881
chec@@ 881
temperature 881
打赢 881
找出 881
消费@@ 881
被迫 881
District 880
Pat@@ 880
casualties 880
cd 880
emissions 880
internationally 880
ion@@ 880
嘱 880
次数 880
泳 880
湿 880
配偶 880
PD 879
ech@@ 879
fei 879
materi@@ 879
road@@ 879
set@@ 879
sli@@ 879
中南海 879
企@@ 879
赞同 879
36@@ 878
bird 878
isms 878
lege 878
以期 878
市委 878
柜 878
盗@@ 878
重新@@ 878
Sec@@ 877
aying 877
hostile 877
regardless 877
subsidiary 877
younger 877
拒 877
诞@@ 877
贩@@ 877
魔@@ 877
millions 876
nish 876
公安 876
劲 876
恰当 876
领导班子 876
parti@@ 875
耳 875
陆军 875
1.7 874
accomplished 874
observatory 874
≥ 874
三千@@ 874
为本 874
开创 874
扰 874
据报 874
dist@@ 873
ordin@@ 873
本届 873
贝 873
# 872
banquet 872
嘴 872
困@@ 872
提及 872
第五@@ 872
RI 871
clearing 871
dil@@ 871
lifting 871
xiao 871
宇 871
社会各界 871
CS 870
flat 870
kingdom 870
mortgage 870
prerequisite 870
substances 870
捕 870
擎 870
秦@@ 870
CF@@ 869
compens@@ 869
departure 869
notable 869
sa 869
wisdom 869
交给 869
便利 869
六百 869
滤 869
玉 869
申诉 869
筒 869
超出 869
Another 868
canc@@ 868
dialogues 868
rd 868
solu@@ 868
stipulations 868
岸@@ 868
构想 868
自杀 868
艰巨 868
逐 868
001 867
los 867
urgency 867
商品@@ 867
按季 867
极其 867
解放思想 867
Provi@@ 866
aspirations 866
一类 866
联合会 866
Standing 865
eased 865
expo 865
illustr@@ 865
optimal 865
tei 865
妇@@ 865
宿@@ 865
寿命 865
Officer 864
aberdeen 864
che 864
declare 864
hai@@ 864
humanitarian 864
tertiary 864
此前 864
累积 864
贩毒 864
逼@@ 864
遮@@ 864
今年@@ 863
剩余 863
徵@@ 863
献 863
constitutes 862
jected 862
neighboring 862
人民日报 862
滋@@ 862
2582 861
47@@ 861
photo 861
submarines 861
不时 861
糊@@ 861
correspon@@ 860
evol@@ 860
facilitating 860
osis 860
prejudice 860
substantially 860
tactics 860
动摇 860
总体@@ 860
攀@@ 860
简介 860
赛事 860
111 859
Appl@@ 859
criterion 859
fications 859
harmon@@ 859
mem@@ 859
to-@@ 859
捐@@ 859
摩利 859
无效 859
转型 859
采取行动 859
IZ@@ 858
Stud@@ 858
orderly 858
九十 858
五名 858
交谈 858
East 857
claiming 857
业务@@ 857
卓@@ 857
坑 857
弥@@ 857
後@@ 857
无牌 857
泳池 857
现实@@ 857
Office 856
acceptable 856
ailing 856
va 856
任何@@ 856
姑@@ 856
忘 856
或许 856
拒绝@@ 856
撒@@ 856
洁 856
消息人士 856
现任 856
署理 856
适 856
Bar@@ 855
accomplish 855
attacked 855
sheet 855
价值观 855
涉 855
订单 855
针对性 855
ank 854
lan 854
omic 854
plo@@ 854
中西部 854
前来 854
加紧 854
团队 854
开办 854
22.@@ 853
bb@@ 853
inning 853
leads 853
quot@@ 853
usage 853
一九九@@ 853
中央政治局常委 853
出入境 853
妈 853
burdens 852
encountered 852
publish 852
stand@@ 852
借口 852
妹 852
很少 852
等于 852
解决@@ 852
Financial 851
genuine 851
intermedi@@ 851
obvi@@ 851
quoted 851
一带 851
丙 851
狂 851
美洲 851
部件 851
鸟@@ 851
Anti@@ 850
Cha@@ 850
gore 850
initially 850
involvement 850
makers 850
oting 850
pers@@ 850
someone 850
swd 850
ukraine 850
utmost 850
widespread 850
全省 850
奥运 850
蒙 850
Code 849
Sen@@ 849
placing 849
za 849
呼 849
帝@@ 849
帮@@ 849
最初 849
深远 849
结果显示 849
胰@@ 849
虎 849
铜锣湾 849
集体@@ 849
领空 849
鼓舞 849
causeway 848
mar 848
一周 848
从未 848
农业@@ 848
提起 848
练习者 848
employ@@ 847
expenditures 847
十六 847
消防@@ 847
Safety 846
belarus 846
robbery 846
unlawful 846
veness 846
坎@@ 846
锌 846
EC 845
dc 845
depending 845
explicitly 845
one-@@ 845
qing@@ 845
sco@@ 845
transfer@@ 845
尽量减少 845
订定 845
训练@@ 845
RE 844
yee 844
you@@ 844
业绩 844
第四季 844
轰炸 844
charter 843
ults 843
xian 843
争端 843
人选 843
发生@@ 843
检察院 843
高达 843
TED 842
convey 842
industrialization 842
low-@@ 842
mounted 842
murder 842
recommendation 842
sef 842
中国外交部 842
人事@@ 842
捍卫 842
携手 842
整治 842
花园 842
chin@@ 841
cmc 841
earnings 841
govern@@ 841
mark@@ 841
unite 841
九届全国人大 841
当今世界 841
所致 841
车站 841
革 841
驻华大使 841
chu 840
counts 840
inland 840
会议@@ 840
内在 840
创作 840
市政局 840
戈尔 840
报表 840
栏@@ 840
祝@@ 840
萧@@ 840
馆@@ 840
Fac@@ 839
doub@@ 839
lion 839
poss@@ 839
specif@@ 839
yunnan 839
充分利用 839
入口 839
关切 839
动用 839
强硬 839
汽 839
览@@ 839
辅导 839
armament 838
preci@@ 838
信用@@ 838
八十 838
军用 838
制造@@ 838
吞@@ 838
四时 838
已于 838
斥 838
旺 838
累@@ 838
美国国会 838
背 838
ever@@ 837
俗 837
国债 837
场合 837
实用 837
致命 837
Ha@@ 836
administr@@ 836
北方 836
羁@@ 836
融 836
IAL 835
traditions 835
中小型 835
增值 835
质疑 835
配额 835
coalition 834
expres@@ 834
guards 834
ications 834
ignor@@ 834
theater 834
timetable 834
卸 834
契约 834
婚姻@@ 834
担保 834
海洋@@ 834
磷 834
蒙古 834
隔离 834
2.4 833
resumed 833
丢@@ 833
信念 833
宪 833
肺炎 833
限额 833
26.@@ 832
deep@@ 832
lap 832
transparent 832
上海@@ 832
两大 832
人道主义 832
典礼 832
暨 832
毛病 832
法制@@ 832
火力 832
第二个 832
To@@ 831
counterparts 831
guaranteed 831
mentality 831
uro@@ 831
wearing 831
什么样 831
冠军 831
流程 831
赞扬 831
高等@@ 831
commissioned 830
devoted 830
中国人民@@ 830
以免 830
分散 830
务求 830
台办 830
基础@@ 830
泛@@ 830
相继 830
科技进步 830
肩@@ 830
aa 829
configuration 829
donald 829
mobilization 829
参照 829
弊 829
颈@@ 829
饭@@ 829
.9 828
inspect 828
lik@@ 828
mainstream 828
rejected 828
stressing 828
一千 828
此举 828
示威 828
途@@ 828
Investigation 827
ania 827
gam@@ 827
granting 827
共同利益 827
十时 827
对外@@ 827
波动 827
膜@@ 827
首要 827
高级@@ 827
justi@@ 826
piece 826
stain@@ 826
埃 826
填妥 826
有用 826
残 826
销售处 826
eline 825
guns 825
pile 825
yev 825
亡@@ 825
分开 825
合法权益 825
择@@ 825
提议 825
2.3 824
lei 824
recording 824
siu 824
三天 824
估 824
广泛@@ 824
曹@@ 824
electronics 823
g-@@ 823
nominated 823
servic@@ 823
stephen 823
unknown 823
一个@@ 823
国事访问 823
嫌疑人 823
权威 823
遇 823
accumulated 822
chun@@ 822
deploy 822
thereto 822
众议院 822
当今 822
早已 822
机械 822
私 822
统一@@ 822
询问 822
非常@@ 822
24.@@ 821
Building 821
WTO 821
actors 821
alizing 821
communiques 821
esh 821
instruc@@ 821
languages 821
linking 821
patriotic 821
pieces 821
plen@@ 821
poll 821
shandong 821
ura 821
wireless 821
三时 821
以供 821
冰 821
强劲 821
甜@@ 821
绝不 821
Enterpris@@ 820
essi@@ 820
geneva 820
recruitment 820
wu@@ 820
商业银行 820
回复 820
庄 820
操 820
砂 820
蔓延 820
调解 820
轧@@ 820
那种 820
analysts 819
northeast 819
oking 819
ribao 819
smes 819
军事演习 819
动性 819
妈@@ 819
纠@@ 819
councils 818
啦 818
让@@ 818
颁@@ 818
informal 817
symptoms 817
互信 817
冠 817
新增 817
相互尊重 817
艾滋病 817
道歉 817
& 816
drinking 816
ich@@ 816
mitting 816
tak@@ 816
反对@@ 816
演说 816
盟国 816
货运 816
Sa@@ 815
annually 815
cultiv@@ 815
gambling 815
invite 815
neighb@@ 815
terminal 815
人力 815
瑞士 815
篮@@ 815
茶 815
难以@@ 815
convenient 814
iron 814
judiciary 814
liaoning 814
philippine 814
suspect 814
violating 814
保障@@ 814
印象 814
厌@@ 814
大力发展 814
总会 814
政府@@ 814
运送 814
Appeal 813
logical 813
semi 813
宗教@@ 813
斑@@ 813
死者 813
监测站 813
77@@ 812
insufficient 812
investing 812
两国政府 812
九百 812
公认 812
历来 812
疯@@ 812
边缘 812
逢 812
道理 812
闻@@ 812
exception 811
expedi@@ 811
fallen 811
ferred 811
isi@@ 811
lands@@ 811
tau 811
公职人员 811
利用@@ 811
办事 811
工务局 811
收购 811
缸 811
Mer@@ 810
advise 810
arbitration 810
cracking 810
encies 810
fif@@ 810
pledged 810
一所 810
不合理 810
克斯 810
同学 810
玛 810
gather 809
restore 809
triad 809
中断 809
比利时 809
罢@@ 809
闹@@ 809
disrup@@ 808
farming 808
franchised 808
tour@@ 808
中非 808
俱乐部 808
努力@@ 808
新闻稿 808
留在 808
Registration 807
aggregate 807
arding 807
congresses 807
constituted 807
ek 807
olympics 807
prosecuted 807
不久前 807
军备竞赛 807
墨 807
意识形态 807
斜坡 807
蔽 807
MC 806
anc@@ 806
pled 806
zhi 806
不应 806
南京 806
漠 806
管辖 806
经济效益 806
Tribunal 805
partly 805
protec@@ 805
pursued 805
trav@@ 805
从根本上 805
广西 805
庭@@ 805
愚@@ 805
智慧 805
相当于 805
pakistani 804
sto@@ 804
tains 804
增至 804
稻@@ 804
耕@@ 804
confron@@ 803
hibition 803
infec@@ 803
newspap@@ 803
总参谋长 803
穷@@ 803
第五十@@ 803
联邦@@ 803
赌@@ 803
Israel 802
advocated 802
substantive 802
布什总统 802
施 802
补贴 802
观测 802
Let 801
Mic@@ 801
acknowledged 801
fit@@ 801
suggest 801
亚欧 801
可是 801
对外贸易 801
幢 801
攻 801
档@@ 801
渣 801
潘@@ 801
空袭 801
CC 800
Public 800
Use 800
dies 800
governance 800
norm@@ 800
一架 800
农历 800
柏@@ 800
祝 800
设想 800
AP 799
Ban@@ 799
boat 799
举行会谈 799
合办 799
孙 799
惠 799
扣押 799
民事 799
涂 799
进一步提高 799
Order 798
RAL 798
School 798
by-@@ 798
volunteers 798
增长速度 798
清醒 798
社团 798
颠@@ 798
Measures 797
creativity 797
poland 797
ury 797
zhen@@ 797
专 797
夥伴 797
手机 797
拥护 797
痴迷者 797
颁布 797
alco@@ 796
compound 796
netherlands 796
偿还 796
发展局 796
叙@@ 796
融@@ 796
鞋@@ 796
55@@ 795
enables 795
motiv@@ 795
thou@@ 795
传统友谊 795
夹 795
强制性 795
渠 795
随即 795
considerations 794
retired 794
下述 794
劝@@ 794
多元 794
奥地利 794
情绪 794
Ter@@ 793
appointments 793
condem@@ 793
delegations 793
integrating 793
tt@@ 793
军国主义 793
基督教 793
指令 793
效能 793
无线电 793
涵@@ 793
瞬@@ 793
Even 792
congratulations 792
phoenix 792
ut 792
俄罗斯@@ 792
创意 792
叛@@ 792
走上 792
麻 792
6-@@ 791
Bu@@ 791
airlines 791
appeals 791
feed 791
operative 791
where@@ 791
xia@@ 791
乔石 791
典型 791
受惠 791
拓@@ 791
摧毁 791
用品 791
辩 791
critic@@ 790
expense 790
fra@@ 790
retain 790
revi@@ 790
smart 790
storm 790
安定 790
销售@@ 790
0.7 789
peasant 789
preserving 789
privileg@@ 789
salaries 789
stick 789
threatened 789
中日关系 789
喀@@ 789
增长@@ 789
忽@@ 789
滞 789
College 788
aci@@ 788
bi 788
glorious 788
interior 788
noise 788
丧生 788
培 788
天津 788
映@@ 788
真诚 788
竹@@ 788
箱@@ 788
至关重要 788
访美 788
鼓吹 788
cip@@ 787
entity 787
双重 787
拦截 787
控罪 787
推翻 787
炎@@ 787
秋 787
香港特别行政区政府 787
33@@ 786
Fund 786
class@@ 786
craft 786
smoking 786
ul 786
地下@@ 786
天内 786
少年 786
强烈@@ 786
日报 786
月初 786
正常化 786
盟 786
预先 786
gao 785
icing 785
profile 785
revenues 785
rupt 785
列明 785
尽可能 785
桂@@ 785
烟草 785
纽@@ 785
跌@@ 785
酚 785
199@@ 784
Europe 784
entourage 784
kang 784
mtr 784
postal 784
剩@@ 784
沥@@ 784
海南 784
NU@@ 783
actor 783
epidemic 783
factories 783
inevitably 783
moder@@ 783
politicians 783
sures 783
≤ 783
重庆 783
John 782
Nations 782
preparatory 782
prize 782
providers 782
seminars 782
solemn 782
stre@@ 782
吕@@ 782
大致 782
文献 782
明显@@ 782
昨@@ 782
陪@@ 782
aroused 781
denied 781
impacts 781
jianxing 781
内涵 781
农民收入 781
冻 781
哎 781
四千 781
敲@@ 781
疗 781
相关性 781
视乎 781
agu@@ 780
avoid@@ 780
italian 780
构成@@ 780
清单 780
登记@@ 780
结算 780
芳@@ 780
谨慎 780
香港特区政府 780
鸣 780
27.@@ 779
3.2 779
Speci@@ 779
Therefore 779
aining 779
circum@@ 779
mit 779
tig@@ 779
亏 779
Evaluation 778
ghua 778
steering 778
supplementary 778
tend 778
weigh@@ 778
伍@@ 778
同比 778
手法 778
绕@@ 778
资本主义 778
骑@@ 778
Comb@@ 777
boy 777
confirm 777
dat@@ 777
ground@@ 777
imperative 777
politically 777
staged 777
wholesale 777
供应@@ 777
半年 777
惯@@ 777
战斗机 777
掺@@ 777
旱@@ 777
签 777
精力 777
Dep@@ 776
Regulation 776
Ver@@ 776
banned 776
err@@ 776
vely 776
会同 776
可望 776
坛 776
总经理 776
油麻 776
见面 776
Hor@@ 775
batt@@ 775
graduates 775
neutr@@ 775
victoria 775
yao 775
zhu@@ 775
弃@@ 775
藉@@ 775
走出 775
阿根廷 775
drafting 774
immigrants 774
remind 774
tations 774
人大常委会 774
供水 774
巡逻 774
延 774
毫无@@ 774
LT@@ 773
Mi@@ 773
arization 773
blocks 773
maintains 773
mini 773
remin@@ 773
stimulate 773
stud@@ 773
中欧 773
侦查 773
废 773
开辟 773
正当 773
罩 773
Field 772
birds 772
eries 772
iver 772
minim@@ 772
sake 772
城规会 772
安南 772
沟 772
猫 772
贷 772
金大中 772
Each 771
Many 771
Relation@@ 771
inevitable 771
mass@@ 771
tough 771
waves 771
二三 771
俱@@ 771
喜欢 771
州市 771
态势 771
战略目标 771
承受 771
绘 771
豆@@ 771
colleges 770
ign 770
stalls 770
本着 770
章启月 770
纲 770
Min@@ 769
Mor@@ 769
performances 769
repu@@ 769
rul@@ 769
sident 769
textbook 769
xiao@@ 769
中国人民银行 769
基准 769
学年 769
工商界 769
拔@@ 769
蔡@@ 769
Mater@@ 768
Those 768
arise 768
attracting 768
hegemonism 768
resolutions 768
subsidies 768
主持@@ 768
合作@@ 768
跨国公司 768
高等法院 768
3.1 767
Industry 767
Wil@@ 767
accumulation 767
barriers 767
cigarettes 767
familiar 767
不幸 767
不当 767
种子 767
筹备 767
胎@@ 767
记得 767
Mag@@ 766
employ 766
impetus 766
kam 766
lofty 766
meantime 766
restraint 766
shopping 766
subjec@@ 766
三岁 766
农场 766
卫生防护 766
均衡 766
弟@@ 766
当值 766
彭@@ 766
泽 766
究 766
究竟 766
蒋@@ 766
RA 765
argument 765
bab@@ 765
deser@@ 765
devote 765
ins@@ 765
leighton 765
lod@@ 765
motions 765
sac@@ 765
sacred 765
valued 765
味@@ 765
百分之四十 765
Japanese 764
Science 764
animals 764
fluctu@@ 764
inform@@ 764
macau 764
minute 764
不懈 764
常委 764
指南 764
重要@@ 764
阁下 764
destination 763
dumping 763
ele@@ 763
gazetted 763
gram 763
outh 763
see@@ 763
soccer 763
troop 763
wannian 763
公然 763
暴露 763
瓣 763
纺织品 763
Air@@ 762
Performance 762
exten@@ 762
frag@@ 762
gradual 762
hom 762
kilograms 762
match 762
ongoing 762
ruled 762
view@@ 762
参 762
改行 762
洛 762
热带 762
观塘 762
adhering 761
define 761
yang@@ 761
喊 761
届@@ 761
昭@@ 761
目的地 761
藻 761
28.@@ 760
ammunition 760
disclosure 760
glad 760
notified 760
tit@@ 760
tree 760
恢复@@ 760
敌人 760
昂@@ 760
碎@@ 760
Social 759
compe@@ 759
mir@@ 759
占有 759
第五 759
绿 759
FO@@ 758
perf@@ 758
squad 758
tus 758
伏@@ 758
武装@@ 758
浏@@ 758
绩 758
藏有 758
European 757
focal 757
mention 757
recipients 757
ture@@ 757
ya@@ 757
价格@@ 757
伴 757
治安 757
流入 757
浩@@ 757
租赁 757
萨达姆 757
认真学习 757
赢 757
高度@@ 757
Technical 756
bon 756
ession 756
harm@@ 756
iss 756
modi@@ 756
rejuvenation 756
串 756
冶@@ 756
划作 756
喝@@ 756
延续 756
户外活动 756
课税 756
buil@@ 755
conveyed 755
councilor 755
dent 755
screening 755
temple 755
一九九二年 755
斑 755
炉@@ 755
PP@@ 754
brilliant 754
clari@@ 754
combating 754
fs 754
hib@@ 754
kin 754
resolute 754
threats 754
ticle 754
wait 754
年人 754
睡 754
经由 754
董事长 754
May 753
chu@@ 753
contracted 753
pap@@ 753
talented 753
tant 753
十一 753
宜@@ 753
擅@@ 753
礼顿 753
DA 752
dish 752
macro@@ 752
syndicate 752
violate 752
一体 752
合资 752
轨@@ 752
350 751
While 751
expl@@ 751
overwhelming 751
pped 751
somewhat 751
thre@@ 751
二读 751
占领 751
政务 751
检察@@ 751
第九@@ 751
胚@@ 751
arly 750
shaanxi 750
创业 750
基因 750
摆 750
abs@@ 749
athletes 749
congratul@@ 749
gation 749
intends 749
marke@@ 749
人事 749
党和政府 749
劣@@ 749
可用 749
垄断 749
奔@@ 749
贪@@ 749
零售@@ 749
Finally 748
addresses 748
hunan 748
mpfa 748
pdf 748
stock@@ 748
treat@@ 748
一号 748
国防教育 748
定为 748
民族团结 748
百分之四点 748
bun@@ 747
photos 747
story 747
上周 747
傅全有 747
合作伙伴 747
合计 747
器材 747
扶贫 747
搭 747
泳@@ 747
警惕 747
设法 747
132 746
2.6 746
Society 746
indonesian 746
从来 746
停泊 746
入侵 746
巴格达 746
淀@@ 746
绳 746
罚 746
bangguo 745
fired 745
ld 745
ost 745
ould 745
seeks 745
splittist 745
undermine 745
upheld 745
zi 745
杨 745
祭@@ 745
Before 744
annan 744
fundamentally 744
ker@@ 744
偏高 744
渔业 744
熟 744
番 744
34@@ 743
egypt 743
gorges 743
laying 743
meant 743
以为 743
党内 743
坪 743
墨@@ 743
己@@ 743
弘扬 743
涉案 743
蚊 743
运动员 743
Direc@@ 742
bond 742
chil@@ 742
entrance 742
suggestion 742
tracking 742
workplace 742
年轻人 742
瓶@@ 742
粹 742
CB@@ 741
Cre@@ 741
D-@@ 741
Net@@ 741
academies 741
breakthroughs 741
diver@@ 741
expertise 741
impe@@ 741
lec@@ 741
removing 741
农村@@ 741
受害者 741
四是 741
据介绍 741
施政 741
afghanistan 740
distingu@@ 740
educate 740
exercised 740
glo@@ 740
necessarily 740
objec@@ 740
ouring 740
philatelic 740
年间 740
ees 739
fi 739
inser@@ 739
releases 739
剥夺 739
后者 739
店铺 739
般 739
莱 739
衡量 739
锐@@ 739
attempting 738
diversions 738
jiangxi 738
pao 738
swi@@ 738
valuation 738
善意 738
率先 738
罗马 738
苹@@ 738
ab 737
acknowledge 737
joseph 737
underground 737
urges 737
作出贡献 737
影响力 737
示范 737
该国 737
身分 737
辱 737
配备 737
1950 736
2.2 736
Legislative 736
nt 736
pharmaceutical 736
二十年 736
办公时间 736
在此@@ 736
斗@@ 736
最少 736
赤字 736
box 735
compromise 735
fierce 735
posted 735
wear 735
winter 735
八千 735
品种 735
富有 735
扣除 735
Fo@@ 734
alert 734
ed-@@ 734
tables 734
utilizing 734
到访 734
7.5 733
ballot 733
homepage 733
pretext 733
履@@ 733
抚@@ 733
演变 733
高级官员 733
clos@@ 732
essor 732
memorandum 732
otyp@@ 732
prison@@ 732
tactical 732
垃@@ 732
常见 732
毕@@ 732
联合作战 732
逆 732
郊野 732
Lu@@ 731
ambi@@ 731
celebrate 731
chile 731
iency 731
log 731
tas@@ 731
twenty 731
妥善处理 731
庙 731
扮演 731
熊@@ 731
衰退 731
触犯 731
贷@@ 731
转为 731
达致 731
Del@@ 730
III 730
completing 730
intermediate 730
quantities 730
发电 730
滴@@ 730
燥 730
2.1 729
Chin@@ 729
Tur@@ 729
parliaments 729
vicinity 729
猎@@ 729
联网 729
霸@@ 729
accompl@@ 728
aegis 728
beg@@ 728
breakdown 728
stipulates 728
保险公司 728
勃@@ 728
千元 728
和平共处 728
多万 728
尽力 728
理想信念 728
警署 728
5.5 727
michael 727
rushed 727
spare 727
unemployed 727
中部 727
保险业 727
审讯 727
技 727
拖欠 727
毫@@ 727
泊@@ 727
Du@@ 726
crops 726
david 726
ofta 726
u.n. 726
一至 726
今年以来 726
全体会议 726
司令 726
恒 726
旅 726
第四次 726
肿 726
酵 726
高速 726
comprises 725
cut@@ 725
economics 725
presi@@ 725
prisoners 725
slaugh@@ 725
先前 725
平等互利 725
念@@ 725
污水 725
盒 725
终 725
节省 725
邻国 725
watching 724
主席@@ 724
书记处 724
可疑 724
咖@@ 724
看出 724
访问期间 724
Air 723
Standard 723
cultures 723
deadline 723
nearby 723
七岁 723
不明 723
八时 723
凶@@ 723
发表声明 723
基层@@ 723
所用 723
扶持 723
某个 723
此行 723
百分比 723
窝 723
访港 723
Chapter 722
Regional 722
Rob@@ 722
asking 722
chair 722
guideline 722
updated 722
welcoming 722
协同 722
博 722
性能 722
感兴趣 722
擦@@ 722
涵 722
物种 722
Basic 721
dai 721
ulations 721
申办 721
男女 721
fulfilled 720
offshore 720
splitting 720
俊@@ 720
僵局 720
办公厅 720
四岁 720
控告 720
教会 720
炼@@ 720
环境卫生 720
红潮 720
Equ@@ 719
abandoned 719
capac@@ 719
committing 719
confiscated 719
destroyers 719
hotels 719
part@@ 719
shif@@ 719
大气 719
拆 719
提倡 719
皇 719
过度 719
06@@ 718
GIS 718
james 718
piracy 718
tration 718
xu@@ 718
械@@ 718
继续加强 718
负债表 718
财政政策 718
7,@@ 717
Ir@@ 717
Spe@@ 717
addressing 717
consultant 717
draw@@ 717
ez@@ 717
penalties 717
仗 717
工作组 717
惩@@ 717
联同 717
emerging 716
ographic 716
submission 716
衬@@ 716
56@@ 715
chairmen 715
coexistence 715
elect 715
hat@@ 715
norms 715
overed 715
routine 715
stabil@@ 715
teen@@ 715
各省 715
坚 715
拖延 715
综合症 715
20% 714
Without 714
consultancy 714
gratitude 714
hearts 714
preservation 714
thor@@ 714
凌@@ 714
就业机会 714
怨 714
第六十@@ 714
腰@@ 714
苗@@ 714
跨国 714
销毁 714
chao 713
discre@@ 713
finished 713
futures 713
patrol 713
perform@@ 713
ply 713
参加者 713
发射@@ 713
existed 712
integral 712
mo 712
opens 712
ote 712
pli@@ 712
tonight 712
yong 712
喝 712
坡@@ 712
朝鲜@@ 712
济 712
affirmed 711
gres@@ 711
machines 711
sport 711
上市公司 711
么@@ 711
列车 711
前所未有 711
宿 711
汁 711
津@@ 711
beat 710
consolidating 710
gate 710
respected 710
tolerance 710
凝聚力 710
南斯拉夫 710
大会@@ 710
油价 710
焦 710
离婚 710
负有 710
E-@@ 709
blair 709
gong 709
lpg 709
shoulder 709
一般@@ 709
上空 709
兔 709
敦促 709
水务 709
跑马地 709
amed 708
easier 708
manual 708
审核 708
小标题 708
石油气 708
舰艇 708
enri@@ 707
peti@@ 707
syria 707
warmly 707
共和@@ 707
卿 707
展出 707
掉@@ 707
阻挠 707
West 706
appreciate 706
enacted 706
entities 706
forests 706
heav@@ 706
quick 706
seoul 706
threshold 706
历程 706
洞@@ 706
见到 706
诸如 706
钩 706
锈@@ 706
ague 705
严正 705
乃 705
他续 705
切实加强 705
坊 705
机器 705
直辖市 705
缘@@ 705
earnest 704
interesting 704
spain 704
toler@@ 704
友好访问 704
受理 704
墓 704
无人 704
营企业 704
预料 704
adviser 703
arded 703
bidding 703
convened 703
guarantees 703
helpful 703
infl@@ 703
intra@@ 703
pier 703
restric@@ 703
yeoh 703
劣 703
布莱尔 703
成克杰 703
赠@@ 703
Sea 702
crowd 702
desk 702
earned 702
economically 702
estim@@ 702
villagers 702
六时 702
凝聚 702
否定 702
地理 702
更生 702
终审 702
Fin@@ 701
answering 701
cancellation 701
concur@@ 701
dragon 701
ety 701
rong 701
嘴@@ 701
绳@@ 701
融入 701
跃 701
阵地 701
Force 700
appropriately 700
bought 700
choices 700
forestry 700
machine 700
nom@@ 700
solely 700
workshop 700
印度@@ 700
堵@@ 700
娘 700
寻 700
表态 700
Dec@@ 699
Sam@@ 699
eliminated 699
feedback 699
one@@ 699
reliability 699
suff@@ 699
午 699
号码 699
店@@ 699
段@@ 699
迄今 699
insi@@ 698
intercepted 698
main@@ 698
passport 698
中止 698
亲属 698
块@@ 698
闹 698
Ber@@ 697
Protection 697
bureaux 697
jia@@ 697
pac@@ 697
渣@@ 697
爱尔兰 697
统一战线 697
覆盖 697
architecture 696
assurance 696
bribes 696
cable 696
eth 696
kno@@ 696
一九九五年 696
东行 696
以至 696
厨@@ 696
地域 696
居屋 696
抬@@ 696
激 696
烂 696
裤 696
anhui 695
ials 695
isd 695
lawyer 695
mediation 695
xia 695
一张 695
两国间 695
伙@@ 695
十个 695
实质性 695
指导思想 695
筑@@ 695
肽 695
赞助 695
Environment 694
Go@@ 694
Ren@@ 694
ference 694
forever 694
plac@@ 694
rare 694
spar@@ 694
ticles 694
不利于 694
产业化 694
年期 694
恨 694
挽@@ 694
有效率 694
沉 694
缓慢 694
酬@@ 694
approaches 693
enactment 693
journey 693
tural 693
乳 693
传达 693
估@@ 693
屡@@ 693
看待 693
老挝 693
航运 693
设在 693
favor 692
rated 692
四点 692
填 692
持久 692
持有人 692
白俄罗斯 692
竹 692
缺少 692
视频 692
该区 692
违法行为 692
钉 692
Between 691
administering 691
ained 691
audience 691
commanding 691
deals 691
tiananmen 691
yam 691
乌 691
大多 691
宪章 691
平时 691
总监 691
衔 691
.. 690
Tri@@ 690
accessible 690
affects 690
black@@ 690
de-@@ 690
ky 690
migr@@ 690
ounced 690
remember 690
shoul@@ 690
彻@@ 690
摸@@ 690
湾@@ 690
第一号 690
蚊@@ 690
长期@@ 690
22@@ 689
CI 689
GU@@ 689
Since 689
accompanying 689
fran@@ 689
mad@@ 689
yin 689
回国 689
指称 689
琳 689
着手 689
Institute 688
bad@@ 688
penetr@@ 688
sely 688
shipment 688
一大 688
全方位 688
分之一 688
削弱 688
夥 688
寿@@ 688
江总书记 688
爵@@ 688
省长 688
聘@@ 688
 688
July 687
belong@@ 687
ec 687
manned 687
revise 687
九二 687
伐 687
剥@@ 687
受访者 687
召 687
多位 687
映 687
核实 687
省级 687
计划生育 687
逾期 687
锡@@ 687
黄金 687
Pen@@ 686
Production 686
ator@@ 686
commenced 686
consciousness 686
kh@@ 686
liao 686
negoti@@ 686
pleasure 686
satis@@ 686
tao 686
信用 686
单方面 686
国际贸易 686
村民 686
进取 686
333 685
Executive 685
arrange 685
ation-@@ 685
multinational 685
rumsfeld 685
tariffs 685
wa 685
xiong 685
已达 685
普通@@ 685
欧元 685
突出@@ 685
苏丹 685
Vis@@ 684
hidden 684
pictures 684
store 684
中共中央@@ 684
仙@@ 684
姓 684
担忧 684
浙江 684
琼@@ 684
Both 683
chemicals 683
mistakes 683
regret 683
smoke 683
vel@@ 683
倡导 683
六百@@ 683
削 683
耶路撒冷 683
金融市场 683
1949 682
baghdad 682
inde@@ 682
plat@@ 682
上限 682
互 682
对华政策 682
渡轮 682
芽 682
钾 682
Whe@@ 681
defensive 681
flows 681
mechanical 681
亏损 681
外国人 681
延伸 681
梗@@ 681
清水湾 681
稣 681
葬 681
附图 681
ailed 680
deciding 680
ticul@@ 680
Ⅳ 680
割@@ 680
弹性 680
秉@@ 680
CM 679
chuan 679
edition 679
eliminating 679
istance 679
subscription 679
worst 679
农民负担 679
困 679
慰 679
昂 679
迫使 679
Condi@@ 678
bc 678
cruise 678
cssa 678
dor@@ 678
ible 678
oblig@@ 678
regulated 678
严打 678
众所周知 678
前线 678
发牌 678
坦 678
希 678
指挥@@ 678
竭 678
谐@@ 678
agers 677
angle 677
counterpart 677
courage 677
harv@@ 677
inity 677
ishment 677
succession 677
外界 677
就业人数 677
峡 677
循@@ 677
海内外 677
蛇 677
跨境 677
选手 677
Ass@@ 676
contractual 676
cultivate 676
distinguished 676
fulfilling 676
medic@@ 676
module 676
presidents 676
qiyue 676
restoration 676
warships 676
前夕 676
尸体 676
并于 676
插入 676
澄清 676
Be 675
agre@@ 675
bomb 675
divisions 675
firepower 675
mean@@ 675
stall 675
streets 675
verified 675
weekly 675
无线@@ 675
欺诈 675
谊 675
RP@@ 674
Second 674
Sk@@ 674
ayed 674
cao 674
co-@@ 674
else 674
everywhere 674
identi@@ 674
一连串 674
亭 674
商务 674
辈 674
遭遇 674
零售商 674
aint 673
assisting 673
eties 673
masters 673
mu 673
punish 673
reduc@@ 673
sung 673
tigh@@ 673
不必 673
好转 673
绕 673
辛 673
驻军 673
ishes 672
isting 672
lining 672
stadium 672
sudden 672
tedly 672
三合会 672
十七 672
原料 672
忠告 672
悬挂 672
肖@@ 672
通告 672
accur@@ 671
cli@@ 671
defending 671
diversity 671
fatal 671
giant 671
infra@@ 671
reb@@ 671
sear@@ 671
sit 671
宣扬 671
川@@ 671
平民 671
波黑 671
警区 671
edy 670
exha@@ 670
决不 670
切勿 670
原则立场 670
簿 670
综合国力 670
attributable 669
largely 669
nets 669
pushed 669
sional 669
vigor 669
台湾独立 669
四川 669
处所 669
崭新 669
框 669
法律援助 669
深化改革 669
 669
Is@@ 668
accurately 668
boats 668
ean 668
generating 668
lending 668
unremitting 668
ycl@@ 668
坚强 668
复杂@@ 668
派遣 668
特大 668
轰@@ 668
醛 668
Pa@@ 667
anda 667
foreigners 667
found@@ 667
pared 667
pragmatic 667
tful 667
ultimately 667
不良 667
充分认识 667
夸@@ 667
已获 667
曾庆红 667
矩 667
艰@@ 667
辉煌 667
非常重视 667
Taiwan 666
contracting 666
diagnos@@ 666
heed 666
pirated 666
sle@@ 666
tai@@ 666
不可分割 666
六十六 666
尼斯 666
有没有 666
栽@@ 666
检察机关 666
洲@@ 666
2.8 665
50% 665
Most 665
Vol@@ 665
coc@@ 665
consolidated 665
inviting 665
respecting 665
ze@@ 665
万名 665
信息产业 665
厕 665
发展势头 665
懂 665
握@@ 665
来讲 665
概括 665
电子化 665
终身 665
远远 665
闭幕 665
clinics 664
commence 664
generate 664
ministries 664
program@@ 664
standardized 664
strengths 664
win@@ 664
七千 664
倡议 664
函 664
千万 664
参赛 664
喻 664
开拓@@ 664
日中 664
昨晚 664
有待 664
沙湾 664
hero@@ 663
jie 663
raid 663
不好 663
征询 663
源头 663
犬 663
计量 663
辽@@ 663
骄@@ 663
invasion 662
ju 662
pools 662
typhoon 662
unanimously 662
便会 662
肪 662
落马洲 662
葵涌 662
78@@ 661
NP@@ 661
aug@@ 661
chp 661
observers 661
sect 661
剑 661
敬 661
殖民@@ 661
第三号 661
预留 661
emb 660
仓库 660
伸 660
十五岁 660
廿@@ 660
损坏 660
铅 660
鼠@@ 660
April 659
GC 659
hubei 659
pati@@ 659
储蓄 659
和平解决 659
婚 659
政治经济 659
综援 659
英国@@ 659
责任感 659
顿@@ 659
龄@@ 659
Cur@@ 658
Section 658
determin@@ 658
discount 658
observ@@ 658
precious 658
refusal 658
yue 658
一岁 658
下载版 658
工业生产 658
政策@@ 658
迅@@ 658
Business 657
adherence 657
ans@@ 657
countermeasures 657
downloaded 657
milit@@ 657
nam 657
oll 657
question@@ 657
walks 657
xiang@@ 657
党人 657
抵制 657
溃 657
看看 657
粤@@ 657
遍@@ 657
1.9 656
breeding 656
exert 656
hoping 656
merger 656
opposes 656
prompt 656
中央银行 656
产业结构 656
六岁 656
报告@@ 656
日方 656
账@@ 656
足球@@ 656
2.7 655
dispatched 655
pron@@ 655
tseung 655
well-@@ 655
党政@@ 655
关怀 655
政治权利 655
毕业生 655
童 655
Ben@@ 654
Such 654
associate 654
open@@ 654
pharmaceu@@ 654
reputation 654
spheres 654
出色 654
歧@@ 654
沫 654
男孩 654
秘 654
鲁 654
Bre@@ 653
Her@@ 653
adjusting 653
announce 653
cross@@ 653
euro 653
peacekeeping 653
telecommunication 653
份子 653
公安部 653
奏@@ 653
朱镕基 653
狠@@ 653
腾@@ 653
舟 653
艰苦 653
郊@@ 653
January 652
autumn 652
eful 652
enh@@ 652
equally 652
foot 652
nationals 652
referring 652
何种 652
国际公约 652
帝 652
慈善 652
文物 652
暴雨 652
朱总理 652
篇@@ 652
纱 652
Urban 651
alists 651
deposited 651
etc. 651
intensifying 651
pages 651
posi@@ 651
spokeswoman 651
suppliers 651
与会者 651
世纪之交 651
保持@@ 651
过于 651
醉 651
Tr@@ 650
attribu@@ 650
casting 650
kidn@@ 650
libraries 650
ogu@@ 650
ola 650
rat 650
reflecting 650
urity 650
wild 650
同情 650
拘留 650
本报记者 650
誉@@ 650
边界@@ 650
过渡@@ 650
降落 650
aded 649
commissions 649
cuban 649
frontline 649
hebei 649
mov@@ 649
qiu 649
saf@@ 649
sensitivity 649
shan@@ 649
tajikistan 649
terial 649
unlicensed 649
亚地区 649
企业界 649
多家 649
炳@@ 649
纹@@ 649
肃 649
芬兰 649
营养 649
重案 649
IU@@ 648
TC 648
and-@@ 648
deeper 648
elsewhere 648
flags 648
interactive 648
rif@@ 648
spectr@@ 648
transmitted 648
椎@@ 648
第二号 648
证券@@ 648
谢谢 648
bru@@ 647
pin 647
recall 647
0.1 646
112 646
embe@@ 646
lantau 646
loo@@ 646
rements 646
retained 646
tpb 646
京都 646
健康@@ 646
省市 646
窃 646
非典型 646
accoun@@ 645
demonstrates 645
exhibitions 645
extraordinary 645
lef@@ 645
organis@@ 645
pping 645
typical 645
下令 645
不断扩大 645
尤 645
殖@@ 645
脱离 645
DP@@ 644
War 644
compete 644
dit 644
environ@@ 644
intend 644
quick@@ 644
unauthorised 644
厂商 644
智能 644
泻 644
现阶段 644
贫穷 644
阐明 644
aerospace 643
amp@@ 643
ao@@ 643
assign@@ 643
delayed 643
intensity 643
principled 643
reas@@ 643
世界卫生组织 643
囊@@ 643
烟花 643
竖@@ 643
绑架 643
肾 643
观看 643
责任制 643
PB@@ 642
e.g. 642
educ@@ 642
ela 642
gazette 642
onally 642
人心 642
执政党 642
掌 642
胃 642
转运 642
characters 641
chronic 641
crackdown 641
excuse 641
expensive 641
henan 641
iranian 641
lah 641
lic 641
miscellaneous 641
optimistic 641
settling 641
stanley 641
不仅仅 641
产品@@ 641
今次 641
伞 641
凤凰卫视 641
幽@@ 641
梅 641
艰难 641
采纳 641
饮食 641
3.3 640
cambodian 640
conjunction 640
happiness 640
kejie 640
printed 640
willingness 640
witnesses 640
下面 640
产业@@ 640
廊 640
撑 640
支柱 640
深信 640
茎 640
辊 640
近来 640
遍 640
高校 640
Africa 639
apparatus 639
bigger 639
optical 639
palace 639
reflection 639
努@@ 639
学术@@ 639
宏观调控 639
据统计 639
犯罪活动 639
痕 639
羽@@ 639
诉@@ 639
drill 638
engagement 638
secured 638
互相@@ 638
域@@ 638
大屿山 638
寺 638
引用 638
所有人 638
拯救 638
此案 638
社会制度 638
空运 638
考核 638
萃@@ 638
Mechan@@ 637
affair 637
commanders 637
inte@@ 637
ission 637
jordan 637
metal 637
mori 637
polling 637
tense 637
textbooks 637
ventures 637
价格指数 637
党的@@ 637
匈牙利 637
干部队伍 637
时报 637
最高人民法院 637
璃@@ 637
电邮 637
HR@@ 636
No. 636
Proc@@ 636
asure 636
distinct 636
farms 636
predicted 636
reciproc@@ 636
resignation 636
到来 636
援 636
盈@@ 636
经济合作@@ 636
色情 636
莉 636
解放@@ 636
访问团 636
转口 636
革@@ 636
＋ 636
Fran@@ 635
bottom 635
disabilities 635
eted 635
frank 635
magazine 635
mented 635
poses 635
sees 635
spend 635
successes 635
wounded 635
乡镇 635
携@@ 635
良好@@ 635
锐 635
驻港 635
220 634
emo@@ 634
hereinafter 634
intent 634
rally 634
两国之间 634
欺骗 634
管理工作 634
话题 634
首脑会晤 634
鲜明 634
accum@@ 633
attendance 633
exam@@ 633
impression 633
lag@@ 633
myanmar 633
placement 633
responses 633
spreading 633
tent 633
人次 633
依法治国 633
实施@@ 633
寒 633
工程师 633
挪@@ 633
蓝 633
预算案 633
00,000 632
api 632
cleansing 632
imperi@@ 632
mad 632
redevelopment 632
renew@@ 632
responding 632
君@@ 632
报案 632
提请 632
火警 632
竭@@ 632
藉此 632
行长 632
账 632
2878@@ 631
circl@@ 631
civilians 631
exce@@ 631
noticed 631
petition 631
pointing 631
tail@@ 631
工场 631
战士 631
整体@@ 631
施政报告 631
物体 631
百分之五 631
第六@@ 631
198@@ 630
ENT 630
freely 630
legally 630
merits 630
xie 630
乐园 630
假如 630
动作 630
十三@@ 630
在讲话中 630
搅@@ 630
王永平 630
生产能力 630
疫情 630
税率 630
资深 630
邪@@ 630
TIONS 629
hou@@ 629
intense 629
listened 629
假日 629
宙 629
无线 629
注册处 629
浅 629
盾 629
编队 629
葬@@ 629
3.6 628
authors 628
competitions 628
emphatically 628
nathan 628
operator 628
pre-@@ 628
动荡 628
外交关系 628
实际行动 628
抓住机遇 628
毅 628
炭@@ 628
王国 628
电力@@ 628
腐败现象 628
行线 628
谅解 628
迈出 628
透明 628
1960 627
Def@@ 627
buying 627
hsi@@ 627
treaties 627
warrant 627
丸 627
劫@@ 627
劳工@@ 627
池@@ 627
第二阶段 627
Middle 626
aband@@ 626
brigade 626
depar@@ 626
keep@@ 626
siz@@ 626
tment 626
warm@@ 626
五万元 626
党的领导 626
扑@@ 626
渔农 626
烃 626
焰 626
爱国主义 626
百分之五点 626
2878 625
80@@ 625
afraid 625
cann@@ 625
check@@ 625
grou@@ 625
heavily 625
helicopter 625
pillar 625
prefecture 625
quarantine 625
round@@ 625
shenyang 625
sphere 625
tackling 625
timing 625
van 625
zi@@ 625
十九 625
时代@@ 625
毫无 625
甲基 625
通讯社 625
Fer@@ 624
academ@@ 624
e. 624
icians 624
indication 624
notices 624
planting 624
realities 624
undergoing 624
债务人 624
凹@@ 624
学历 624
德里 624
自由化 624
Er@@ 623
afterwards 623
edge 623
flowers 623
tible 623
unswervingly 623
violations 623
一并 623
企 623
尼泊尔 623
策@@ 623
顽@@ 623
4,000 622
GO@@ 622
civilizations 622
decei@@ 622
fairness 622
famili@@ 622
fireworks 622
heretical 622
innov@@ 622
pollutants 622
严厉打击 622
在线 622
开发区 622
新闻组 622
曝@@ 622
畜@@ 622
罐 622
mc@@ 621
notic@@ 621
stopping 621
transform 621
trials 621
yeung 621
军事行动 621
圆满成功 621
处以 621
李肇星 621
比较@@ 621
物质@@ 621
笼 621
调查结果 621
面貌 621
asser@@ 620
automobile 620
equi@@ 620
football 620
laundering 620
locate 620
maj@@ 620
quotas 620
scri@@ 620
出口货 620
富裕 620
怪@@ 620
捷@@ 620
既有 620
浴@@ 620
消灭 620
自动@@ 620
驱逐舰 620
Conference 619
Tre@@ 619
bla@@ 619
covenant 619
上帝 619
到位 619
扎实 619
毗@@ 619
物料 619
继续@@ 619
饼 619
Americ@@ 618
Arch@@ 618
describes 618
dness 618
hennessy 618
loading 618
ouse 618
repeat 618
tam 618
不断加强 618
党和人民 618
在职 618
妥@@ 618
新鲜 618
枝@@ 618
根源 618
涌 618
肢 618
170 617
convenience 617
supervisors 617
tribution 617
撞毁 617
方针政策 617
纽约@@ 617
虽@@ 617
西区 617
48@@ 616
66@@ 616
afford 616
conforms 616
consulted 616
sugg@@ 616
① 616
俗@@ 616
商场 616
商谈 616
日益@@ 616
洽@@ 616
药剂 616
concessions 615
differen@@ 615
frontier 615
hol 615
locally 615
prevailing 615
qinghong 615
three-@@ 615
修建 615
合共 615
坟场 615
形式主义 615
流行@@ 615
珠江三角洲 615
负责同志 615
enjoys 614
expec@@ 614
islamic 614
listening 614
meteorological 614
pedestrians 614
recur@@ 614
stringent 614
vent 614
write 614
增加@@ 614
阅@@ 614
Tu@@ 613
codes 613
dg@@ 613
ling@@ 613
pref@@ 613
公共交通 613
十九@@ 613
台湾海峡 613
圆满 613
枯@@ 613
裕 613
assembl@@ 612
highways 612
motive 612
synthesis 612
urgently 612
一如既往 612
促进@@ 612
冻结 612
呆 612
唤 612
家中 612
容忍 612
弥补 612
悟 612
战胜 612
猜@@ 612
百分之七十 612
简称 612
纺织 612
返 612
选区 612
镀@@ 612
Centre 611
aiming 611
inging 611
prince 611
spr@@ 611
事关 611
五项原则 611
会于 611
侨 611
全新 611
可于 611
弹药 611
揭 611
虚拟 611
西省 611
音乐@@ 611
15th 610
Red 610
detect 610
dial@@ 610
discharged 610
drainage 610
four@@ 610
gin@@ 610
orbit 610
patri@@ 610
台风 610
幅@@ 610
弧@@ 610
律师@@ 610
燃油 610
紧迫 610
谭@@ 610
8,@@ 609
Project 609
auditing 609
cies 609
dynam@@ 609
eness 609
everybody 609
hub 609
igu@@ 609
reserved 609
tc 609
undoubtedly 609
wholeheartedly 609
九岁 609
改组 609
锻@@ 609
鬼 609
binding 608
checking 608
emor@@ 608
programming 608
prohib@@ 608
succeeded 608
warnings 608
九龙@@ 608
八岁 608
回来 608
国家机关 608
妥协 608
摆在 608
月刊 608
问卷 608
香港市民 608
Engineering 607
med@@ 607
organiz@@ 607
pc 607
reclamation 607
sharply 607
storms 607
yellow 607
兆 607
名额 607
过往 607
boundaries 606
designing 606
fuzhou 606
persu@@ 606
pilots 606
reservoir 606
tv@@ 606
δ 606
工人阶级 606
戒 606
活动@@ 606
电器 606
短缺 606
闸 606
Police 605
alty 605
assess@@ 605
brunei 605
demonstrations 605
imm@@ 605
manifested 605
offset 605
sentences 605
six@@ 605
二号 605
份额 605
单程 605
发展商 605
香烟 605
29.@@ 604
FC 604
Sm@@ 604
comple@@ 604
laos 604
pneumonia 604
regis@@ 604
silver 604
全球战略 604
堂@@ 604
括 604
柄 604
注释 604
竞赛 604
第一阶段 604
腾 604
轮候 604
︰ 604
6.5 603
Culture 603
Explo@@ 603
Lar@@ 603
ami 603
chengdu 603
desig@@ 603
enting 603
textiles 603
一同 603
一艘 603
也@@ 603
今早 603
教材 603
无权 603
此后 603
甲类 603
French 602
San@@ 602
Sl@@ 602
alised 602
dissemination 602
gy 602
isolation 602
leap 602
parked 602
pedestrian 602
pit@@ 602
regular@@ 602
resort 602
储税券 602
党风廉政 602
军备 602
力争 602
十二号 602
情势 602
民用 602
PR 601
alled 601
aspiration 601
dge 601
encourages 601
implications 601
lined 601
offender 601
ordering 601
secretaries 601
tiv@@ 601
劫 601
哀@@ 601
大胆 601
悉@@ 601
挺 601
捐赠 601
糕 601
鼓 601
allowances 600
reverse 600
vigilance 600
wished 600
孕@@ 600
广东@@ 600
引述 600
徽 600
法团 600
特殊@@ 600
神圣 600
违法犯罪 600
Up@@ 599
budgets 599
commenting 599
isol@@ 599
renmin 599
哈萨克斯坦 599
廉洁 599
担当 599
裁军 599
贤 599
3.8 598
Comm@@ 598
demanding 598
explosive 598
lateral 598
rivers 598
六千 598
几 598
呼声 598
席位 598
打开 598
扩张 598
相适应 598
范 598
跨越 598
邮戳 598
Not 597
daughter 597
evalu@@ 597
fake 597
gaining 597
movie 597
pledge 597
tories 597
兽@@ 597
等国 597
综合治理 597
罗湖 597
David 596
appliances 596
geograph@@ 596
hao 596
managerial 596
中东地区 596
卓越 596
多谢 596
宴@@ 596
幼儿 596
强有力 596
忧虑 596
惟@@ 596
最高@@ 596
桑 596
锚@@ 596
限于 596
雌@@ 596
believ@@ 595
condemned 595
czech 595
promising 595
representations 595
setup 595
testi@@ 595
乌拉圭 595
仓 595
出动 595
巨大成就 595
承运人 595
救助 595
斯特@@ 595
日晚 595
电信@@ 595
评定 595
驳 595
Hol@@ 594
Out@@ 594
armies 594
commentary 594
conform 594
defeat 594
lia@@ 594
powered 594
主导@@ 594
充足 594
委书记 594
撒 594
烦 594
能源@@ 594
邮品 594
防务 594
die 593
endeavor 593
infectious 593
margin 593
mate 593
now@@ 593
walk 593
一座 593
二十二 593
余下 593
借助 593
唐 593
大会堂 593
强调指出 593
瓜@@ 593
闲 593
Line 592
atization 592
ification 592
qiang 592
readiness 592
sty 592
vers@@ 592
viewpoint 592
原油 592
忍 592
督导 592
表示满意 592
麻烦 592
黏@@ 592
Contr@@ 591
complementary 591
consciously 591
explored 591
immolation 591
mobilize 591
prote@@ 591
reviews 591
specialists 591
台湾地区 591
垒 591
宏观经济 591
投票@@ 591
新党 591
栓 591
耐 591
联合行动 591
雕@@ 591
顺序 591
领会 591
骂 591
availability 590
backing 590
chment 590
clause 590
emphasize 590
swimmers 590
theast 590
丘@@ 590
全心全意 590
博览 590
同意书 590
欠 590
港澳@@ 590
牢固 590
盈余 590
5000 589
Tax 589
administered 589
bureaucr@@ 589
currencies 589
emergence 589
imf 589
plastic 589
restrict 589
媒@@ 589
衷心@@ 589
走廊 589
鹰 589
1976 588
4.2 588
Proper@@ 588
doubl@@ 588
dream 588
forget 588
hosting 588
lesson 588
manife@@ 588
transitional 588
transnational 588
五年计划 588
签名 588
肆@@ 588
证券公司 588
轩尼诗 588
adult 587
amongst 587
complexity 587
contradic@@ 587
convictions 587
download 587
eating 587
smashed 587
tioner 587
万人次 587
实战 587
小布什 587
悦 587
新闻处 587
杰出 587
润 587
种族 587
缔@@ 587
街头 587
衷 587
贯穿 587
June 586
Ref@@ 586
blind 586
compatible 586
falun 586
gence 586
nee 586
拉美 586
招 586
维和 586
罗干 586
肉类 586
衡@@ 586
郁 586
阁 586
commun@@ 585
considerably 585
diversified 585
explosives 585
fuels 585
heroin 585
indicators 585
leum 585
nan 585
reorganization 585
suring 585
伪 585
差饷 585
恪守 585
DL@@ 584
Sin@@ 584
aj@@ 584
betting 584
colour 584
incorpor@@ 584
tection 584
yiu 584
亩 584
信件 584
四次会议 584
市政府 584
提高@@ 584
聚集 584
震惊 584
高原 584
450 583
Peri@@ 583
alleviate 583
congressmen 583
earliest 583
forge 583
premise 583
yugoslav 583
慧 583
联合国安理会 583
葡萄牙 583
首位 583
驳@@ 583
黎巴嫩 583
0.2 582
CO2 582
Moun@@ 582
barrier 582
etary 582
flew 582
free@@ 582
quanyou 582
refugees 582
relaxed 582
tian@@ 582
tier 582
unnecessary 582
weekend 582
will@@ 582
一边 582
乐团 582
减至 582
塑 582
外籍 582
寄 582
报复 582
政治家 582
毛泽东思想 582
海基会 582
百分之八十 582
纵 582
Ri@@ 581
conclude 581
duce 581
mountains 581
negl@@ 581
readjust 581
个体 581
侵害 581
保健 581
充当 581
南京@@ 581
平壤 581
得悉 581
挖 581
斯坦 581
碑 581
离港 581
聘请 581
起草 581
违规 581
charging 580
crude 580
hos@@ 580
precau@@ 580
严格遵守 580
先进@@ 580
大中型 580
斯坦@@ 580
相互作用 580
通讯@@ 580
config@@ 579
formalism 579
oc 579
tries 579
堪@@ 579
尊@@ 579
成功@@ 579
执业 579
溶 579
辐@@ 579
30,000 578
deliberately 578
dismissed 578
memorial 578
rear 578
偷渡 578
姜@@ 578
实效 578
开幕式 578
急性 578
百分之六点 578
祸@@ 578
缉@@ 578
贝尔@@ 578
辉@@ 578
Cop@@ 577
Training 577
arc@@ 577
occurs 577
pris@@ 577
sci@@ 577
shou@@ 577
superior 577
vic 577
为重要 577
佣工 577
夺 577
抵港 577
海底隧道 577
牟@@ 577
粮@@ 577
胆 577
高峰 577
500,000 576
Den@@ 576
OS 576
enforcing 576
fem@@ 576
nia 576
politici@@ 576
recreational 576
三十五 576
严肃 576
摘@@ 576
本周 576
本土 576
海事处 576
男童 576
畜 576
经验@@ 576
诸 576
马上 576
Pu@@ 575
ball 575
cep@@ 575
enced 575
every@@ 575
fellow 575
fewer 575
iver@@ 575
mak@@ 575
og 575
proactive 575
responded 575
simpl@@ 575
tang@@ 575
telecom 575
上任 575
二十六 575
千名 575
外币 575
屏 575
山东 575
愿@@ 575
检疫 575
appropri@@ 574
assault 574
collabor@@ 574
farmland 574
focuses 574
ject 574
pioneering 574
千五百 574
壮 574
拖 574
煽动 574
犯罪分子 574
细则 574
美中关系 574
阿拉@@ 574
FD@@ 573
Mu@@ 573
an-@@ 573
aus@@ 573
choi 573
cia 573
empty 573
feng@@ 573
fron@@ 573
gin 573
lama 573
{ 573
体会 573
充实 573
十五分 573
棒@@ 573
猪肉 573
百分之三 573
盆 573
茂@@ 573
闲@@ 573
Civil 572
enforced 572
feb 572
films 572
orial 572
signals 572
verify 572
啡 572
圈@@ 572
房地产 572
滋生 572
穷 572
预防措施 572
10-@@ 571
Des@@ 571
Dra@@ 571
SR@@ 571
exclusively 571
prosecu@@ 571
sett@@ 571
st-@@ 571
station@@ 571
公吨 571
尿 571
崇高 571
并不@@ 571
徽@@ 571
裹 571
这篇 571
attacking 570
consulting 570
doctor 570
guaranteeing 570
occur@@ 570
servicemen 570
shir@@ 570
幸福 570
机电 570
汉城 570
金融中心 570
Cap@@ 569
Medical 569
chickens 569
helicopters 569
prohibition 569
uration 569
世人 569
些@@ 569
原本 569
孤立 569
开采 569
愉快 569
握 569
揭露 569
数年 569
汪@@ 569
泌 569
注入 569
监察@@ 569
紧密结合 569
警觉 569
赠 569
预警 569
＝ 569
coli 568
destro@@ 568
iles 568
spite 568
unfair 568
三分之一 568
不便 568
六名 568
半数 568
垫@@ 568
江苏 568
法律法规 568
流感 568
盗 568
管理制度 568
键@@ 568
香港金融管理局 568
DD@@ 567
complement 567
dur@@ 567
green@@ 567
loving 567
procur@@ 567
prospect 567
reaffirmed 567
é 567
α@@ 567
交由 567
医药 567
台阶 567
岗@@ 567
旱 567
维奇 567
贩卖 567
超级@@ 567
通货膨胀 567
0.3 566
Bel@@ 566
VI 566
civilized 566
clauses 566
consequently 566
cultivating 566
divorce 566
endeav@@ 566
methodology 566
slu@@ 566
代表性 566
凝 566
励@@ 566
十五届 566
呈现 566
品牌 566
审慎 566
布局 566
杭@@ 566
真理 566
福建省 566
粗 566
般@@ 566
Bl@@ 565
Ed@@ 565
` 565
aka 565
automatically 565
avoided 565
backbone 565
civil@@ 565
conspiracy 565
enjoying 565
ern 565
exporting 565
huang@@ 565
lists 565
proud 565
purchases 565
resettlement 565
shooting 565
torate 565
utilize 565
utilized 565
余额 565
党校 565
叠 565
弥敦道 565
新任 565
正当@@ 565
海港 565
轻型 565
3.4 564
EA 564
confidential 564
dare 564
dings 564
flooding 564
freight 564
greece 564
personages 564
pin@@ 564
risen 564
safegu@@ 564
urbanization 564
vulnerable 564
两间 564
充分肯定 564
凯 564
挑衅 564
推 564
朵 564
濒@@ 564
科学院 564
经济学家 564
赌博 564
颇 564
80% 563
esses 563
inval@@ 563
junior 563
rich@@ 563
sian 563
turkish 563
仓@@ 563
会场 563
决策@@ 563
栋 563
泳客 563
爱国 563
等候 563
调查组 563
进修 563
香港海关 563
4.1 562
Official 562
arouse 562
continent 562
dres@@ 562
eli@@ 562
faith@@ 562
franc@@ 562
tra 562
travel@@ 562
turns 562
youngsters 562
② 562
世界银行 562
刊载 562
四十五分 562
国际货币基金组织 562
得知 562
材@@ 562
迈向 562
邦@@ 562
镍 562
Agreement 561
Num@@ 561
erroneous 561
fruits 561
gun 561
livestock 561
lou@@ 561
reject 561
tles 561
深入开展 561
生育 561
股份 561
订购 561
设计@@ 561
贫困@@ 561
隶@@ 561
黑钱 561
DE 560
albright 560
appointing 560
argentina 560
contest 560
contingency 560
dian 560
excluding 560
ignored 560
ility 560
promotional 560
repa@@ 560
unlikely 560
下台 560
九届 560
傲 560
几十年 560
吻@@ 560
垫 560
外发 560
将要 560
悉 560
毒性 560
灾区 560
迫切@@ 560
酵@@ 560
Med@@ 559
contam@@ 559
convinced 559
educated 559
evident 559
hardly 559
premi@@ 559
recei@@ 559
trainees 559
丹麦 559
决议案 559
奈@@ 559
审计@@ 559
宴会 559
战斗@@ 559
战法 559
痴@@ 559
相等于 559
York 558
aggres@@ 558
harmonious 558
priv@@ 558
pyongyang 558
recalled 558
女孩 558
姿@@ 558
常任 558
椅 558
睦@@ 558
社区@@ 558
群岛 558
艰苦奋斗 558
颇@@ 558
Other 557
ceas@@ 557
colom@@ 557
depos@@ 557
exported 557
guizhou 557
kcrc 557
pick 557
plot 557
supplement 557
wered 557
中华民国 557
仰@@ 557
份@@ 557
反恐 557
各个方面 557
增设 557
宗教信仰 557
知情 557
队员 557
Enterprise 556
cros@@ 556
rad@@ 556
rently 556
善于 556
对应 556
救灾 556
格兰 556
程序@@ 556
详细@@ 556
G-@@ 555
Industrial 555
arrive 555
downloading 555
hn@@ 555
intervals 555
mony 555
privileges 555
tained 555
vity 555
吨@@ 555
意思 555
正确@@ 555
深厚 555
澳门@@ 555
节约 555
防护 555
飞船 555
Cases 554
accountability 554
polar 554
三十八 554
入境者 554
危及 554
反复 554
夥@@ 554
失望 554
文娱 554
日元 554
永久性 554
独立自主 554
组别 554
韧@@ 554
envoy 553
nomin@@ 553
天安门广场 553
控股 553
搏 553
每周 553
金字 553
阔@@ 553
零件 553
Practice 552
beliefs 552
cater 552
cctv 552
combine 552
pheric 552
tens 552
threatening 552
周末 552
坦克 552
外汇储备 552
探访 552
旁容 552
无需 552
更具 552
来华访问 552
焊 552
身份@@ 552
遂 552
4.6 551
FP 551
canton 551
consi@@ 551
divide 551
farm@@ 551
journ@@ 551
opposite 551
porters 551
prd 551
straigh@@ 551
web@@ 551
亨@@ 551
圆满@@ 551
悠久 551
淘汰 551
诞 551
边防 551
障@@ 551
anticipated 550
deceased 550
fortune 550
indicator 550
readju@@ 550
remedi@@ 550
separatism 550
solidarity 550
traders 550
交通部 550
坚实 550
巴勒斯坦@@ 550
承包@@ 550
来华 550
淑@@ 550
管理系统 550
选举@@ 550
魏@@ 550
Life 549
circle 549
inspectors 549
locked 549
okinawa 549
ort@@ 549
patriotism 549
zheng@@ 549
一幅 549
上网 549
交通工具 549
吹 549
干线 549
役@@ 549
文中 549
时应 549
期货 549
粤港 549
蠕@@ 549
读者 549
连战 549
Auth@@ 548
Wor@@ 548
celebration 548
suen 548
touch 548
专业人士 548
扩充 548
着眼于 548
祸 548
葡@@ 548
醒@@ 548
驾驶@@ 548
Ve@@ 547
civic 547
clock 547
expounded 547
hoi 547
robust 547
vill@@ 547
专家@@ 547
商标 547
姐@@ 547
欣赏 547
目睹 547
翌日 547
聆讯 547
苷 547
页@@ 547
黑社会 547
counting 546
flag@@ 546
oi@@ 546
satisfactorily 546
theft 546
valu@@ 546
ying@@ 546
卧@@ 546
品质 546
城镇@@ 546
忆@@ 546
懂@@ 546
战役 546
所有权 546
挡 546
淫@@ 546
认清 546
谨@@ 546
轧 546
0.4 545
25.@@ 545
December 545
Tw@@ 545
nic@@ 545
qualities 545
screen 545
tle 545
三级 545
两份 545
人才@@ 545
俩 545
哥伦比亚 545
帽@@ 545
拦@@ 545
日本首相 545
着力 545
航线 545
落案 545
Upon 544
Wast@@ 544
adv@@ 544
cai 544
gn 544
hung@@ 544
pak 544
references 544
successive 544
三号 544
大概 544
大肠杆菌 544
孢@@ 544
岁@@ 544
技术创新 544
文化交流 544
日趋 544
转交 544
雀@@ 544
Non@@ 543
differenti@@ 543
inher@@ 543
leaflets 543
qin@@ 543
rounds 543
北行 543
医护人员 543
立案 543
领先 543
GN@@ 542
attributed 542
bran@@ 542
dark 542
elimination 542
eping 542
ethical 542
indu@@ 542
religions 542
rers 542
whereby 542
中外 542
图则 542
扭转 542
敏感@@ 542
朝着 542
森喜 542
生机 542
Case 541
aches 541
benef@@ 541
consolidation 541
duly 541
happen 541
lear@@ 541
revital@@ 541
中医 541
人员@@ 541
口号 541
旗帜 541
树木 541
涡@@ 541
独立@@ 541
理论@@ 541
贿赂 541
GS 540
delivering 540
fun 540
hke@@ 540
hurt 540
inward 540
mel@@ 540
noti@@ 540
regim@@ 540
supervise 540
usion 540
vil@@ 540
一片 540
假设 540
兹@@ 540
国议会 540
壤 540
尼亚@@ 540
忘记 540
模糊 540
汤 540
海协 540
真相 540
禽 540
空气@@ 540
Olym@@ 539
bloc@@ 539
carriers 539
denghui 539
eously 539
minimise 539
promises 539
stores 539
} 539
不敢 539
出路 539
办公 539
参议员 539
叶利钦 539
器官 539
寓@@ 539
广大干部 539
每本 539
爸@@ 539
离岛 539
署会 539
访日 539
证券市场 539
郊 539
顽固 539
adds 538
altitude 538
ascertain 538
constructing 538
employing 538
firing 538
grav@@ 538
hs 538
instituted 538
manufactures 538
ni 538
privacy 538
raided 538
renovation 538
specialist 538
中旬 538
司令员 538
拳@@ 538
捞 538
无意 538
砖 538
租户 538
运动会 538
邮递 538
band@@ 537
colonial 537
cust@@ 537
fry 537
innocent 537
lasted 537
lian 537
normalization 537
renowned 537
rescu@@ 537
噪音 537
机密 537
欧洲联盟 537
毒药 537
缝@@ 537
题为 537
 537
Once 536
dengue 536
estin@@ 536
histor@@ 536
rainfall 536
winners 536
一国 536
信用卡 536
弯 536
忙@@ 536
所在@@ 536
捷克 536
法制建设 536
疼@@ 536
种族@@ 536
紧急@@ 536
维亚 536
衷心 536
足球 536
高举 536
3000 535
70@@ 535
aire 535
care@@ 535
cohes@@ 535
diplom@@ 535
laden 535
priorities 535
worries 535
兑@@ 535
四项 535
扩大@@ 535
氾 535
淡 535
爸 535
这类 535
2.9 534
Women 534
administrations 534
ici@@ 534
nominal 534
不容 534
与会@@ 534
制成品 534
审判@@ 534
愉@@ 534
慧@@ 534
截 534
挪威 534
畸@@ 534
经常性 534
虐待 534
裁处 534
该条 534
邀@@ 534
院士 534
delegate 533
kyoto 533
sc 533
subsidy 533
worry 533
受益 533
哪里 533
大雨 533
暖@@ 533
曼谷 533
特许 533
祥@@ 533
SL@@ 532
detected 532
dum@@ 532
grateful 532
h5n1 532
macro 532
militar@@ 532
rong@@ 532
stolen 532
thoughts 532
trips 532
yeltsin 532
专营 532
代理@@ 532
充分体现 532
却是 532
宅@@ 532
弧 532
批发 532
推迟 532
支票 532
滨@@ 532
矢@@ 532
羟@@ 532
Systems 531
advocating 531
answers 531
assuming 531
cher@@ 531
emer@@ 531
kyrgyzstan 531
meter 531
sel 531
urch 531
urging 531
优良传统 531
帕 531
柬 531
渔船 531
NH@@ 530
Organization 530
enthusiastic 530
florida 530
gal@@ 530
iding 530
insisted 530
recognised 530
signature 530
staying 530
一轮 530
不必要 530
中巴 530
偷 530
创造条件 530
十七@@ 530
巴拉克 530
据说 530
枪支 530
精简 530
胖 530
膏 530
表示@@ 530
邮局 530
HU@@ 529
abandon 529
arafat 529
cuts 529
erg@@ 529
landed 529
moderate 529
recreation 529
undergo 529
保卫 529
冬 529
减免 529
惜 529
消防处 529
生产者 529
相互支持 529
短期内 529
转录 529
Non-@@ 528
avoiding 528
bean 528
constrain@@ 528
depri@@ 528
diverse 528
exes 528
markedly 528
neighborliness 528
popul@@ 528
suspicious 528
人生 528
兵力 528
切实@@ 528
台湾@@ 528
吸烟 528
善用 528
委内瑞拉 528
工程项目 528
愤@@ 528
肇@@ 528
芯 528
240 527
3025 527
5.6 527
Bal@@ 527
assessing 527
ection 527
formity 527
rectify 527
一倍 527
兑 527
冻@@ 527
卵 527
后勤@@ 527
啤@@ 527
扁 527
股东 527
March 526
continental 526
deepened 526
differential 526
magistracy 526
下岗职工 526
专利@@ 526
南海 526
天水 526
就任 526
建立健全 526
总统府 526
横 526
焕@@ 526
研究员 526
立委 526
飘@@ 526
饰@@ 526
高水平 526
bombs 525
catering 525
chinas 525
demonstr@@ 525
dging 525
diamond 525
impres@@ 525
kan 525
persistent 525
recomm@@ 525
ruption 525
女儿 525
小册子 525
搜救 525
梭 525
红旗 525
美化 525
陕@@ 525
aver@@ 524
dangers 524
expresses 524
ocation 524
painting 524
qinghai 524
slip 524
soul 524
zu@@ 524
专项 524
公共卫生 524
印制 524
吐 524
唑 524
尽速 524
插 524
杀人 524
歪曲 524
氟@@ 524
汀 524
米尔 524
纾 524
节日 524
评核 524
赛马 524
高官 524
1977 523
div@@ 523
forthcoming 523
gir@@ 523
imposing 523
knew 523
magnificent 523
notwithstanding 523
quantitative 523
slope 523
strang@@ 523
厕@@ 523
复盖 523
多样化 523
姿态 523
年均 523
核心@@ 523
游说 523
狮@@ 523
界限 523
货币政策 523
Pi@@ 522
Provisions 522
Tun@@ 522
finan@@ 522
hua@@ 522
long-term 522
zhaoxing 522
一大批 522
九九年 522
二月份 522
傅@@ 522
冲绳 522
小三通 522
总站 522
政委 522
来临 522
理学 522
租用 522
答辩 522
芬@@ 522
RIC@@ 521
accep@@ 521
analyze 521
assisted 521
boosting 521
colum@@ 521
ideolog@@ 521
lows 521
ly@@ 521
olic 521
palestinians 521
poli@@ 521
云南 521
副局长 521
奉 521
寿 521
工作坊 521
报章 521
故事 521
深切 521
葵@@ 521
October 520
dozen 520
mobility 520
organise 520
ourse 520
specul@@ 520
struction 520
一组 520
严肃@@ 520
勃 520
周一岳 520
咱@@ 520
实际@@ 520
强制执行 520
有售 520
服装 520
甚 520
诉人 520
铭@@ 520
Bur@@ 519
Energy 519
Exam@@ 519
blow 519
chiang 519
firearms 519
grasping 519
iry 519
particulars 519
shelter 519
thu@@ 519
what@@ 519
九九九 519
地理@@ 519
奖学金 519
宏 519
少于 519
恐怖分子 519
搜寻 519
收看 519
津 519
航母 519
芝@@ 519
amending 518
cleaning 518
combining 518
consist@@ 518
rebel@@ 518
repl@@ 518
sewage 518
styles 518
tropical 518
visibility 518
youths 518
二十九 518
令人满意 518
低座 518
实地 518
帽 518
摊位 518
翠@@ 518
赤柱 518
Criminal 517
Foundation 517
La 517
Please 517
Report 517
advocates 517
entries 517
logistical 517
no. 517
reliance 517
scienti@@ 517
viewing 517
专线 517
平稳 517
游泳池 517
率为 517
百分之二 517
督 517
违纪 517
阿拉法特 517
ASE@@ 516
Anti-@@ 516
ODS 516
dinner 516
expan@@ 516
inauguration 516
lebanon 516
ody 516
shu 516
spokesperson 516
threaten 516
vacancy 516
七点 516
从严 516
俄国 516
春节 516
检察官 516
禁区 516
科院 516
绵@@ 516
草拟 516
载列 516
银行业 516
9,@@ 515
artistic 515
fall@@ 515
jilin 515
mobilized 515
porno@@ 515
proceeded 515
reat@@ 515
secrets 515
strained 515
therap@@ 515
作法 515
判刑 515
妻 515
恐怕 515
抢劫 515
海运 515
淀 515
班子 515
虚 515
采取有效 515
DF 514
circu@@ 514
hegemony 514
runs 514
submissions 514
tho@@ 514
上载 514
不论是 514
不适 514
主管@@ 514
前后 514
加重 514
管辖权 514
缆@@ 514
谓 514
NCE 513
appreciates 513
assured 513
exclu@@ 513
platforms 513
presidency 513
不容@@ 513
专访 513
包装 513
壳@@ 513
常务委员会 513
弊@@ 513
影视 513
所在地 513
挑选 513
登陆 513
省政府 513
管治 513
鸭 513
London 512
contribu@@ 512
cracked 512
hair 512
interviews 512
ston 512
sweden 512
tie 512
workshops 512
歉 512
申索 512
究@@ 512
联系@@ 512
进出 512
Int@@ 511
Tel@@ 511
boxes 511
conspicuous 511
coordinating 511
express@@ 511
forth@@ 511
importing 511
incentive 511
or-@@ 511
voted 511
一九九三年 511
五十年 511
同盟 511
对立 511
就职 511
故此 511
数百@@ 511
最早 511
水准 511
百分之六十 511
矿物 511
空前 511
第三代 511
莫 511
认真贯彻 511
迈进 511
Earth 510
INF@@ 510
Investment 510
alisation 510
collu@@ 510
concession 510
exer@@ 510
humanity 510
igh 510
strikes 510
充 510
全市 510
同日 510
幼稚园 510
正确处理 510
滴 510
爱滋病 510
玩具 510
臭@@ 510
预报 510
5.2 509
adhered 509
announcers 509
armored 509
assignment 509
caught 509
challeng@@ 509
dominant 509
obstacle 509
shuibian 509
snow 509
warr@@ 509
上海市 509
互助 509
交涉 509
卡拉 509
原则上 509
商人 509
atypical 508
fig@@ 508
keen 508
mac@@ 508
postmark 508
三方 508
两院 508
司法机关 508
展现 508
巧 508
畅 508
百分之七点 508
相连 508
简要 508
虎@@ 508
铅@@ 508
aiting 507
enrol@@ 507
importantly 507
northwest 507
nr 507
tist 507
个人资料 507
伊斯兰 507
分裂主义 507
加拉@@ 507
厘定 507
概 507
涨@@ 507
深刻@@ 507
热点 507
西北 507
训@@ 507
Pacific 506
alle@@ 506
apr 506
auction 506
formul@@ 506
native 506
三军 506
二十七 506
八点 506
否@@ 506
吸引力 506
登革热 506
路段 506
躺 506
长远@@ 506
ads 505
appreciated 505
comparatively 505
concert 505
inclusion 505
poisons 505
situated 505
universally 505
vivi@@ 505
σ 505
人家 505
共产党员 505
共同愿望 505
御@@ 505
社论 505
罗马尼亚 505
邻近 505
Ce@@ 504
Ric@@ 504
deter@@ 504
laun@@ 504
oling 504
turmoil 504
wantonly 504
上次 504
以致 504
促成 504
公立医院 504
十八@@ 504
叠@@ 504
多边贸易 504
巴士站 504
巴尔@@ 504
强权政治 504
我方 504
撕@@ 504
改革@@ 504
政策措施 504
比如说 504
泪 504
用心 504
蜂@@ 504
Pal@@ 503
cancelled 503
checked 503
christian 503
fat 503
sdds 503
seizing 503
taxis 503
west@@ 503
二十三 503
入学 503
刷@@ 503
堕@@ 503
塌 503
带头 503
赶 503
这套 503
项怀诚 503
aliz@@ 502
creditors 502
deduc@@ 502
dele@@ 502
ensured 502
jury 502
原始 502
氯 502
渗透 502
行为@@ 502
这名 502
钮 502
AM 501
Nov@@ 501
assemb@@ 501
commen@@ 501
enjo@@ 501
exac@@ 501
forging 501
gat@@ 501
magistrates 501
producer 501
sfc 501
sorts 501
zen 501
居留 501
徒@@ 501
所长 501
旦 501
显得 501
累 501
罕@@ 501
authoritative 500
blo@@ 500
consequ@@ 500
diversi@@ 500
luncheon 500
oming 500
oo 500
pork 500
respon@@ 500
secondly 500
上下 500
东南 500
出口额 500
匙 500
慰问 500
斌 500
新兴 500
最低@@ 500
研究院 500
非洲@@ 500
100@@ 499
88@@ 499
Buil@@ 499
GM 499
Ori@@ 499
Right 499
broader 499
comparable 499
competi@@ 499
enly 499
highlight 499
identical 499
lut@@ 499
portal 499
stops 499
wartime 499
一面 499
千方百计 499
反馈 499
回归祖国 499
实践证明 499
棉花 499
正好 499
珍惜 499
莎@@ 499
谈及 499
4.3 498
Planning 498
arrears 498
bags 498
borders 498
broaden 498
dence 498
disclose 498
ffic 498
joh@@ 498
lied 498
privately 498
respec@@ 498
shim@@ 498
terrorists 498
ugc 498
vin@@ 498
合力 498
国民议会 498
地为 498
定居 498
朱閒 498
祈@@ 498
营业@@ 498
诞生 498
IOS 497
accountable 497
aggrav@@ 497
buddhist 497
econ@@ 497
embl@@ 497
gall@@ 497
losing 497
不懈努力 497
中亚 497
中全会 497
亚太区 497
否决 497
富强 497
得不到 497
慈@@ 497
战备 497
扮@@ 497
拟定 497
adequ@@ 496
audio 496
barak 496
castle 496
cle 496
grati@@ 496
merit 496
midnight 496
reiter@@ 496
tici@@ 496
九月份 496
况@@ 496
拿出 496
数十@@ 496
李国@@ 496
案情 496
电话号码 496
而港 496
+@@ 495
3.7 495
Observ@@ 495
Rep@@ 495
Sup@@ 495
chancellor 495
dutiable 495
embodied 495
enemies 495
haste 495
licensed 495
pair 495
事态 495
克林顿政府 495
十五大 495
南亚 495
及早 495
发票 495
战时 495
报酬 495
瑟 495
碟 495
第四号 495
4.8 494
bangkok 494
bankruptcy 494
dges 494
discrimin@@ 494
wake 494
容量 494
执法人员 494
挤 494
科威特 494
迭@@ 494
顺差 494
200,000 493
Center 493
France 493
Tan@@ 493
analyzed 493
compris@@ 493
daw@@ 493
eigh@@ 493
endang@@ 493
ington 493
osy@@ 493
reward 493
stricken 493
unhealthy 493
户口 493
拍卖 493
按年 493
数码港 493
电影@@ 493
规划署 493
邀 493
1st 492
Chi@@ 492
chers 492
clinical 492
conferences 492
dao 492
doubts 492
ected 492
ficial 492
inaugural 492
milestone 492
schol@@ 492
tram@@ 492
zha@@ 492
勾@@ 492
填海 492
抓获 492
探测 492
殷@@ 492
着眼 492
致以 492
近几年 492
难度 492
assist@@ 491
eat 491
fought 491
soldier 491
军舰 491
大门 491
悄@@ 491
百分之十五 491
粮食@@ 491
肃@@ 491
股票@@ 491
1973 490
Hel@@ 490
Legal 490
Local 490
Rot@@ 490
consul@@ 490
deny 490
evaluated 490
footing 490
force@@ 490
insist 490
ladies 490
ptions 490
racing 490
sors 490
speakers 490
业已 490
噢 490
客观@@ 490
张贴 490
既定 490
晓 490
涛 490
珍 490
糟@@ 490
Only 489
Review 489
Rights 489
commissar 489
dan 489
provoc@@ 489
strugg@@ 489
公安局 489
六方会谈 489
分队 489
发生率 489
国际竞争 489
基石 489
壤@@ 489
孙明扬 489
撰@@ 489
沸@@ 489
饭店 489
Langu@@ 488
belgium 488
cemetery 488
erly 488
inking 488
jud@@ 488
lao 488
org 488
polls 488
promotes 488
uri@@ 488
九千 488
周边 488
建国 488
消毒 488
渗 488
电讯局 488
社会化 488
纯文字 488
航班 488
6,000 487
abundant 487
ball@@ 487
dd@@ 487
essentially 487
ita 487
relaxation 487
s.@@ 487
unfavorable 487
两条 487
亚洲@@ 487
仿 487
厅@@ 487
圾 487
惩教署 487
戒急用忍 487
汽车@@ 487
突 487
资金@@ 487
重开 487
Contro@@ 486
Sig@@ 486
clam@@ 486
dest@@ 486
energetically 486
fines 486
iction 486
liquid@@ 486
saudi 486
tsai 486
一百五十 486
下滑 486
优良 486
剑@@ 486
巴利 486
流失 486
里程碑 486
Great 485
She@@ 485
apar@@ 485
aran@@ 485
carpark 485
changchun 485
cheng@@ 485
closures 485
concep@@ 485
defic@@ 485
fortun@@ 485
garrison 485
juven@@ 485
lc 485
lux@@ 485
modification 485
即属 485
又@@ 485
同类 485
呈报 485
5.3 484
Rom@@ 484
casu@@ 484
disseminate 484
dol@@ 484
forums 484
ially 484
incorporating 484
payroll 484
racial 484
receiv@@ 484
relax 484
routed 484
scru@@ 484
upgraded 484
丧@@ 484
今晨 484
公平竞争 484
军费 484
努力提高 484
吁请 484
夕 484
特首 484
第一位 484
第一条 484
起点 484
这件 484
遵照 484
长沙 484
附加@@ 484
青山 484
Log@@ 483
Space 483
dead@@ 483
deception 483
discs 483
honourable 483
miles 483
militi@@ 483
peacefully 483
例行 483
参选 483
外债 483
契机 483
拓宽 483
湖南 483
科教兴国 483
聊@@ 483
蒲@@ 483
跨越式 483
近几年来 483
陆委会 483
马英九 483
Act 482
designs 482
ds@@ 482
guesthouse 482
interfering 482
paragraphs 482
policemen 482
preven@@ 482
reimbur@@ 482
themes 482
之用 482
五岁 482
卖旗 482
君 482
咭 482
寄回 482
有序 482
水警 482
消 482
灵活性 482
租约 482
约旦 482
绒 482
订阅 482
辅 482
Meeting 481
Radi@@ 481
September 481
indignation 481
literature 481
th-@@ 481
undergone 481
veteran 481
viewpoints 481
主权国家 481
偏 481
势必 481
博览会 481
屈 481
枢纽 481
灿@@ 481
红色 481
美国国务院 481
37@@ 480
Lab@@ 480
Stre@@ 480
creditor 480
diversion 480
gen 480
hic@@ 480
letting 480
ning@@ 480
romania 480
summing 480
三月份 480
伟大@@ 480
刘 480
布鲁塞尔 480
扇 480
最高法院 480
权威@@ 480
柏林 480
环境影响 480
而已 480
贪污 480
IX 479
Implementation 479
Property 479
austria 479
chirac 479
cross-@@ 479
excellency 479
experiments 479
floods 479
henry 479
practicable 479
surprise 479
tsu@@ 479
uated 479
zhongnanhai 479
事业单位 479
公署 479
商用 479
均会 479
大学生 479
奴@@ 479
挡@@ 479
此一 479
甸@@ 479
疾@@ 479
美机 479
衫 479
调查队 479
负面影响 479
铬 479
霸 479
campaigns 478
commended 478
contradiction 478
curb 478
ept@@ 478
frequ@@ 478
hungary 478
plified 478
replied 478
上级 478
全国人民代表大会 478
利比亚 478
大球场 478
市值 478
战线 478
扑 478
敦 478
有效性 478
海外@@ 478
认知 478
这起 478
顺利进行 478
预算@@ 478
黑点 478
SW@@ 477
consulate 477
couple 477
detachment 477
practiced 477
stal@@ 477
wei@@ 477
出发点 477
卜@@ 477
坚信 477
容加金 477
库区 477
惊 477
想到 477
无视 477
武警部队 477
燕@@ 477
稍 477
红十字会 477
背后 477
舰队 477
赴@@ 477
Asian 476
ala 476
anian 476
ce-@@ 476
conv@@ 476
dr. 476
feudal 476
fish@@ 476
ga 476
health@@ 476
hes@@ 476
nursing 476
reinforcing 476
之地 476
供款 476
前列 476
应变@@ 476
建筑工程 476
新疆@@ 476
杯@@ 476
消极 476
翔 476
自二 476
carriageway 475
cyberport 475
devi@@ 475
explicit 475
hello 475
inherent 475
jul 475
observing 475
odd 475
quanti@@ 475
shun 475
standardize 475
stric@@ 475
九十年代 475
六月份 475
几次 475
学术界 475
支撑 475
滚 475
Cooperation 474
acies 474
anticip@@ 474
democrats 474
grams 474
lib@@ 474
license 474
merch@@ 474
mistake 474
reinfor@@ 474
vement 474
九八年 474
化解 474
埋 474
堤 474
它@@ 474
安哥拉 474
快速@@ 474
新一代 474
民兵 474
稳健 474
第二条 474
蔬@@ 474
霸权 474
5.8 473
authorize 473
bing@@ 473
denial 473
ech 473
emancipating 473
ftware 473
modul@@ 473
nigeria 473
reck@@ 473
revising 473
royal 473
shed 473
spanish 473
tb 473
tend@@ 473
两国@@ 473
党员干部 473
养老@@ 473
办学 473
北省 473
德国@@ 473
接种 473
浇@@ 473
电话@@ 473
葛@@ 473
袁@@ 473
西亚 473
＞ 473
aug 472
ify 472
lowered 472
一八 472
侵略战争 472
分析家 472
制造商 472
叉 472
发表谈话 472
张建宗 472
影片 472
新建 472
残疾人 472
渠@@ 472
第九届 472
输出 472
迪士尼 472
魅@@ 472
4.7 471
caroline 471
cherish 471
cid@@ 471
clarify 471
councill@@ 471
fong 471
portfolio 471
reconnaisance 471
separ@@ 471
shoes 471
switzerland 471
terminus 471
urg@@ 471
休憩 471
单车 471
定额 471
宠@@ 471
常驻 471
抛出 471
漫 471
苑 471
赏@@ 471
8,000 470
FA 470
HR 470
Lan@@ 470
extra@@ 470
ians 470
ll@@ 470
manship 470
oct 470
opec 470
orb@@ 470
regist@@ 470
striking 470
unilateral 470
一百一十 470
勾结 470
国家计委 470
外汇@@ 470
庇护 470
百分之七 470
穴 470
篮 470
统计资料 470
辨 470
Children 469
Level 469
OL 469
apology 469
celebr@@ 469
euro@@ 469
fluor@@ 469
guan 469
hos 469
ken@@ 469
mobil@@ 469
que@@ 469
tighten 469
trag@@ 469
um-@@ 469
唐英年 469
烷@@ 469
绑 469
蓝图 469
表扬 469
辽宁 469
陵@@ 469
Cam@@ 468
advertisements 468
apse 468
catch 468
conservancy 468
earning 468
favourable 468
gang@@ 468
kou 468
lity 468
一番 468
主义@@ 468
亲身 468
初始 468
国人 468
机械@@ 468
模范 468
职人员 468
逐步@@ 468
0.6 467
blockade 467
disciplined 467
dram@@ 467
erec@@ 467
nepal 467
nov 467
rand@@ 467
thereon 467
厉@@ 467
屠杀 467
廉政@@ 467
曾俊华 467
福州 467
笼@@ 467
铃@@ 467
Acc@@ 466
diction 466
liberal 466
二十八 466
交叉 466
人口普查 466
俊 466
充满信心 466
军事力量 466
合作项目 466
塘@@ 466
拉动 466
摄 466
核查 466
确 466
腔@@ 466
行列 466
资企业 466
起飞 466
45@@ 465
AI 465
Transfer 465
burg 465
escor@@ 465
simul@@ 465
speed@@ 465
stro@@ 465
unreasonable 465
vary 465
剪 465
四月份 465
尼日利亚 465
扩大内需 465
撤回 465
放缓 465
昏@@ 465
更要 465
楼面 465
汇演 465
造福 465
零点 465
顾问公司 465
Phil@@ 464
Union 464
adop@@ 464
aren@@ 464
eradic@@ 464
gal 464
internation@@ 464
ishments 464
mas@@ 464
metall@@ 464
pic 464
pressed 464
princess 464
rc 464
rities 464
wuhan 464
之路 464
依法行政 464
入住 464
匪 464
大力支持 464
敌对势力 464
晚宴 464
杂项 464
耕地 464
进食 464
260 463
Collec@@ 463
awa@@ 463
drink 463
hoisted 463
lecture 463
modes 463
soong 463
sustain 463
东北 463
互补 463
仇@@ 463
八项 463
大浪 463
敷@@ 463
焚@@ 463
麽 463
龙永图 463
2020 462
4.4 462
Growth 462
Som@@ 462
alternate 462
atis@@ 462
bec@@ 462
conclu@@ 462
hsieh 462
imper@@ 462
matsu 462
militarism 462
monopoly 462
orious 462
revis@@ 462
uruguay 462
亲临 462
办公@@ 462
囚 462
帝国主义 462
手头 462
椭@@ 462
管局 462
腰 462
象征 462
风暴 462
骨干 462
admit 461
atta@@ 461
celeb@@ 461
dispers@@ 461
incomplete 461
pertinent 461
rectifying 461
ron 461
slowdown 461
tually 461
世界杯 461
中文@@ 461
保育 461
占据 461
原先 461
同行 461
教资会 461
无可@@ 461
栅 461
毒素 461
积极探索 461
航空兵 461
该批 461
集团军 461
discovery 460
downs 460
invo@@ 460
io 460
limit@@ 460
profession@@ 460
social@@ 460
thes@@ 460
vegetables 460
专机 460
坑@@ 460
市场化 460
扩阔 460
扫 460
拍摄 460
爬 460
特权 460
稳步 460
脏@@ 460
通往 460
领导集体 460
￣ 460
Approach 459
Resources 459
brussels 459
church 459
cot@@ 459
equip@@ 459
essly 459
influential 459
leaps 459
lots 459
shanxi 459
step@@ 459
terror 459
刷 459
发展前景 459
外判 459
心态 459
总共 459
所有制 459
抵京 459
机组人员 459
江西 459
烦@@ 459
甫 459
百分之四 459
身体@@ 459
部长会议 459
集团公司 459
鞍@@ 459
99@@ 458
Chris@@ 458
Environmental 458
ibu@@ 458
incidence 458
sponsor@@ 458
unify 458
厄@@ 458
外资企业 458
岭@@ 458
海面 458
瞩目 458
离不开 458
革新 458
 458
１ 458
0.8 457
House 457
Notwithstanding 457
Thus 457
dimension 457
fire@@ 457
gansu 457
mic@@ 457
offici@@ 457
onia 457
slopes 457
一百三十 457
丰 457
作好 457
信徒 457
入场 457
军机 457
割 457
加路 457
发挥作用 457
奥尔布赖特 457
幸 457
座谈 457
建党 457
无限期 457
竟@@ 457
腐 457
钢铁 457
360 456
Gar@@ 456
Protocol 456
crash 456
earth@@ 456
floating 456
liberalization 456
moon 456
ock@@ 456
organising 456
reser@@ 456
stead@@ 456
triggered 456
validity 456
乡镇企业 456
刘淑仪 456
北南 456
十二岁 456
国土 456
姚@@ 456
将近 456
核试验 456
缺点 456
芦@@ 456
蛮 456
解决方案 456
辟 456
选项 456
20th 455
Chemical 455
Constitution 455
actu@@ 455
critici@@ 455
developers 455
inappropriate 455
investigators 455
raft 455
seekers 455
straight 455
thomas 455
十九楼 455
吊销 455
多样 455
室内 455
弟 455
持续@@ 455
支持者 455
毕 455
电单车 455
量度 455
Mal@@ 454
conn@@ 454
diet 454
ev 454
huaicheng 454
ik@@ 454
jailed 454
monitored 454
spacecraft 454
towed 454
下功夫 454
伍 454
促请 454
决赛 454
哭 454
尸@@ 454
感到高兴 454
横过 454
第五号 454
第八条 454
经受 454
自律 454
赡@@ 454
酷 454
39@@ 453
Comple@@ 453
affili@@ 453
displacement 453
illa 453
paul 453
promp@@ 453
scand@@ 453
syrian 453
unwilling 453
二六 453
伊斯兰@@ 453
台湾岛 453
国家经贸委 453
报刊 453
斐@@ 453
暂 453
源于 453
疑虑 453
督察 453
胡 453
规划@@ 453
Br@@ 452
Da@@ 452
INTER@@ 452
NAL 452
advisers 452
complied 452
fostering 452
havi@@ 452
individu@@ 452
irrespective 452
possessing 452
suggests 452
东北@@ 452
九铁 452
于本 452
休市 452
冈 452
军用飞机 452
分行 452
分配@@ 452
动武 452
叙述 452
壮大 452
家居 452
数月 452
沉重 452
电厂 452
箭@@ 452
联席会议 452
补选 452
路口 452
Equip@@ 451
Gener@@ 451
acceler@@ 451
bail 451
brother 451
cr 451
det@@ 451
theatre 451
中央人民政府 451
参谋长 451
填补 451
成衣 451
泄 451
涯 451
父@@ 451
瞻@@ 451
破获 451
致函 451
香港大学 451
Mil@@ 450
Tim@@ 450
characteristic 450
cum@@ 450
lhasa 450
prosecutions 450
rela@@ 450
remark@@ 450
sand@@ 450
suspec@@ 450
townships 450
乙类 450
价值@@ 450
入息 450
八月份 450
出院 450
勘探 450
备有 450
小贩 450
手提 450
拖走 450
睹 450
第四条 450
虾 450
贵国 450
韦 450
Access 449
alarm 449
bosnia 449
deliberation 449
dna 449
resisting 449
不能不 449
五月份 449
光荣 449
普查 449
某项 449
烤 449
研讨 449
立方米 449
紧张局势 449
表示祝贺 449
诈@@ 449
详细资料 449
谢长廷 449
香港回归 449
马其顿 449
Policy 448
alcoho@@ 448
ambassadors 448
approaching 448
arre@@ 448
contributing 448
dp 448
heng 448
intentions 448
jan@@ 448
pleaded 448
souvenir 448
success@@ 448
zhuang 448
zhuhai 448
亚太@@ 448
公积金 448
劳工局 448
协力 448
安宁 448
抢 448
畏 448
绞@@ 448
行动@@ 448
西安 448
辛格 448
近邻 448
退休@@ 448
预 448
182 447
digest 447
endorsement 447
inseparable 447
kw@@ 447
perfecting 447
stayed 447
stron@@ 447
丛@@ 447
中俄关系 447
会为 447
分工 447
吓@@ 447
夫妇 447
怒@@ 447
执 447
拉姆斯菲尔德 447
浦 447
浴 447
瓷@@ 447
突破@@ 447
第三条 447
蔡 447
蜂 447
账户 447
选择性 447
非公有制 447
August 446
Working 446
angeles 446
capitalist 446
electors 446
fruit 446
ili 446
outs 446
plb 446
precondition 446
下旬 446
两岸人民 446
五次 446
亲民党 446
另一名 446
妊@@ 446
指挥官 446
核子 446
潜 446
Cs 445
ano 445
erous 445
forefront 445
isted 445
manufactured 445
railways 445
skilled 445
totaling 445
trea@@ 445
visitor 445
中东问题 445
反倾销 445
实践@@ 445
巾 445
彬 445
柳@@ 445
泵@@ 445
而设 445
英雄 445
阐@@ 445
附带 445
09@@ 444
1500 444
HIV 444
arrogance 444
easing 444
hau 444
lacking 444
long-@@ 444
pal@@ 444
perman@@ 444
precision 444
pressures 444
sme 444
w. 444
下调 444
乘坐 444
互补性 444
五一 444
亲切友好 444
佣@@ 444
判定 444
弹头 444
截查 444
拌 444
普遍@@ 444
标题 444
歇@@ 444
深感 444
点五 444
痕@@ 444
管理层 444
簿@@ 444
胁迫 444
规格 444
调配 444
豪 444
镑 444
雷斯 444
Britain 443
India 443
Point 443
Unit 443
bu 443
championship 443
chicken 443
deterioration 443
finland 443
kore@@ 443
limitation 443
mun@@ 443
rush 443
totaled 443
trigger 443
virtually 443
优惠政策 443
保人 443
十月份 443
取得成功 443
在实践中 443
城乡@@ 443
海事 443
申领 443
职系 443
赎@@ 443
骚@@ 443
German 442
aving 442
correctional 442
exchanging 442
gentlemen 442
nutri@@ 442
wai@@ 442
year-old 442
人质 442
俄中 442
原定 442
喘 442
国会议员 442
年会 442
海湾战争 442
知名 442
营养@@ 442
郁@@ 442
钛 442
delighted 441
extremis@@ 441
harb@@ 441
ital@@ 441
mix 441
supervising 441
vacant 441
worse 441
七名 441
乏 441
国际化 441
头脑 441
学童 441
批发@@ 441
文莱 441
显着 441
现于 441
百年 441
美日 441
货币@@ 441
这家 441
违法@@ 441
Advan@@ 440
Dem@@ 440
Long@@ 440
announcing 440
architec@@ 440
cooked 440
dec 440
expedite 440
jeou 440
jerusalem 440
leninism 440
liquidation 440
nominations 440
post-@@ 440
premium 440
scal@@ 440
scenes 440
sigh@@ 440
tially 440
义工 440
五中全会 440
亚洲各国 440
伤者 440
差别 440
座位 440
强国 440
惩处 440
拉萨 440
旦@@ 440
暴力@@ 440
缴交 440
西藏自治区 440
詹@@ 440
贩 440
FS 439
consultants 439
fled 439
interchange 439
km@@ 439
residual 439
tu 439
三四 439
中毒 439
事实证明 439
停留 439
前不久 439
同步 439
家园 439
巷 439
时段 439
核武 439
求职 439
混 439
称赞 439
竞投 439
腐败@@ 439
醚 439
青衣 439
Insurance 438
announces 438
bold 438
caf@@ 438
cautious 438
consist 438
corner 438
decre@@ 438
exposition 438
flower 438
itive 438
kill 438
meaningful 438
mono@@ 438
oked 438
onary 438
secu@@ 438
ter-@@ 438
toll 438
休 438
参阅 438
发表意见 438
定于 438
密集 438
崔@@ 438
弦@@ 438
服务行业 438
煤矿 438
第一步 438
第二届 438
老百姓 438
质量@@ 438
[...]
