#version: 0.2
t h
i n
th e</w>
a n
r e
t i
e n
o n
e r
an d</w>
o f</w>
o n</w>
a r
in g</w>
o r
e d</w>
s t
o u
t o</w>
e s</w>
i t
i n</w>
a ti
r o
a l</w>
e r</w>
a l
c h
a t
p o
i c
i l
q u
e c
i s
o t
o m
en t</w>
a n</w>
e l
a t</w>
i s</w>
o r</w>
e s
a c
a s</w>
s i
qu ot
quot ;</w>
& quot;</w>
d e
o p
s u
ati on</w>
u n
p ro
a d
m ent</w>
a s
v e</w>
c on
t r
l y</w>
t s</w>
u r
po s
a i
l e
e n</w>
c om
f or</w>
l i
l e</w>
c e</w>
& a
th at</w>
&a pos
l o
&apos ;</w>
on g</w>
r i
c i
on s</w>
s h
e x
ch in
ou n
e m
u s
b e
re s
f or
ti on</w>
d i
w h
a b
a g
v er
h a
p ar
p e
o l
n o
a y</w>
th e
st r
w it
n e
t er
wit h</w>
p or
il l</w>
i t</w>
a m
b y</w>
f f
w ill</w>
d u
a p
it y</w>
u l
v i
p l
i m
b e</w>
a r</w>
v el
p er
chin a</w>
t e
i g
ar e</w>
l d</w>
g o
m a
m e
er s</w>
at e</w>
d ing</w>
w or
t ed</w>
s e
c oun
w e
com m
ar y</w>
f i
th is</w>
ati ons</w>
t a
h as</w>
中 国</w>
y e
0 0
er e</w>
ha ve</w>
p r
es e</w>
on al</w>
ai d</w>
f ro
th er</w>
fro m</w>
de vel
t y</w>
p u
s o</w>
en ts</w>
p re
en t
b u
ou ld</w>
i c</w>
d s</w>
al l</w>
t h</w>
re n
an g
s aid</w>
m o
d ay</w>
devel op
s p
i es</w>
si d
ou t</w>
ti c
w as</w>
ec on
t o
ti es</w>
a f
m in
发 展</w>
an ce</w>
g r
pe op
it s</w>
re c
t ing</w>
s t</w>
no t</w>
v e
peop le</w>
h e</w>
2 00
du c
w e</w>
ic e</w>
u s</w>
t ur
i r</w>
re g
s o
c o
t er</w>
政 府</w>
the ir</w>
s e</w>
ati onal</w>
s er
econ om
v er</w>
c h</w>
v is
ver n
coun tr
h ong</w>
go vern
em b
ad e</w>
ou r</w>
k ong</w>
al so</w>
m an
m ar
s ec
on e</w>
t w
i z
in c
re d</w>
w an</w>
en d
develop ment</w>
g h
un d
ne w</w>
t ai
an g</w>
at ed</w>
l a
i st
m e</w>
ou r
p res
tw o</w>
n ational</w>
o ff
op er
chin ese</w>
govern ment</w>
an t</w>
ou s</w>
k e</w>
我 们</w>
in ter
k ing</w>
re l
pu b
ye ar</w>
por t</w>
f e
香 港</w>
for m
f o
es s</w>
tai wan</w>
a d</w>
1 9
h o
con t
t u
as t</w>
h e
a u
m il
经 济</w>
po l
e t</w>
m or
g u
d is
sh ould</w>
al ly</w>
ab le</w>
问 题</w>
be t
m an</w>
ar d</w>
re s</w>
ti ons</w>
ic h</w>
en ce</w>
k s</w>
c or
in g
the y</w>
c e
l u
& #
&# 9
o w
com p
关 系</w>
i on</w>
par t
a in
us t</w>
econom ic</w>
o ther</w>
一 个</w>
u p</w>
es s
wh ich</w>
o d</w>
美 国</w>
st e
at es</w>
it ed</w>
ser v
h u
m on
a y
ag e</w>
om e</w>
si on</w>
wor k</w>
is su
i r
ar s</w>
国 家</w>
t en
d ed</w>
工 作</w>
w ere</w>
be en</w>
s y
fi r
e v
c en
u c
so ci
f ac
ma in
de part
lo g
mor e</w>
par ty</w>
li c</w>
por t
we en</w>
e f
bet ween</w>
ai r
b il
ti ve</w>
有 关</w>
c es</w>
in e</w>
pub lic</w>
sp ec
re as
su r
ig h
r u
countr ies</w>
re e</w>
h is</w>
ic al</w>
l and</w>
ch ang
i d
comm it
进 行</w>
st an
i al</w>
19 9
s ti
m ents</w>
d ec
j i
oper ation</w>
c an</w>
or d
emb er</w>
i ties</w>
us e</w>
es t</w>
o c
f in
合 作</w>
a ff
str uc
tic al</w>
st ate</w>
res p
w s</w>
en ti
a ch
sh i
g en
g re
as s
or y</w>
m s</w>
re ig
w el
o ver</w>
ar g
cen tr
commit te
an n
表 示</w>
er al</w>
r a
r ou
le g
oun d</w>
ti me</w>
off ic
or g
j o
un ited</w>
rel ations</w>
l is
ec t</w>
ac e</w>
to day</w>
el y</w>
b o
s it
ati ve</w>
二 十
af ter</w>
f u
wor ld</w>
po in
tur e</w>
a re
h el
g h</w>
s in
v ing</w>
i ous</w>
j u
ro ad</w>
fir st</w>
mil it
e st
li on</w>
su p
le ad
in v
committe e</w>
c er
ac ti
depart ment</w>
th ree</w>
en d</w>
org an
u e</w>
k e
i str
im port
reig n</w>
ab out</w>
vi e
ye ars</w>
ha d</w>
th ere</w>
inter national</w>
in ci
pre sid
e ment</w>
gh t</w>
r on
me e
st ates</w>
te ch
milit ary</w>
台 湾</w>
计 划</w>
方 面</w>
0 0</w>
at ing</w>
fo reign</w>
or s</w>
al s</w>
a v
su l
u m
l ed</w>
wh o</w>
f ic
tr ade</w>
bu t</w>
a si
w ould</w>
qu i
b us
e ar
e g
po li
v ed</w>
n ed</w>
m ade</w>
bu il
em p
d e</w>
m is
ol d</w>
en c
lo w
il e</w>
per s
s ome</w>
ste m</w>
b ec
1 0</w>
会 议</w>
in du
b er</w>
el ec
sy stem</w>
p ri
s ch
n o</w>
ou s
a m</w>
und er</w>
p le
inc reas
pr is
ic es</w>
su ch</w>
for m</w>
星 期
lo c
in to</w>
countr y</w>
建 设</w>
co operation</w>
per i
c ur
人 民</w>
es ti
in te
st ri
s ed</w>
cont in
d ur
m ust</w>
国 际</w>
presid ent</w>
他 们</w>
ex p
z h
th ese</w>
委 员
on ly</w>
pol ic
ver y</w>
shi p</w>
l ing</w>
加 强</w>
pro duc
an y</w>
服 务</w>
地 区</w>
am e</w>
ay s</w>
t ly</w>
c ar
un i
min istr
1 ;</w>
&#9 1;</w>
p h
组 织</w>
th rou
重 要</w>
centr al</w>
st u
as e</w>
no log
公 司</w>
ac h</w>
m ay</w>
n ing</w>
社 会</w>
tech nolog
mee ting</w>
inc lu
c r
m ot
ac cor
i f</w>
u m</w>
dur ing</w>
poli tical</w>
wh en</w>
mar k
企 业</w>
提 供</w>
f ri
s ci
v es</w>
3 ;</w>
&#9 3;</w>
wel l</w>
st s</w>
包 括</w>
an s
j ap
di rec
und er
en ter
th or
i e
c ul
b le</w>
iz ation</w>
w i
ji ang</w>
re t
is t</w>
f ul
pro vi
th an</w>
g i
委员 会</w>
ci l</w>
coun cil</w>
f ol
m emb
ow n</w>
s el
人 士</w>
vel y</w>
e duc
an d
en g
import ant</w>
c l
ing s</w>
ab il
an s</w>
百 分
y ing</w>
ar m
o b
sec ur
en ing</w>
f ur
c ri
in form
la w</w>
i an</w>
su b
ot h</w>
m ent
st ren
memb ers</w>
stren g
ta in
主 义</w>
w ay</w>
ren t</w>
comm un
ma ke</w>
de p
throu gh</w>
im pro
at er</w>
sit u
主 席</w>
j ing</w>
活 动</w>
00 0</w>
v en
mark et</w>
ad v
c a
世 界</w>
an c
di ff
代 表</w>
这 个</w>
以 及</w>
e ff
ou t
c ent</w>
b r
v ar
b as
政 策</w>
s po
百分 之
pro mot
g res
enter pris
un g</w>
au thor
没 有</w>
gen eral</w>
s pe
si g
fur ther</w>
情 况</w>
ci al</w>
n um
d o
al ity</w>
m u
stu d
is m</w>
lis h
sid e</w>
教 育</w>
s s</w>
t or</w>
serv ices</w>
b oth</w>
w ard</w>
de f
一 步</w>
c ap
九 九
c al
be i
m r</w>
inform ation</w>
min ist
er n</w>
resp on
ef for
est ab
wh ile</w>
l ast</w>
on g
im ple
pol ice</w>
sec ret
ol u
bei jing</w>
at t
for e</w>
por ts</w>
d el
en g</w>
c lo
vis it</w>
o ver
secur ity</w>
tr ans
gre at</w>
man y</w>
situ ation</w>
ig h</w>
l ic
po si
n or
t e</w>
sin ce</w>
the m</w>
tic s</w>
h igh</w>
中 国
ex chang
no w</w>
l i</w>
l ong</w>
ma j
c u
em ents</w>
wi th
c ent
人 员</w>
educ ation</w>
ic ul
man ag
pr inci
进 一步</w>
要 求</w>
th o
issu e</w>
p p
m p
th en</w>
今 日</w>
is e</w>
polic y</w>
p c</w>
var ious</w>
a in</w>
d ic
ord er</w>
c ol
abil ity</w>
d g
o u</w>
soci al</w>
安 全</w>
t re
con cer
pro b
str ic
指 出</w>
main land</w>
en se</w>
2 0</w>
stan ding</w>
ter s</w>
re le
buil ding</w>
ta ke</w>
con struc
enc y</w>
ur e</w>
j ec
y u
举 行</w>
ro ss</w>
市 场</w>
ve st
c our
po w
ve l</w>
n ec
社 会
re port</w>
c re
re pres
bus in
gr ou
ai r</w>
secret ary</w>
t ot
l es</w>
ad ministr
e ther</w>
p s</w>
con tr
sup port</w>
a il
at eg
m at
accor ding</w>
继 续</w>
spo k
必 须</w>
d o</w>
emp lo
f un
s ou
发 言
主 要</w>
in vest
in f
spok es
ta in</w>
hel d</w>
an t
k ed</w>
市 民</w>
technolog y</w>
b el
w ar
p le</w>
fol low
t al
per cent</w>
ap pro
in t
l arg
prob le
sur e</w>
sti tu
o k</w>
认 为</w>
发言 人</w>
这 些</w>
econom y</w>
reg ion</w>
enterpris es</w>
ro w
num ber</w>
l l</w>
go od</w>
y ou</w>
x in
政 治</w>
com e</w>
an ts</w>
jo in
可 以</w>
ati s
e ty</w>
me di
北 京</w>
fi c</w>
us si
me a
l ine</w>
effor ts</w>
h i
it e</w>
reg ul
措 施</w>
maj or</w>
b i
spokes man</w>
re sul
hu a</w>
今 天</w>
ai t</w>
ous ly</w>
需 要</w>
时 间</w>
ac t</w>
serv ice</w>
a i</w>
tur al</w>
s af
人 民
机 构</w>
mo st</w>
si ble</w>
p ur
comp le
bil lion</w>
3 0</w>
re a
今 年</w>
gh ts</w>
re form</w>
b an
技 术</w>
i ev
are as</w>
st ed</w>
a o</w>
, 000</w>
部 门</w>
ne ws</w>
en vi
提 出</w>
特 别</w>
construc tion</w>
envi ron
ag ain
双 方</w>
again st</w>
str ateg
o p</w>
支 持</w>
si ve</w>
s econ
sid es</w>
1 1</w>
零 零
1 2</w>
gres s</w>
v al
研 究</w>
同 时</w>
se t</w>
no v
estab lish
fi ve</w>
200 0</w>
改 革</w>
sti ll</w>
minist er</w>
he al
ce p
c c
通 过</w>
h ist
tot al</w>
we ver</w>
ho wever</w>
ren ce</w>
inclu ding</w>
le vel</w>
fin an
vis ion</w>
影 响</w>
日 本</w>
tr ain
提 高</w>
mil lion</w>
泽 民</w>
一 些</w>
igh t</w>
su res</w>
江 泽民</w>
c le
ac k</w>
str ait</w>
s ame</w>
ch air
pro f
finan cial</w>
reg i
记 者</w>
l in
ord in
希 望</w>
投 资</w>
con duc
t ec
lo w</w>
e p
中 心</w>
peri od</w>
us ed</w>
tho se</w>
管 理</w>
follow ing</w>
air s</w>
可 能</w>
str y</w>
pl ic
i de
be ing</w>
总 统</w>
新 华
k o
re ad
h k</w>
poin ted</w>
根 据</w>
jap an</w>
d es
fri end
cont ro
acti vi
j un
is l
n i
par t</w>
科 技</w>
其 他</w>
for ces</w>
manag ement</w>
activi ties</w>
r ussi
新华 社</w>
it al</w>
re qui
su m
re por
for ce</w>
en h
indu stry</w>
off ice</w>
con di
fic ation</w>
xin hua</w>
issu ed</w>
e i
spec ial</w>
稳 定</w>
访 问</w>
调 查</w>
dep end
vie w</w>
a st
aff airs</w>
indu stri
目 前</w>
def ense</w>
mea sures</w>
busin ess</w>
联 合
警 方</w>
贸 易</w>
三 十
m i
1 5</w>
r ang
iz ed</w>
h ere</w>
ati c</w>
ri ghts</w>
pro v
e l</w>
at ten
pow er</w>
leg al</w>
行 动</w>
sch o
ti ci
完 二</w>
二 零零
r it
wh at</w>
h op
s en
b ri
z em
chair man</w>
ac c
train ing</w>
ex pres
h igh
g row
zem in</w>
实 现</w>
ati on
ent ly</w>
就 是</w>
er ing</w>
pro pos
be fore</w>
nec ess
i ti
一 九九
系 统</w>
develop ing</w>
ev en</w>
contin ue</w>
il l
m es</w>
e ach</w>
c an
contin u
si st
g g
inte re
comm is
已 经</w>
p ast</w>
in depend
解 决</w>
作 出</w>
建 立</w>
r y</w>
o log
end ed</w>
建 议</w>
环 境</w>
作 为</w>
和 平</w>
diff e
is h
199 9</w>
pu t</w>
ag re
fu l</w>
st at
fe rence</w>
增 加</w>
qu ality</w>
t t
i a</w>
s al
t ors</w>
努 力</w>
pe ace</w>
领 导</w>
日 电</w>
制 度</w>
qu es
w ays</w>
loc al</w>
de m
十 二
su cc
原 则</w>
一 月</w>
es day</w>
leg isl
issu es</w>
思 想</w>
f l
tr aff
as es</w>
emplo y
w ar</w>
部 分</w>
实 施</w>
pro c
n ot
secon d</w>
条 例</w>
tu al</w>
文 化</w>
p ly</w>
increas e</w>
取 得</w>
p ul
eff ec
一 年</w>
mar ch</w>
- -</w>
我 国</w>
pl an</w>
necess ary</w>
er ation</w>
c ross</w>
1 .
pro gr
成 为</w>
ta k
larg e</w>
当 局</w>
esti g
工 程</w>
inv estig
意 见</w>
任 何</w>
增 长</w>
grou p</w>
u p
c ad
sci enti
v en</w>
ec ted</w>
fi ed</w>
报 告</w>
x i
促 进</w>
in di
200 1</w>
a use</w>
bec ome</w>
rele v
jun e</w>
em s</w>
dis c
ful ly</w>
ur y</w>
relev ant</w>
s ing</w>
ri l</w>
ch en</w>
w ater</w>
hu man</w>
ap ril</w>
depart ments</w>
ic i
il y</w>
sin o</w>
r e</w>
d own</w>
wh o
h k
领 导
开 放</w>
f al
author ities</w>
5 0</w>
li f
bec ause</w>
we st
e u
v ice</w>
利 益</w>
j ect</w>
基 础</w>
invest ment</w>
规 定</w>
ag ency</w>
es sion</w>
am ong</w>
两 岸</w>
princi ple</w>
ne l</w>
st atis
坚 持</w>
sel f</w>
intere sts</w>
自 己</w>
w to</w>
期 间</w>
中 央</w>
其 中</w>
去 年</w>
contro l</w>
积 极</w>
promot e</w>
er ship</w>
fu ture</w>
ar ly</w>
d om
两 国
com pe
由 于</w>
an ese</w>
pres ent</w>
ie f</w>
h ar
rec ei
c pc</w>
世 纪</w>
at eral</w>
traff ic</w>
开 始</w>
ver s
立 法
内 地</w>
ap plic
pers on
决 定</w>
处 理</w>
2 1</w>
历 史</w>
统 一</w>
s es</w>
ju ly</w>
两 国</w>
ach iev
se p
以 来</w>
in stitu
资 料</w>
heal th</w>
commun ity</w>
proble ms</w>
m en</w>
cent ury</w>
tici p
d ent</w>
发 生</w>
f r
stan d
wh ether</w>
美 元</w>
offic ers</w>
a k
stric t</w>
grow th</w>
ho w</w>
国 务
en ds</w>
administr ation</w>
provi de</w>
con sul
i als</w>
pro tec
@ -
@- @</w>
ex am
j an
imple ment
b asi
之 间</w>
e t
basi c</w>
op ening</w>
改 善</w>
d r
id e</w>
p er</w>
cad res</w>
会 见</w>
不 断</w>
ex er
f our</w>
b en
ac k
所 有</w>
1 6</w>
stud y</w>
soci al
ma king</w>
强 调</w>
参 加</w>
c ould</w>
c ity</w>
ex t</w>
th s</w>
领 域</w>
o l</w>
使 用</w>
qu ar
ko re
安 排</w>
th ou
u ary</w>
par ticip
fac il
pr acti
our ces</w>
m ember</w>
ri ght</w>
el l
jan uary</w>
au g
west ern</w>
立法 会</w>
l ab
condi tions</w>
推 动</w>
st ar
en ted</w>
水 平</w>
res t</w>
o f
devel op</w>
th in
部 长</w>
总 理</w>
sep t
sept ember</w>
t as
are a</w>
st ability</w>
sci ence</w>
st re
pl ann
ques tion</w>
organ iz
de mo
de pu
0 .
exchang e</w>
mo d
分 别</w>
join t</w>
目 标</w>
res ear
su per
fi el
cur rent</w>
posi tion</w>
pos sible</w>
e d
社会 主义</w>
干 部</w>
jec ts</w>
al l
ir d</w>
ti vely</w>
1 3</w>
sou th</w>
lead ing</w>
con sid
as s</w>
j ust</w>
jap anese</w>
产 品</w>
o i
公 布</w>
olog ical</w>
国 际
h and
ch arg
ch ief</w>
asi a</w>
lead ers</w>
m ul
1 4</w>
direc tor</w>
一 日</w>
th er
independ ence</w>
is ed</w>
st res
no w
交 通</w>
tic ul
ch an
r icul
sh e</w>
ar rang
h en
ac coun
g a
con ference</w>
ag es</w>
出 口</w>
streng then</w>
2 5</w>
w w
anc ed</w>
sy st
wor k
三 年</w>
arm y</w>
tur n</w>
v ic
vie ws</w>
yu an</w>
200 2</w>
tal ks</w>
compe ti
全 国</w>
oun d
法 律</w>
repres ent
p ass
spec i
作 用</w>
1 8</w>
200 5</w>
ur al</w>
k in
re sid
pub lic
inv ol
op port
ma in</w>
opport un
采 取</w>
for ward</w>
项 目</w>
ro le</w>
comp an
uni fication</w>
v olu
共 同</w>
战 略</w>
ww w</w>
resp ec
单 位</w>
2 .
bil ateral</w>
commis sion</w>
n at
hel p</w>
h ol
bus h</w>
ie ve</w>
d ays</w>
es si
sh u
b al
ad di
ha i</w>
保 持</w>
disc us
ment al</w>
ec h</w>
调 整</w>
能 力</w>
d n
environ ment</w>
ke y</w>
demo cr
p at
行 政
保 障</w>
ann oun
diffe rent</w>
e ds</w>
bil ity</w>
领导 人</w>
s ol
中 央
an other</w>
ec u
th ing</w>
ad op
ex peri
pl ac
nov ember</w>
go v</w>
大 陆</w>
e ast</w>
ch ar
tr ad
impro ve</w>
银 行</w>
地 方</w>
d ol
with in</w>
wh ere</w>
read y</w>
oc to
octo ber</w>
gr ad
is h</w>
申 请</w>
不 同</w>
tak en</w>
re qu
全 国
poin t</w>
c ases</w>
resear ch</w>
ne ed</w>
produc ts</w>
eu ro
ben ef
b ru
台 湾
ex ist
c ase</w>
t en</w>
pl ace</w>
mis s
comm on</w>
bas is</w>
出 现</w>
d ri
ti c</w>
o ds</w>
bu rea
u n</w>
1 7</w>
la un
h al
st and</w>
ex ecu
ci r
ag ricul
ag ed</w>
par ticul
接 受</w>
不 能</w>
e k</w>
参 与</w>
th ird</w>
因 为</w>
全 面</w>
因 此</w>
zh u</w>
gu ang
经 济
条 件</w>
200 4</w>
m un
statis tics</w>
un g
strateg ic</w>
em e</w>
expres sed</w>
1 9</w>
香 港
f am
iz e</w>
legisl ative</w>
person nel</w>
ve h
li ke</w>
re ach
aug ust</w>
ant i</w>
en ed</w>
syst ems</w>
del eg
the re
di strict</w>
er g
pl an
dec ember</w>
统 计</w>
pro jects</w>
spe ech</w>
t ro
v al</w>
事 件</w>
ad ded</w>
burea u</w>
下 午</w>
comp any</w>
200 3</w>
议 员</w>
上 升</w>
fe bru
febru ary</w>
dol l
l an
di d</w>
这 是</w>
op en</w>
in spec
as ed</w>
完 成</w>
什 么</w>
a red</w>
ce ment</w>
群 众</w>
ful l</w>
i bu
如 果</w>
部 队</w>
saf ety</w>
m ed</w>
resul ts</w>
ar ds</w>
r ate</w>
交 流</w>
发 表</w>
russi a</w>
vi l</w>
这 次</w>
struc ture</w>
事 务</w>
u al</w>
b ro
st af
w ang</w>
dec is
委 员</w>
ministr y</w>
proc ess</w>
m it</w>
regi onal</w>
lif e</w>
pro gress</w>
200 6</w>
y p
scienti fic</w>
dg e</w>
g lo
staf f</w>
n al</w>
esti c</w>
成 立</w>
关 于</w>
维 护</w>
who le</w>
s m
军 事</w>
第 一
en sure</w>
开 发</w>
dom estic</w>
consul t
n ation</w>
diff icul
hist ory</w>
re al
公 众</w>
委 会</w>
了 解</w>
e qui
民 族</w>
concer ned</w>
现 在</w>
produc tion</w>
ch ed</w>
过 去</w>
c lu
c ed</w>
exer c
ay ing</w>
el e
ter m</w>
保 护</w>
re li
外 交
ter rit
it ing</w>
得 到</w>
未 来</w>
tain ed</w>
practi ce</w>
p i
成 员</w>
af t</w>
he ad
soci ety</w>
fo od</w>
al ways</w>
f ron
rel ated</w>
u l</w>
n ext</w>
代 表
val ue</w>
五 年</w>
战 争</w>
requi re
at ely</w>
wor ks</w>
c o</w>
comm er
学 习</w>
nor th</w>
n er</w>
sh ow
hal f</w>
friend ly</w>
ot s</w>
p ec
不 会</w>
生 活</w>
加 入</w>
to w
e p</w>
cul tural</w>
2 4</w>
rec ent</w>
ass es</w>
pro ce
cur ren
俄 罗
progr am
ta king</w>
im m
du ce</w>
西 部</w>
in ten
atten tion</w>
联合 国</w>
cu st
un its</w>
po pul
pro per
car ri
plann ing</w>
pl ay</w>
一 项</w>
严 重</w>
elec tr
ear ly</w>
se e</w>
ad vis
com pre
pre mi
sit e</w>
res ources</w>
re unification</w>
com b
wor king</w>
en ces</w>
compan ies</w>
n s</w>
us ing</w>
pro ject</w>
资 源</w>
str ong</w>
不 是</w>
vel s</w>
导 弹</w>
这 种</w>
promot ing</w>
p en
mon ths</w>
under standing</w>
h ou
1 0
bas ed</w>
increas ed</w>
2 3</w>
inte gr
一 名</w>
亿 元</w>
me ans</w>
organ ization</w>
h er</w>
c am
compre hen
lis h</w>
le vels</w>
we dn
设 施</w>
e red</w>
veh ic
w om
结 果</w>
we ap
人 权</w>
sh or
wedn esday</w>
ef ul</w>
with out</w>
offic ial</w>
pos e</w>
employ ment</w>
i ons</w>
数 字</w>
四 年</w>
精 神</w>
li ght</w>
ur g
法 轮
se ver
streng th
enh ance</w>
depu ty</w>
此 外</w>
cal led</w>
sh o
两 个</w>
scho ol</w>
st or
m ac
n ations</w>
ar ding</w>
f und
sur ve
col l
ap pe
正 在</w>
三 月</w>
enti al</w>
ni fic
car ry</w>
法轮 功</w>
le ar
ve ment</w>
考 虑</w>
cust om
重 大</w>
stre et</w>
elec tion</w>
二 年</w>
六 月</w>
f ar</w>
b er
er ic
确 保</w>
国务 院</w>
方 式</w>
over all</w>
友 好
gi ve</w>
execu tive</w>
in de
ac tion</w>
任 务</w>
st ing</w>
发 展
局 长</w>
ab o
成 功</w>
pri v
w a
be g
ho u</w>
r is
九 年</w>
al ready</w>
2 2</w>
俄罗 斯</w>
ti onal</w>
as soci
si x</w>
k now
cap ital</w>
新 闻</w>
ung ong</w>
fal ungong</w>
生 产</w>
su s</w>
sh ang
pe ac
l ess</w>
con gress</w>
h ous
具 有</w>
ti mes</w>
pr ac
为 了</w>
contr ibu
n pc</w>
import ance</w>
小 组</w>
e very</w>
c op
ter min
ch il
统 计
学 生</w>
四 月</w>
succ ess
ar tic
in iti
hi m</w>
这 样</w>
to g
m it
发 现</w>
tr y</w>
he ad</w>
m a</w>
develop ed</w>
但 是</w>
ti on
protec tion</w>
exchang es</w>
显 示</w>
ch e
亿 美元</w>
sch eme</w>
ne t
美 国
industri al</w>
go ods</w>
n n
polic ies</w>
健 康</w>
开 展</w>
ati ves</w>
3 .
s at
车 辆</w>
chang e</w>
b ound</w>
am eric
bo o
am ent
form s</w>
减 少</w>
欢 迎</w>
shang hai</w>
ordin ance</w>
第 二
tre at
tog ether</w>
sig nific
ru p
premi er</w>
m asses</w>
f ound</w>
n on</w>
比 较</w>
基 本</w>
ac y</w>
以 下</w>
am oun
反 对</w>
hist or
mu tual</w>
利 用</w>
uc le
p ing</w>
offic ials</w>
管 理
中国 政府</w>
ol s</w>
chang es</w>
上 述</w>
cri min
c y</w>
重 视</w>
发 挥</w>
or ity</w>
as h
有 效</w>
n ucle
op s</w>
g o</w>
h old</w>
cour t</w>
thou gh</w>
选 举</w>
进 入</w>
出 席</w>
me chan
ir a
f t</w>
p m</w>
des ig
ex per
五 月</w>
p ay</w>
par ties</w>
gi ven</w>
nucle ar</w>
军 队</w>
h ome</w>
stud ents</w>
pl es</w>
ban k</w>
如 何</w>
事 务
ist s</w>
tr i
deleg ation</w>
u res</w>
2 8
di pl
武 器</w>
dipl om
r ic
social ist</w>
ta il
our s</w>
there fore</w>
work ers</w>
sp ace</w>
implement ation</w>
万 元</w>
布 什</w>
宣 布</w>
addi tion</w>
2 7</w>
r ad
ser ious</w>
bo ard</w>
2 8</w>
r ul
char ac
b rea
落 实</w>
fri day</w>
respon si
me et</w>
ex ports</w>
指 数</w>
uni vers
2 6</w>
s ession</w>
adv anced</w>
能 够</w>
h and</w>
世 界
一 定</w>
标 准</w>
规 划</w>
doll ars</w>
而 且</w>
of f</w>
将 会</w>
ch o
打 击</w>
官 员</w>
organiz ations</w>
int ro
对 于</w>
rec o
机 制</w>
扩 大</w>
协 议</w>
cep t</w>
centr e</w>
str u
establish ed</w>
abo ve</w>
ne t</w>
生 产
sp i
d oc
bet ter</w>
同 志</w>
exist ing</w>
in es</w>
mon th</w>
阶 段</w>
at ory</w>
as sist
月 份</w>
cour se</w>
d ate</w>
ag ain</w>
in ce</w>
泳 滩</w>
av ail
administr ative</w>
z ed</w>
m d</w>
lead ership</w>
亚 洲</w>
cer tain</w>
medi a</w>
inte rest</w>
修 订</w>
rec or
de n</w>
pers on</w>
hop e</w>
agre ement</w>
基 金</w>
author ity</w>
谈 判</w>
v ot
re f
t es</w>
regul ations</w>
拉 克</w>
应 该</w>
ho sp
d ance</w>
8 0</w>
th us</w>
男 子</w>
本 港</w>
i ally</w>
一九九 九年</w>
ac ts</w>
ex pl
ex ten
t ely</w>
conduc ted</w>
li m
d ru
st age</w>
shu i</w>
政 治
m y</w>
tt p</w>
ste p</w>
ow n
d ra
ci vil</w>
h ttp</w>
w est</w>
机 关</w>
friend ship</w>
ar ri
fac t</w>
创 新</w>
讨 论</w>
t yp
介 绍</w>
农 业</w>
执 行</w>
4 0</w>
台 独</w>
中 华
星期 三</w>
n am
造 成</w>
及 其</w>
arm ed</w>
sm all</w>
om e
九 月</w>
n a
proble m</w>
tr u
le e</w>
2 00</w>
mat er
符 合</w>
en s</w>
学 校</w>
十 五
重 点</w>
enc our
repres ents</w>
各 国</w>
z hou</w>
经 验</w>
se as</w>
trans port</w>
in ation</w>
七 月</w>
pos t</w>
reach ed</w>
al ities</w>
内 容</w>
ri t</w>
p ment</w>
in dic
d re
十二 月</w>
f il
一 直</w>
avail able</w>
是 否</w>
土 地</w>
spi rit</w>
形 势</w>
x i</w>
not ed</w>
持 续</w>
国 内</w>
金 融
sec tor</w>
fe w</w>
t or
per form
im p
4 .
报 道</w>
se par
许 多</w>
di es</w>
s cal
effec tive</w>
sec tion</w>
非 常</w>
el s</w>
良 好</w>
相 信</w>
del i
公 共
b ack</w>
上 午</w>
国 家
加 快</w>
re ly</w>
recei ved</w>
199 8</w>
clo se</w>
poin ts</w>
现 代
1 00</w>
科 学</w>
hous ing</w>
直 接</w>
o th
environ mental</w>
t on
g e
tr a
ne eds</w>
ad d
协 助</w>
fund ament
br ing</w>
m id
g er
j i</w>
十 一月</w>
产 业</w>
al y
书 记</w>
f lo
out side</w>
dem and</w>
训 练</w>
technolog ical</w>
ca use</w>
mar ke
李 鹏</w>
sel ves</w>
存 在</w>
法 院</w>
ther land</w>
miss ile</w>
fun d</w>
超 过</w>
er n
go ing</w>
democr atic</w>
de tail
me d
推 进</w>
priv ate</w>
d es</w>
over seas</w>
ar ing</w>
电 话</w>
tain ing</w>
上 海</w>
代表 团</w>
y oun
h ard</w>
z e</w>
mo therland</w>
ex c
三 个</w>
la ws</w>
do es</w>
事 业</w>
5 .
pers ons</w>
fo c
resul t</w>
大 会</w>
peac eful</w>
这 一</w>
at s</w>
w in
prov ince</w>
ic s</w>
t ory</w>
全 球</w>
p a
require ments</w>
责 任</w>
ide ological</w>
卫 生
一 百
&apos ;
du e</w>
decis ion</w>
ar re
main tain</w>
制 定</w>
vi g
ri es</w>
imple ment</w>
ven tion</w>
目 的</w>
t om
q i
res olu
工 业</w>
ob jec
me t</w>
i d</w>
on ed</w>
russi an</w>
provi ded</w>
equi pment</w>
十 月</w>
七 日</w>
sever al</w>
mis sion</w>
h ours</w>
zh ang</w>
年 来</w>
实 际</w>
r ap
受 到</w>
rec ently</w>
scho ols</w>
tas k</w>
be t</w>
3 1</w>
to ok</w>
weap ons</w>
所 以</w>
ti n</w>
ar ms</w>
scal e</w>
呼 吁</w>
al ong</w>
kore a</w>
gu id
con stitu
announ ced</w>
2 9</w>
关 注</w>
hu i</w>
achiev ements</w>
m ing</w>
6 0</w>
十 分</w>
in nov
stru gg
high er</w>
经 贸
获 得</w>
t ele
市 场
pre v
ne w
investig ation</w>
is tics</w>
贸 易
会 谈</w>
d y</w>
e y</w>
pres s</w>
b an</w>
de ep
l s</w>
正 式</w>
国 民
accor dance</w>
comprehen sive</w>
ai l</w>
ti bet</w>
artic le</w>
中 共</w>
sal es</w>
机 会</w>
本 地</w>
一 次</w>
二 月</w>
strateg y</w>
原 因</w>
立 场</w>
th em
r ural</w>
ve red</w>
asi an</w>
to ward</w>
涉 及</w>
只 有</w>
i or</w>
industri es</w>
结 束</w>
prof essi
t on</w>
f ound
stres sed</w>
九 日</w>
conduc t</w>
av y</w>
基 本
达 到</w>
f are</w>
an aly
共 和
六 日</w>
n ess</w>
competi tion</w>
the ory</w>
anc ing</w>
按 照</w>
城 市</w>
f ig
b ian</w>
so on</w>
gr ound</w>
res ol
理 论</w>
友 好</w>
三 日</w>
t able</w>
m r
工 作
四 日</w>
fac e</w>
exerc ise</w>
准 备</w>
mon y</w>
com ing</w>
认 识</w>
不 仅</w>
ch ing</w>
pur ch
il i
食 物</w>
中 方</w>
f y</w>
大 学</w>
volu me</w>
b or
范 围</w>
第 三
grou ps</w>
八 日</w>
医 院</w>
can not</w>
讲 话</w>
ter ms</w>
运 输</w>
ch es</w>
sh all</w>
各 种</w>
ag o</w>
pr ice</w>
p eng</w>
oper ations</w>
专 家</w>
arrang ements</w>
前 往</w>
op in
地 位</w>
inci dent</w>
super vision</w>
6 .
cul ture</w>
现代 化</w>
伊 拉克</w>
k il
ro w</w>
vi ol
e gu
exp an
ain ed</w>
财 政
ad ju
带 来</w>
s ar</w>
透 过</w>
nor m
t ting</w>
ar ound</w>
cle ar</w>
establish ment</w>
议 会</w>
tre m
星期 五</w>
ear li
saf egu
b ur
strength ening</w>
me an
fiel ds</w>
b al</w>
行 业</w>
li es</w>
l at
carri ed</w>
te ach
respon sible</w>
行 为</w>
vi du
indi vidu
d ly</w>
ic ations</w>
这 项</w>
ig r
af ric
全国 人
n ation
t arg
clo s
regi ons</w>
it er
quar ter</w>
ti al</w>
完 全</w>
t ren
respec tively</w>
es pec
espec ially</w>
experi ence</w>
co oper
on ce</w>
力 量</w>
st ance</w>
at ors</w>
reg ard</w>
最 大</w>
facil ities</w>
univers ity</w>
re duc
jo b</w>
u ally</w>
sig ned</w>
fundament al</w>
以 上</w>
histor ical</w>
com pl
居 民</w>
意 义</w>
lead er</w>
th y</w>
s ing
a u</w>
inclu de</w>
共 同
u .
d en
cor rec
n md</w>
g n
八 月</w>
集 团</w>
i ded</w>
curren tly</w>
价 格</w>
ex port</w>
custom s</w>
resp ect</w>
行 政</w>
en for
we b
成 果</w>
oi l</w>
ar i
posi tive</w>
人 口</w>
mon ey</w>
现 时</w>
so li
pub lish
三 个
来 自</w>
非 法</w>
三个 代表</w>
w il
西 藏</w>
ur s
su ff
pri me</w>
mon day</w>
pl ans</w>
s .</w>
时 候</w>
之 一</w>
propos ed</w>
7 .
p ac
found ation</w>
ce re
收 入</w>
s mo
d ong</w>
pre par
当 前</w>
过 程</w>
业 务</w>
草 案</w>
推 行</w>
ron g
inspec tion</w>
th urs
国 防
mor ning</w>
am b
更 加</w>
f el
d le</w>
共 产
两 岸
un it</w>
最 近</w>
se a</w>
is ra
d er</w>
卫 生</w>
al i
thurs day</w>
w rit
道 路</w>
下 跌</w>
形 成</w>
b ill</w>
tro ops</w>
se e
十 五</w>
2 0
主 任</w>
长 期</w>
bi g</w>
agricul tural</w>
gen er
负 责</w>
ha pp
服 务
mu ch</w>
il legal</w>
si ons</w>
个 案</w>
opportun ities</w>
earli er</w>
responsi bility</w>
direc t</w>
ex t
ac tions</w>
le t</w>
w u</w>
w at
diplom atic</w>
rel ation
buil d</w>
案 件</w>
thin king</w>
adv ant
intro duc
charac ter
长 官</w>
势 力</w>
go ti
ser ies</w>
ne goti
associ ation</w>
vehic les</w>
re view</w>
am end
fun ds</w>
glo bal</w>
人 才</w>
p e</w>
最 后</w>
新 闻
kin d</w>
ti ce</w>
ch all
chall eng
虽 然</w>
mo ve</w>
结 构</w>
tu esday</w>
offic es</w>
经 营</w>
p al</w>
re ply</w>
监 督</w>
ac a
or ies</w>
resid ents</w>
ing ly</w>
euro pe
mod ern
cor rup
i i</w>
de termin
repor ted</w>
inf lu
af ter
al low
th re
e ver
or ial</w>
199 7</w>
surve y</w>
斗 争</w>
im medi
ta x</w>
w ong</w>
form er</w>
exp ected</w>
f igh
ver s</w>
r ying</w>
estab lish</w>
arre sted</w>
斯 坦</w>
实 行</w>
amoun t</w>
举 办</w>
princi ples</w>
med ical</w>
答 复</w>
al though</w>
add res
贡 献</w>
ver age</w>
cor por
so ve
re main
v il
ac ci
两国 关系</w>
up on</w>
s w
for um</w>
相 关</w>
那 么</w>
st oc
s k
vie w
them selves</w>
c are</w>
p al
mid dle</w>
de red</w>
st er
g et</w>
europe an</w>
变 化</w>
cere mony</w>
p ay
re ports</w>
签 署</w>
d ence</w>
w ide</w>
sup por
bro ad
hou se</w>
aca dem
整 体</w>
r ound</w>
dre n</w>
chil dren</w>
充 分
fun c
clo sed</w>
行政 长官</w>
查 询</w>
利 于</w>
commer cial</w>
体 制</w>
stand ards</w>
s ay</w>
fam ily</w>
祖 国</w>
一 种</w>
pr ices</w>
popul ation</w>
之 后</w>
plac es</w>
展 开</w>
mo tion</w>
pro vis
mat ter</w>
规 模</w>
新 世纪</w>
信 息</w>
警 察</w>
sho w</w>
an ds</w>
requi red</w>
时 期</w>
ever y
dec reas
公 开</w>
bel iev
at tr
体 系</w>
streng th</w>
d r</w>
re public</w>
bel ieve</w>
re al</w>
邀 请</w>
impro ving</w>
增 强</w>
rong ji</w>
同 期</w>
一 般</w>
mit ted</w>
d pr
ex hi
dpr k</w>
charg e</w>
2 5
保 证</w>
proper ty</w>
分 析</w>
ach ieve</w>
man u
海 关</w>
en ding</w>
it ation</w>
con f
专 业</w>
com pu
th an
reg arding</w>
war ds</w>
s a
s olu
con sum
is ing</w>
s em
no on</w>
rou ght</w>
stat ement</w>
欧 盟</w>
strugg le</w>
inde x</w>
le dge</w>
a k</w>
鼓 励</w>
作 战</w>
plan e</w>
crimin al</w>
lo o
imm igr
竞 争</w>
car rying</w>
还 是</w>
起 来</w>
tu ally</w>
优 势</w>
dis ci
台湾 当局</w>
main ly</w>
su n
coll ec
主 权</w>
方 法</w>
youn g</w>
manu fac
fron t</w>
under stand</w>
共 识</w>
d ings</w>
qui ries</w>
mac ao</w>
装 备</w>
wom en</w>
thin k</w>
acti vely</w>
re duce</w>
pac i
be ach</w>
f ree</w>
hosp ital</w>
pos ed</w>
最 高</w>
e ast
u. s.</w>
两岸 关系</w>
经 过</w>
applic ation</w>
完 善</w>
gre ater</w>
st ation</w>
f our
res er
reg ist
institu tions</w>
fiel d</w>
imp act</w>
各 项</w>
cre ate</w>
he ar
eff ect</w>
h y
独 立</w>
f re
和 平
se ts</w>
分 裂</w>
ic ally</w>
iz ing</w>
sur ance</w>
挑 战</w>
h on
us es</w>
批 准</w>
appro ved</w>
h u</w>
di al
ai med</w>
商 品</w>
paci fic</w>
发 出</w>
ow ned</w>
d at
reig n
陈 水
陈水 扁</w>
ac tive</w>
联 合</w>
介 乎</w>
eff ici
民 主
检 讨</w>
tur ing</w>
te am</w>
inter net</w>
form ul
or ig
f av
gu ar
comb at</w>
ir e</w>
机 场</w>
s atis
lo ok</w>
tech n
ira q</w>
先 生</w>
s d</w>
relation ship</w>
文 件</w>
因 素</w>
comple ted</w>
常 委会</w>
宣 传</w>
f ail
程 序</w>
disci pl
en erg
b est</w>
一 点</w>
nat ure</w>
mo bil
选 择</w>
军 事
ci es</w>
改 革
mechan ism</w>
program me</w>
ann ual</w>
团 体</w>
particul ar</w>
l ater</w>
y our</w>
assist ance</w>
s ent</w>
g e</w>
pur pose</w>
ch ung</w>
represent atives</w>
ap er</w>
cent er</w>
先 进</w>
con nec
ser ve</w>
外交 部</w>
t our
adop ted</w>
invol ved</w>
st er</w>
en quiries</w>
需 求</w>
enfor cement</w>
ha ving</w>
还 有</w>
appro pri
pr c</w>
综 合</w>
网 络</w>
信 息
才 能</w>
sen ior</w>
four th</w>
科 学
electr on
oth ers</w>
h ot
资 金</w>
progr am</w>
con fi
w ent</w>
首 先</w>
te red</w>
友好 合作</w>
is land</w>
ye t</w>
sou th
opportun ity</w>
1 8
人 们</w>
进 程</w>
a z
modern ization</w>
s qu
d ents</w>
方 向</w>
web site</w>
co ordin
培 训</w>
ci vil
id enti
lo on</w>
doc u
系 列</w>
concer n</w>
th ings</w>
y ang</w>
c c</w>
publish ed</w>
个 人</w>
产 生</w>
资 产</w>
t s
&apos; t</w>
对 话</w>
d ro
b l
设 计</w>
o gu
sec u
看 到</w>
ne ver</w>
k ow
att ended</w>
impro vement</w>
continu ed</w>
accoun t</w>
bri ef
ci ties</w>
面 临</w>
mon it
贷 款</w>
kore an</w>
se ven</w>
a king</w>
ti s
s ome
朝 鲜</w>
pl ay
kow loon</w>
解 放
emplo ye
marke ts</w>
av oi
li ving</w>
e th
repor ter</w>
facil it
organ is
就 业</w>
advis ed</w>
en jo
re fl
in come</w>
le ft</w>
f a
net work</w>
re turn</w>
欧 洲</w>
prac tic
rele ased</w>
u es</w>
b s</w>
mun ici
e u</w>
li a
v o
su st
召 开</w>
广 泛</w>
t est</w>
表 现</w>
tu de</w>
we i</w>
避 免</w>
19 8
改革 开放</w>
五 十
课 程</w>
o d
给 予</w>
v ill
飞 机</w>
六 年</w>
p ed</w>
pur su
increas ing</w>
ke ep</w>
an te
cr aft</w>
英 国</w>
形 式</w>
一 方面</w>
购 买</w>
另 外</w>
有 利于</w>
su spec
tren d</w>
7 0</w>
t old</w>
e ts</w>
de man
le a
根 本
know ledge</w>
t ang</w>
guar ante
enterpris e</w>
de st
很 多</w>
xi a
结 合</w>
t elec
l ong
lim ited</w>
sal e</w>
in surance</w>
s aying</w>
a h</w>
1 5
h er
改 变</w>
对 此</w>
sup ply</w>
organ s</w>
h ong
注 意</w>
ac ross</w>
ser i
a vi
联 系</w>
su sp
k now</w>
exper ts</w>
每 年</w>
un ion</w>
comp ared</w>
承 认</w>
de b
一 切</w>
中 美
e ver</w>
r ade</w>
al ed</w>
elec ted</w>
prov inci
com rade</w>
exhi bi
tr an
tas ks</w>
ess es</w>
房 屋</w>
provinci al</w>
e ight</w>
con clu
困 难</w>
su gg
p ai
j in
dru g</w>
character istics</w>
on es</w>
norm al</w>
设 立</w>
共产 党</w>
fir e</w>
办 公
一 九
广 大</w>
最 新</w>
con c
甚 至</w>
亚 太
旅 游</w>
对 外</w>
do m</w>
di ver
dec ided</w>
tu res</w>
americ an</w>
pp ed</w>
pre vi
r an
sove reign
首 次</w>
sh a</w>
hand ling</w>
四 十
不 过</w>
sovereign ty</w>
香港 特
sec tors</w>
登 辉</w>
实 践</w>
今 后</w>
sum mit</w>
pro s
e qu
as ked</w>
李 登辉</w>
tai l</w>
d on
m ented</w>
部 署</w>
detail s</w>
ic k
推 广</w>
反 映</w>
公 务
农 村</w>
li g
多 年</w>
corrup tion</w>
ne igh
se tt
ish ed</w>
c ru
applic ations</w>
le ad</w>
同 意</w>
控 制</w>
indi a</w>
o t</w>
传 统</w>
ven ess</w>
q ian</w>
after noon</w>
y ed</w>
帮 助</w>
govern ments</w>
会 晤</w>
年 度</w>
st o
gre at
ab ly</w>
入 境</w>
pers onal</w>
pros per
m ary</w>
致 电</w>
c all</w>
air craft</w>
par k</w>
家 庭</w>
our ce</w>
commun ist</w>
pe as
ca used</w>
ass ess
态 度</w>
st able</w>
评 估</w>
l c
immigr ation</w>
stat us</w>
mar ks</w>
进 展</w>
particul arly</w>
cri me</w>
b rought</w>
声 明</w>
分 子</w>
comple te</w>
印 度</w>
con sen
st y
星期 四</w>
agricul ture</w>
consult ation</w>
位 于</w>
re tur
a verage</w>
re volu
rul es</w>
ur ban</w>
公务 员</w>
heal thy</w>
cam pai
succ ess</w>
u an</w>
所 谓</w>
大 家</w>
lab our</w>
campai g
inter nal</w>
guang dong</w>
reg istr
ch i</w>
o m</w>
各 级</w>
五 日</w>
euro pe</w>
ti m
implement ing</w>
vig or
part n
p ati
com par
consen sus</w>
资 助</w>
承 诺</w>
enti re</w>
stand ard</w>
ten g</w>
t em
perform ance</w>
八 年</w>
speci fic</w>
er y</w>
c ame</w>
li u</w>
卫生 署</w>
共和 国</w>
星期 一</w>
f ine</w>
运 作</w>
积 极
ac cep
u ph
stri bu
di stribu
dat a</w>
正 常</w>
深 入</w>
throu gh
网 站</w>
sat ur
clos ely</w>
达 成</w>
外 交</w>
做 好</w>
difficul t</w>
reli g
q ing</w>
at ta
人 数</w>
laun ched</w>
金 融</w>
面 对</w>
谘 询</w>
beg in
ye ster
oc cu
imple mented</w>
中美 关系</w>
yester day</w>
spe ed</w>
民 主</w>
配 合</w>
j us
fe d
wel come</w>
n n</w>
provi ding</w>
雇 员</w>
创 造</w>
do ing</w>
seri ously</w>
an y
sh en
dra w
pass eng
cl ass</w>
再 次</w>
二 日</w>
urg ed</w>
techn ical</w>
professi onal</w>
消 费</w>
表 明</w>
prev ent</w>
协 会</w>
h on</w>
mar k</w>
全 球
真 正</w>
dep lo
负 责
success ful</w>
下 降</w>
att emp
dial ogu
管 局</w>
ist an</w>
b ack
意 外</w>
进 口</w>
ag ing</w>
自 由</w>
im um</w>
区 政府</w>
effor t</w>
bo dy</w>
treat ment</w>
m om
方 针</w>
se ek</w>
main taining</w>
join tly</w>
0 ,000</w>
ch ai</w>
电 子</w>
b att
防 御</w>
t ation</w>
权 利</w>
明 确</w>
拥 有</w>
tow n</w>
si vely</w>
世 贸
e ding</w>
巴 士</w>
主 张</w>
at h</w>
t su
联 盟</w>
de mon
价 值</w>
k i
wil ling</w>
ati vely</w>
difficul ties</w>
犯 罪</w>
shi ps</w>
exam ple</w>
cer ti
用 途</w>
writ ten</w>
坚 决</w>
shor t</w>
lat est</w>
si zed</w>
pre ci
achiev ed</w>
德 国</w>
er ous</w>
d ou
资 讯
demon str
至 于</w>
进 步</w>
energ y</w>
提 交</w>
世贸 组织</w>
仍 然</w>
媒 体</w>
秘 书
p li
me tho
telec om
星期 二</w>
st ay</w>
expl or
确 定</w>
5 00</w>
d ers</w>
respon se</w>
具 体</w>
we ek</w>
pal est
f le
随 着</w>
electron ic</w>
当 时</w>
威 胁</w>
vi a</w>
联 络</w>
知 道</w>
感 谢</w>
star ted</w>
in e
9 .
an ti
总 值</w>
telecom mun
e ded</w>
at ri
罚 款</w>
am es</w>
d ang
mean while</w>
reco gn
e du
cor e</w>
数 据</w>
cap ac
尤 其</w>
美 方</w>
territ ory</w>
ex trem
dri ve</w>
at or</w>
200 7</w>
high ly</w>
he avy</w>
管 制</w>
larg est</w>
agre ed</w>
p aid</w>
ti tude</w>
网 页</w>
cle arly</w>
si mil
m al
stoc k</w>
exp and</w>
fig ures</w>
检 查</w>
条 约</w>
individu al</w>
不 少</w>
外 国</w>
程 度</w>
ac ks</w>
avoi d</w>
bu dg
air port</w>
foc us</w>
it al
en try</w>
一 系列</w>
这 里</w>
科 技
reas on</w>
维 持</w>
相 互
im port</w>
trad iti
fol low</w>
8 .
t un
违 反</w>
尽 快</w>
sp ir
ta i</w>
man ner</w>
m ag
医 生</w>
事 处</w>
mp ;</w>
&a mp;</w>
发展 中
发展中 国家</w>
se qu
exhibi tion</w>
pl a</w>
h a</w>
b ase</w>
协 调</w>
hop es</w>
sch edu
例 如</w>
mod ern</w>
exp lo
c pp
satur day</w>
wh y</w>
ti v
cr is
addres s</w>
dr aft</w>
199 6</w>
propos al</w>
cpp cc</w>
此 次</w>
办 法</w>
immedi ately</w>
大 常委会</w>
spe aking</w>
m er
aff ected</w>
消 息</w>
商 业</w>
cont act</w>
consid er</w>
ar ies</w>
show s</w>
po ten
appropri ate</w>
今 天
t ung</w>
re ach</w>
gr ap
4 5</w>
on ing</w>
begin ning</w>
资讯 科技</w>
vis ited</w>
b ed</w>
mul ti
low er</w>
le t
福 利</w>
技 术
coun ter
法 国</w>
campaig n</w>
y s</w>
i l</w>
美 军</w>
b ay</w>
来 说</w>
方 案</w>
ph one</w>
根 本</w>
tr ust</w>
extrem ely</w>
ro ad
nn nn</w>
ac ting</w>
it self</w>
研 究
临 时</w>
恢 复</w>
lin ks</w>
negoti ations</w>
素 质</w>
st ment</w>
国 有
committe es</w>
chang ed</w>
关 心</w>
capac ity</w>
状 况</w>
战 略
k w
发 行</w>
业 界</w>
traditi onal</w>
1 ,
全 部</w>
刊 物</w>
ch ec
k u
nat ural</w>
orig in
de al</w>
cir c
大 量</w>
n ame</w>
重 要
qu e</w>
wel fare</w>
ton om
au tonom
sty le</w>
利 亚</w>
re pe
grad ually</w>
s ense</w>
propos als</w>
bu s</w>
star t</w>
hk t</w>
海 外</w>
ti veness</w>
人 类</w>
signific ance</w>
韩 国</w>
环 境
to p</w>
ou gh</w>
援 助</w>
口 货</w>
提 问</w>
t ect</w>
t ings</w>
employe es</w>
ac tual</w>
cen sus</w>
par ts</w>
九 龙</w>
ex ce
监 察</w>
fir m
lo t</w>
适 应</w>
限 制</w>
整 个</w>
s cen
各 地</w>
论 坛</w>
劳 工
有 限
innov ation</w>
区 域</w>
知 识</w>
委员 长</w>
objec tive</w>
队 伍</w>
引 起</w>
ac ted</w>
针 对</w>
ex ter
cooper ative</w>
du ty</w>
正 确</w>
social ism</w>
acc el
女 士</w>
适 当</w>
re comm
g l
benef it</w>
农 民</w>
reas ons</w>
f er
ch eng</w>
趋 势</w>
p il
ju dic
inf ra
预 计</w>
1 3
regist ered</w>
ang u
fin d</w>
近 年来</w>
sh are</w>
七 年</w>
it ors</w>
sh a
现 有</w>
g s</w>
澳 门</w>
re tail</w>
cl es</w>
运 动</w>
时 代</w>
sat ell
友 谊</w>
秩 序</w>
condi tion</w>
treat y</w>
t op
metho ds</w>
un ti
以 色
w ant</w>
gen cy</w>
mater ials</w>
钱 其
钱其 琛</w>
经 贸</w>
peas ants</w>
dis e
大 使</w>
contribu tions</w>
ti an</w>
compu ter</w>
署 长</w>
少 年</w>
or i
调 查
a way</w>
拘 捕</w>
手 段</w>
comp atri
文 明</w>
防 止</w>
sem in
cl int
很 大</w>
y s
党 的
har b
de fin
合 理</w>
质 量</w>
证 明</w>
concer ning</w>
ch i
qu ite</w>
nor th
当 地</w>
vis iting</w>
enc ed</w>
平 均</w>
有限 公司</w>
co st</w>
危 机</w>
cop e</w>
法 例</w>
e f</w>
emp ha
v ol
comm and</w>
开 支</w>
注 册</w>
支 援</w>
play ed</w>
facilit ate</w>
小 时</w>
mul t
p o</w>
clint on</w>
高 度</w>
mar x
应 当</w>
尊 重</w>
a w
两 制</w>
ai m</w>
correc t</w>
vis its</w>
ga ve</w>
y ou
ru n</w>
pris on
fac ts</w>
esti m
appro val</w>
to o</w>
团 结</w>
rad i
compatri ots</w>
stri ve</w>
st op</w>
previ ous</w>
qu e
wom an</w>
修 改</w>
lo ws</w>
ing ton</w>
cul t</w>
当 中</w>
公 共</w>
之 前</w>
体 现</w>
quar ters</w>
投 资
du res</w>
制 造</w>
n in
exter nal</w>
rang e</w>
con si
pri mary</w>
gr ade</w>
雇 主</w>
proce dures</w>
lic en
d am
周 年</w>
比 赛</w>
明 显</w>
w id
中 共
pro tect</w>
ess ing</w>
除 了</w>
接 触</w>
儿 童</w>
po st
con sist
加 大</w>
oun ding</w>
arri ved</w>
感 到</w>
a pe
de al
邪 教</w>
路 线</w>
hol ding</w>
高 度
基 地</w>
w ash
p an
m ad
成 就</w>
d one</w>
以色 列</w>
合 约</w>
unti l</w>
民 政</w>
tec h</w>
stor e</w>
repor ters</w>
bal ance</w>
多 个</w>
湾 仔</w>
晚 上</w>
为 何</w>
st ations</w>
西 方</w>
d eng</w>
同 胞</w>
in ed</w>
ass ad
竞 争
sun day</w>
amb assad
commer ce</w>
fe at
高 兴</w>
buil dings</w>
楼 宇</w>
connec tion</w>
institu te</w>
main tained</w>
ter r
indic ated</w>
汽 车</w>
公共 关系</w>
研 讨
t le</w>
cris is</w>
c are
re ve
grap h
1 4
1 6
stan ces</w>
财 政</w>
re stric
out standing</w>
ev ent</w>
accel er
medi um</w>
att ack</w>
数 量</w>
q i</w>
lab or</w>
ti z
consum er</w>
ta x
su mp
c y
o s</w>
ju dg
boo k
effec tively</w>
jus tice</w>
go al</w>
prac tical</w>
电 子
演 习</w>
zh en</w>
ap poin
社 区</w>
li b
展 览</w>
exam ination</w>
核 心</w>
机 遇</w>
基本 法</w>
两国 人民</w>
s ports</w>
discipl ine</w>
inclu ded</w>
访 华</w>
一 国
im ports</w>
设 备</w>
中国 共产党</w>
一国 两制</w>
direc tly</w>
peop les</w>
figh ting</w>
adv ance</w>
冲 突</w>
ro ots</w>
认 真</w>
ban ks</w>
对 外
rap id</w>
19 7
f air</w>
审 议</w>
sit es</w>
fin ance</w>
导 致</w>
re vis
研讨 会</w>
am e
pro secu
pro motion</w>
管理 局</w>
pol lu
克 林
mee tings</w>
马 克
ape c</w>
fre e
一 千
ren ces</w>
prosper ity</w>
encour age</w>
执 法</w>
jo in</w>
flo or</w>
la w
第 一</w>
su n</w>
逐 步</w>
住 宅</w>
港 元</w>
ji an</w>
特 色</w>
y mp
telecommun ications</w>
199 5</w>
tele vision</w>
nin th</w>
历 史
迅 速</w>
信 心</w>
意 识</w>
as sets</w>
贯 彻</w>
x ed</w>
t v</w>
ob serv
负责 人</w>
ou l
challeng es</w>
opin ion</w>
ach es</w>
办 事处</w>
public ations</w>
gen eration</w>
一 致</w>
f requ
en s
ta o</w>
消 费
ol ymp
效 益</w>
ma x
is on</w>
guid el
四 个</w>
h in
说 明</w>
resid ential</w>
交 通
dialogu e</w>
fac tors</w>
采 用</w>
ep ing</w>
qu ali
li ve</w>
discus sion</w>
simil ar</w>
半 年</w>
pre vention</w>
il es</w>
年 代</w>
事 实</w>
sump tion</w>
联 网</w>
fin al</w>
allow ed</w>
through out</w>
市场 经济</w>
con vic
at titude</w>
死 亡</w>
effici ency</w>
c ro
re ally</w>
f ying</w>
enh ancing</w>
firm ly</w>
oc cur
3 5</w>
conf lic
adop t</w>
推 出</w>
pp ing</w>
有 人</w>
benef its</w>
始 终</w>
3 00</w>
cir cles</w>
sub ject</w>
est s</w>
zh i</w>
relig ious</w>
m ight</w>
con ven
loc ated</w>
isra el</w>
inf o</w>
op ing</w>
二 十</w>
registr ation</w>
be half</w>
s or
fav or
组 成</w>
数 目</w>
提 升</w>
多 次</w>
confi dence</w>
指 导</w>
laun ch</w>
巨 大</w>
east ern</w>
日 前</w>
总 书记</w>
se en</w>
l in</w>
know n</w>
g ar
ple ase</w>
tour ism</w>
see king</w>
充 分</w>
民 众</w>
公 园</w>
9 0</w>
政 局</w>
国 会</w>
电 脑</w>
re forms</w>
ne ar</w>
ti ves</w>
ra ise</w>
提 醒</w>
切 实</w>
commis si
min d</w>
力 度</w>
ph ys
新 社</w>
录 得</w>
i ding</w>
愿 意</w>
那 个</w>
然 而</w>
an ces</w>
补 充</w>
规 范</w>
或 者</w>
ri ver</w>
两 年</w>
fac ing</w>
pro spec
independ ent</w>
fr ance</w>
b on
费 用</w>
un ity</w>
仪 式</w>
ap ply</w>
总 额</w>
ra il
r ise</w>
c p
最 终</w>
ig g
b road</w>
t a</w>
it able</w>
b ers</w>
从 而</w>
m enti
develop ments</w>
am s</w>
discus s</w>
双 边
ish ing</w>
事务 处</w>
ann i
马克 思
ail y</w>
外 长</w>
亦 可</w>
非 洲</w>
此 间</w>
教 授</w>
cri mes</w>
di ed</w>
星期 六</w>
glo bal
详 情</w>
y u</w>
ill s</w>
de ep</w>
stric tly</w>
青 少年</w>
show ed</w>
破 坏</w>
atten d</w>
er ly</w>
b om
d aily</w>
cont acts</w>
ai ms</w>
regul ar</w>
invol ving</w>
ger many</w>
acci dent</w>
地 点</w>
污 染</w>
s is</w>
s ent
wor ds</w>
p t</w>
ac tually</w>
建 筑
电 视
p aper</w>
事 故</w>
terr or
op ened</w>
regul ation</w>
必 要</w>
fo re
政 协</w>
hou se
wash ington</w>
重 申</w>
u h</w>
str ong
d own
au str
acc ess</w>
mr s</w>
收 费</w>
impro ved</w>
以 后</w>
de ath</w>
hol ds</w>
司 长</w>
poten tial</w>
一 起</w>
全国人 大常委会</w>
锦 涛</w>
登 记</w>
胡 锦涛</w>
pro p
circ um
投 入</w>
us h</w>
typ e</w>
成 绩</w>
依 法</w>
培 养</w>
人民 币</w>
sti pul
austr al
ap preci
邓 小
立 法</w>
per man
end it
mo re
共同 努力</w>
五 十</w>
xia oping</w>
inten si
com es</w>
s la
success fully</w>
al low</w>
st a
exp endit
afric a</w>
vehic le</w>
h all</w>
ci tiz
参 观</w>
legisl ation</w>
deman ds</w>
con tain
che ung</w>
全球 化</w>
ic ation</w>
believ ed</w>
至 今</w>
more over</w>
a head</w>
vers ary</w>
form ed</w>
em er
一 段</w>
direc tion</w>
provis ions</w>
n ight</w>
多 数</w>
di vision</w>
can di
指 挥</w>
顺 利</w>
预 算</w>
li gh
infra structure</w>
s inc
de g
公 安
acc ession</w>
ven ue</w>
r ates</w>
通 知</w>
p un
maj ority</w>
警 告</w>
b ang
资 讯</w>
w in</w>
y i</w>
统计 调查</w>
l it
vie t
o re
miss iles</w>
co vered</w>
investig ations</w>
巩 固</w>
tis h</w>
攻 击</w>
m us
b order</w>
第 四
deg ree</w>
s ource</w>
dest ro
ver sion</w>
hand le</w>
资 格</w>
ra ther</w>
p ic
fir m</w>
试 验</w>
s on</w>
resol ve</w>
成 效</w>
从 事</w>
comple tely</w>
wh ite</w>
m oun
anni versary</w>
透 露</w>
co ver</w>
出 售</w>
rel atively</w>
desig n</w>
mar ine</w>
铁 路</w>
祖 国
st ly</w>
r un
担 任</w>
第 二</w>
hop ed</w>
交 往</w>
模 式</w>
as h</w>
w on</w>
ab road</w>
introduc ed</w>
influ ence</w>
解 释</w>
总 部</w>
w an
consi dered</w>
shen zhen</w>
越 来
budg et</w>
并 且</w>
signific ant</w>
lan ds</w>
bri tish</w>
罪 行</w>
ambassad or</w>
另 一方面</w>
繁 荣</w>
中华 人民
马克思 主义</w>
员 工</w>
s ays</w>
l angu
star ting</w>
en e</w>
as pec
lo ans</w>
aspec ts</w>
w en</w>
z ha
me dic
ent er</w>
w ish</w>
id es</w>
respec tive</w>
max imum</w>
po or</w>
et ary</w>
实 际
即 将</w>
立 即</w>
在 内</w>
prof ess
p ak
bo dies</w>
预 防</w>
矛 盾</w>
封 闭</w>
工 业
produc t</w>
知 识
共 有</w>
为 期</w>
pres sure</w>
al e</w>
educ ational</w>
s u</w>
compl ain
brea k
g ames</w>
st ated</w>
pass ed</w>
oper ating</w>
策 略</w>
密 切</w>
199 2</w>
vi r
pre mis
eth n
腐 败</w>
sol di
re main</w>
menti oned</w>
in form</w>
kin ds</w>
ques tions</w>
pro mis
eng ine
e as
转 变</w>
se tting</w>
p pr
minist ers</w>
amend ment</w>
tic ally</w>
represent ative</w>
coun ty</w>
guarante e</w>
然 后</w>
百分之 十
只 要</w>
只 是</w>
y i
基 础
别 行政
ru le</w>
突 出</w>
ph ase</w>
以 便</w>
as p
sh an</w>
康 乐</w>
loc alities</w>
局 势</w>
stan tly</w>
re ality</w>
recor ded</w>
朋 友</w>
做 法</w>
we a
mobil e</w>
vill age</w>
afric an</w>
秘书 长</w>
favor able</w>
great ly</w>
we e
mu gg
or ing</w>
空 间</w>
ro om</w>
st am
safegu ard</w>
出 来</w>
办公 室</w>
en able</w>
ad ic
offic er</w>
cap ability</w>
ab solu
perman ent</w>
bec om
j our
b es
appoin t
初 步</w>
y es</w>
ppr b</w>
大 型</w>
tra vel</w>
革 命</w>
速 度</w>
克林 顿</w>
两 名</w>
y or
di t</w>
节 目</w>
无 法</w>
r ain
en em
inv itation</w>
proper ly</w>
li k
vis itors</w>
文 章</w>
r ich</w>
lis t</w>
半 岛</w>
s mugg
六 十
当 然</w>
ste ad
n ar
党 中央</w>
teach ers</w>
abil ities</w>
sh ar
pro cur
越来 越</w>
运 用</w>
consid eration</w>
b loc
个 月</w>
ne arly</w>
di st
规 则</w>
im prison
r s</w>
lin es</w>
交 换</w>
ch an</w>
z one</w>
现 象</w>
suspec ted</w>
imprison ment</w>
fr ame
democr acy</w>
s c
北 京
ethn ic</w>
judic ial</w>
fi f
ten ance</w>
circum stances</w>
国 防</w>
in st
func tions</w>
guid ance</w>
告 知</w>
global ization</w>
驾 驶</w>
它 们</w>
struc tural</w>
党 委</w>
yor k</w>
particip ate</w>
can ad
provi des</w>
mat ters</w>
ac king</w>
货 物</w>
continu ously</w>
海 军</w>
外 资</w>
squ are</w>
main tenance</w>
corpor ation</w>
re marks</w>
dis pu
现 场</w>
工 程
hy gi
和平 统一</w>
一 部分</w>
in sul
尽 管</w>
关 键</w>
mad am</w>
w al
民 族
super vis
sub stan
局 局长</w>
poli tics</w>
emer gency</w>
投 诉</w>
年 底</w>
一 行</w>
form ation</w>
frame work</w>
cer tain
con soli
buil t</w>
高 层</w>
f ight</w>
内 部</w>
pr in
h om
s am
bo ok</w>
ass emb
harb our</w>
gi ving</w>
con cept</w>
beg an</w>
平 等</w>
is es</w>
s co
integr ity</w>
loc ation</w>
ke eping</w>
secon d
tom or
resolu tion</w>
se ar
eng lish</w>
atten ding</w>
强 烈</w>
tomor row</w>
生产 力</w>
appe al</w>
pa ren
vic ti
出 版</w>
oun ded</w>
k y
宗 教</w>
不 要</w>
ord ers</w>
卫 星</w>
stu dies</w>
十 一
wea ther</w>
en cies</w>
顾 问</w>
青 年</w>
三 十</w>
v ity</w>
ing ing</w>
hk sar</w>
n om
assess ment</w>
ap pointed</w>
危 险</w>
有 着</w>
appro ach</w>
职 业</w>
理 解</w>
回 答</w>
and a</w>
l aid</w>
ad ding</w>
establish ing</w>
second ary</w>
零 年</w>
完 整</w>
中 小
partn ership</w>
1 7
觉 得</w>
0 %</w>
货 币</w>
opin ions</w>
a wa
e state</w>
d p</w>
lear ning</w>
autonom ous</w>
动 力</w>
b ar
劳工 处</w>
华 盛
国有 企业</w>
分 区</w>
t ou
b ra
压 力</w>
精 神
pl en
discus sed</w>
g as</w>
f esti
先 后</w>
h o</w>
计 算</w>
territ orial</w>
ro k</w>
in side</w>
前 景</w>
oun ds</w>
互 联网</w>
c ar</w>
风 险</w>
旨 在</w>
profess or</w>
op position</w>
自 治
网 上</w>
交 易</w>
sh i</w>
n an
depu ties</w>
2 4
2 3
总 署</w>
s ound</w>
occu p
s pre
is c
gr ain</w>
事 宜</w>
ma k
lear ned</w>
面 积</w>
一 样</w>
tem por
neigh bor
al ization</w>
agre ements</w>
本 会</w>
to wards</w>
ra ised</w>
司 法</w>
me t
建 筑</w>
零 售
美国 政府</w>
palest in
ar ti
相 当</w>
comm and
制 造
safegu arding</w>
mee ts</w>
附 近</w>
certi fic
le ast</w>
支 付</w>
satell ite</w>
el l</w>
民 进
指 引</w>
三十 分</w>
s ources</w>
pl us</w>
k ok</w>
thou ght</w>
reve aled</w>
radi o</w>
commun ications</w>
dec l
br an
per f
vigor ously</w>
c old</w>
r ace</w>
guidel ines</w>
ch em
brea k</w>
phys ical</w>
x ing</w>
集 中</w>
pro vision</w>
ts ang</w>
te sts</w>
sh e
我 军</w>
g et
做 出</w>
事 情</w>
el im
d ates</w>
jin tao</w>
th u
t end
conduc ting</w>
明 年</w>
涉 嫌</w>
diffe rences</w>
qi chen</w>
国民 党</w>
proc essing</w>
amend ments</w>
政 党</w>
new sp
stud ying</w>
e an</w>
决 策</w>
牌 照</w>
ast er</w>
sol ve</w>
docu ments</w>
统计 数字</w>
民进 党</w>
大 厦</w>
外 汇</w>
日 本
real ize</w>
c ast</w>
addi tional</w>
con stantly</w>
targ et</w>
charg ed</w>
as si
analy sis</w>
u ti
me th
特 殊</w>
各 个
le ment</w>
si mp
s cope</w>
advant ages</w>
水 质</w>
处 于</w>
建 交</w>
pr a
平 衡</w>
全国人 大</w>
l ate</w>
inv ited</w>
f arm
an im
看 法</w>
保 险</w>
遵 守</w>
旅 客</w>
n ine</w>
loo king</w>
国民 经济</w>
深 化</w>
ch a
解放 军</w>
三十 日</w>
particip ation</w>
adv oc
li ance</w>
experi ences</w>
con scienti
法 律
olog y</w>
mater ial</w>
禁 止</w>
satis fac
5 %</w>
十 年</w>
结 构
普 遍</w>
wh e
oper ators</w>
hygi ene</w>
2 7
航 空
rad es</w>
purch ase</w>
cle an</w>
教 师</w>
gr as
可 否</w>
plac ed</w>
com rades</w>
那 些</w>
munici pal</w>
pre c
而 是</w>
int el
fe el
be aches</w>
wor th</w>
el ements</w>
recor d</w>
pen insul
langu age</w>
电 讯</w>
thre at</w>
规 例</w>
入 境
sel ling</w>
qu ick
commit ted</w>
head s</w>
dep th</w>
initi ative</w>
满 意</w>
大 部分</w>
安 全
pu tin</w>
organ ized</w>
基 层</w>
a part</w>
质 素</w>
us ers</w>
inc es</w>
三 通</w>
te dly</w>
sing a
磋 商</w>
女 子</w>
地 带</w>
表 示
ar ily</w>
一 批</w>
bec ame</w>
邮 政</w>
monit oring</w>
happ y</w>
经 常</w>
星期 日</w>
中华 民族</w>
个 别</w>
is tic</w>
tru th</w>
拨 款</w>
如 此</w>
prov inces</w>
view ed</w>
书 面</w>
cor respon
num bers</w>
重 新</w>
估 计</w>
lab or
intel lig
一 条</w>
ev ening</w>
掌 握</w>
应 用</w>
公 里</w>
被 捕</w>
时 说</w>
fe el</w>
丰 富</w>
scen e</w>
ac compl
00 ,000</w>
职 位</w>
j ur
d p
一 位</w>
territ ories</w>
199 4</w>
的 话</w>
con serv
经贸 合作</w>
清 楚</w>
ji a
head quarters</w>
ma chin
in ste
采 访</w>
二 百
成 本</w>
pay ment</w>
现 正</w>
探 索</w>
大 楼</w>
增 长
invest ors</w>
学 院</w>
organis ations</w>
lo ad
区 内</w>
y an</w>
中 美</w>
政 府
企 图</w>
prop ag
passeng ers</w>
particip ants</w>
distribu tion</w>
官 兵</w>
on er</w>
电 视</w>
议 案</w>
病 人</w>
方 便</w>
typ es</w>
enjo y</w>
produc tive</w>
m ass</w>
李 洪
中国 人民
自 然</w>
检 察
其 实</w>
curren cy</w>
secur ities</w>
i ed</w>
di g
dang erous</w>
ess ed</w>
b ound
增 进</w>
内 外</w>
kil led</w>
l u</w>
不 可</w>
cre ated</w>
require ment</w>
怀 疑</w>
mi d</w>
ag gres
cent res</w>
op pos
lib eration</w>
exten sive</w>
peninsul a</w>
exc ell
du ties</w>
cont ent</w>
hong zhi</w>
charg es</w>
al ty</w>
一 贯</w>
reas on
long er</w>
lik ely</w>
协 定</w>
p ush</w>
own ers</w>
m ess
est ed</w>
战 斗
李洪 志</w>
inste ad</w>
festi val</w>
f u</w>
标 志</w>
军 委</w>
主 持</w>
empha sized</w>
监 管</w>
gener ally</w>
f e</w>
d al
各 位</w>
l and
积 金</w>
le y</w>
h im
sur ing</w>
c ele
3 3</w>
允 许</w>
t an
ent ing</w>
ans w
检 控</w>
hin d</w>
free dom</w>
表 格</w>
药 物</w>
con centr
申 请
为 此</w>
一 份</w>
lear n</w>
江 主席</w>
回 应</w>
bes ides</w>
be hind</w>
相 互</w>
加 拿
深 刻</w>
主 题</w>
isra el
spir it
out put</w>
抵 达</w>
princi pal</w>
大 国</w>
z ing</w>
soldi ers</w>
min u
中 东</w>
ussi ons</w>
f all</w>
adju stment</w>
fil m</w>
局 面</w>
香港特 别行政
in struc
sh own</w>
k m
公 约</w>
sig n</w>
manufac turing</w>
石 油</w>
资 本</w>
国 有</w>
advant age</w>
能 源</w>
履 行</w>
li st
毒 品</w>
朝 鲜
ki m</w>
n am</w>
h an</w>
恐 怖
sub mitted</w>
fed eration</w>
l en
dra w</w>
se as
benef ic
伙 伴</w>
gu o</w>
expendit ure</w>
contr adic
br it
粮 食</w>
program mes</w>
benefic ial</w>
昨 日</w>
resolu tely</w>
port ation</w>
评 价</w>
大 会
dru gs</w>
er ful</w>
sh ing</w>
re iter
pli ed</w>
mot or
marx ism</w>
争 取</w>
en tered</w>
olymp ic</w>
contr act</w>
普 京</w>
ne g
trad ing</w>
hot line</w>
效 率</w>
off er</w>
谈 到</w>
h ands</w>
就 此</w>
pollu tion</w>
ide a</w>
伊 朗</w>
enh anced</w>
dg ed</w>
deli vered</w>
you th</w>
逗 留</w>
ed ly</w>
根本 利益</w>
医 疗</w>
i tion</w>
rul ing</w>
繁 忙</w>
观 念</w>
spirit ual</w>
特 区政府</w>
二十 日</w>
华盛 顿</w>
meth od</w>
ti an
工 资</w>
ren ess</w>
eng aged</w>
建 设
十五 日</w>
enem y</w>
plan es</w>
awa reness</w>
consid er
arrang ement</w>
arg o</w>
ro se</w>
citiz ens</w>
对 抗</w>
int ell
lin k</w>
an ci
致 力</w>
新 界</w>
li ves</w>
uph old</w>
se ized</w>
suff ici
0 1</w>
已 有</w>
二零零 四年</w>
某 些</w>
互 利</w>
制 订</w>
practic es</w>
n avy</w>
十 分
so f
mon etary</w>
现 行</w>
法 规</w>
v ast</w>
por e</w>
妇 女</w>
hu ge</w>
途 径</w>
复 杂</w>
war ning</w>
被 判</w>
乘 客</w>
intell ec
治 理</w>
th ous
strength ened</w>
certain ly</w>
权 力</w>
决 心</w>
pri ority</w>
al ized</w>
singa pore</w>
him self</w>
des cri
现 代</w>
e vi
trans portation</w>
cir cul
let ter</w>
equ al</w>
二零零 零年</w>
revolu tion</w>
b ann
取 消</w>
plann ed</w>
清 洁</w>
反 应</w>
cele br
suppor ted</w>
gu iding</w>
2 1
有 些</w>
technolog ies</w>
gr at
ch am
现 实</w>
谈 会</w>
自 身</w>
权 益</w>
fol lows</w>
新 加
s elected</w>
l o</w>
ic k</w>
des p
有 否</w>
premis es</w>
b ir
收 到</w>
s pr
sugg es
oper ational</w>
b ul
b a
听 取</w>
ch ann
i onal</w>
decreas ed</w>
le ts</w>
attemp t</w>
fe es</w>
cu t</w>
anc y</w>
更 好</w>
brief ed</w>
强 大</w>
供 应</w>
vot e</w>
自治 区</w>
ob tained</w>
contro l
b lo
十 日</w>
hear t</w>
性 质</w>
brit ain</w>
阿 拉
环 保</w>
v ac
公 报</w>
targ ets</w>
ide as</w>
左 右</w>
利 率</w>
val u
mo ved</w>
it ems</w>
grow ing</w>
流 感</w>
ma o</w>
gu ide</w>
e vil</w>
突 破</w>
expan ding</w>
em erg
年 龄</w>
ris k</w>
hu ang</w>
三十 一日</w>
ac cept</w>
严 格</w>
q ing
intellig ence</w>
id ly</w>
elim in
ph ili
你 们</w>
lea ve</w>
货 品</w>
sy m
生产 总值</w>
tal k</w>
综 合
tr ial</w>
br inging</w>
bi d</w>
预 期</w>
paren ts</w>
assemb ly</w>
f ren
职 工</w>
procur at
b ing</w>
c ard</w>
pati ents</w>
g dp</w>
抓 好</w>
巴 勒
yu en</w>
al ism</w>
肯 定</w>
法 庭</w>
助 理</w>
二零零 一年</w>
rail way</w>
泰 国</w>
busin ess
v ent
dri ving</w>
未 能</w>
保 险
3 8</w>
ent ation</w>
gr an
发 放</w>
党 员</w>
con fron
employ ers</w>
5 5</w>
fri ends</w>
elec tions</w>
do or</w>
t ong</w>
改 进</w>
suppor ting</w>
特 点</w>
依 法
increas ingly</w>
adv ice</w>
停 止</w>
on to</w>
有 力</w>
截 至</w>
唐 家
expres s</w>
disc ussions</w>
occur red</w>
col leg
各 界</w>
不 足</w>
tre a
sw imm
离 开</w>
con vention</w>
con sumption</w>
contr ac
唐家 璇</w>
ver ing</w>
tr ue</w>
h as
不 得</w>
事务 局</w>
re struc
vol un
tri p</w>
book store</w>
私 人</w>
recomm end
委 任</w>
c ateg
lc q
exchang ed</w>
中华人民 共和国</w>
constitu tion</w>
加拿 大</w>
党 和
re min
统 一
产 权</w>
不 可
广 东</w>
工 具</w>
w ast
south ern</w>
commun ication</w>
院 校</w>
事 实
detail ed</w>
司 机</w>
h an
dp p</w>
desp ite</w>
chann els</w>
官 方</w>
tion ary</w>
er a</w>
schedu led</w>
il ies</w>
新加 坡</w>
an tly</w>
测 试</w>
po ver
ep tion</w>
每 个</w>
首 相</w>
结构 调整</w>
wor ked</w>
总 结</w>
sh eng</w>
determin ed</w>
israel i</w>
一九九 八年</w>
h ill</w>
civil ization</w>
的 士</w>
fam ilies</w>
cre dit</w>
伟 大</w>
这 位</w>
实 质</w>
2 %</w>
el ess</w>
紧 急</w>
su pre
j in</w>
fr an
采 取
二零零 五年</w>
销 售</w>
双 边</w>
r am
ho li
发 言</w>
大 力</w>
详 细</w>
网 址</w>
w r
sust ain
organ ised</w>
二十 八日</w>
smugg ling</w>
accoun ts</w>
ro b
ext ended</w>
ei ther</w>
conscienti ously</w>
reg ar
cul tiv
今天 下午</w>
pos si
热 线</w>
日 期</w>
m ail</w>
appoint ment</w>
r ati
doll ar</w>
飞 行</w>
re venue</w>
国 外</w>
去 年
十二 日</w>
二十 七日</w>
uni que</w>
gu ests</w>
form ing</w>
comprehen sively</w>
su d
t r</w>
sk ills</w>
tra vel
2 6
busin esses</w>
presid ential</w>
f ounding</w>
收 益</w>
read ju
而 言</w>
o graph
尼 亚</w>
palestin ian</w>
赞 赏</w>
维 修</w>
十 四日</w>
告 诉</w>
pre ce
认 真
第 十
招 待
essi ons</w>
不 断
soli d</w>
pl at
t d</w>
mark ed</w>
有 助</w>
y ong
val ues</w>
pri or</w>
十 六日</w>
北 约</w>
其 后</w>
选 人</w>
f ru
chang ing</w>
b igg
tele phone</w>
dou b
如 下</w>
stat u
环 保
一 套</w>
mr .</w>
投资 者</w>
fig ure</w>
commissi oner</w>
二十 三日</w>
some thing</w>
reg ards</w>
pow erful</w>
n on
au tom
奋 斗</w>
xin jiang</w>
pl aying</w>
受 伤</w>
fren ch</w>
二十 五日</w>
de l</w>
bas ically</w>
4 00</w>
艺 术</w>
po sts</w>
jun c
thu si
lit tle</w>
teach ing</w>
road s</w>
grad ing</w>
胜 利</w>
trans f
en thusi
竞争 力</w>
十 九日</w>
s il
pow ers</w>
li sted</w>
initi al</w>
空 军</w>
restruc turing</w>
la m</w>
统 筹</w>
吸 引</w>
sp here</w>
mom ent</w>
二十 四日</w>
estim ated</w>
十 八日</w>
ir an</w>
邮 票</w>
犯 罪
二十 六日</w>
uti li
中央 军委</w>
inter pre
二十 一日</w>
docu ment</w>
engine ering</w>
c argo</w>
b a</w>
phili pp
电 影</w>
reach ing</w>
origin al</w>
expan sion</w>
desig n
协 商</w>
高 级</w>
检 获</w>
日 益</w>
升 幅</w>
变 动</w>
cal ls</w>
国防 部长</w>
rap idly</w>
produc ed</w>
这 方面</w>
n or</w>
传 媒</w>
gre en</w>
fif th</w>
exp ec
投 票</w>
0 2</w>
工 商
americ a</w>
治 疗</w>
te l</w>
环境 保护</w>
lo s
con fir
1 %</w>
二零零 三年</w>
ci ve</w>
环 署</w>
损 害</w>
ou gh
off ered</w>
招待 会</w>
na to</w>
承 担</w>
x u</w>
the ore
贸易 组织</w>
证 实</w>
接 获</w>
干 涉</w>
purch ased</w>
ra ising</w>
complain ts</w>
纽 约</w>
3 2</w>
tur ned</w>
prospec ts</w>
econom ies</w>
安 理
会 上</w>
pres ented</w>
ari at</w>
一 是</w>
com pris
ban king</w>
通 讯</w>
近 日</w>
基础 设施</w>
sta ur
预 测</w>
w age</w>
reason able</w>
re staur
con du
据 悉</w>
二十 二日</w>
ma y
att acks</w>
中央 政治
g ain</w>
batt le</w>
有 所</w>
正 是</w>
becom ing</w>
同 样</w>
属 于</w>
y ment</w>
隧 道</w>
纪 录</w>
司 法
批 评</w>
suffici ent</w>
及 时</w>
tran si
por ted</w>
l ess
世界 贸易组织</w>
increas es</w>
ger man</w>
enthusi as
199 3</w>
tr ou
走 向</w>
chem ical</w>
pil ot</w>
改 造</w>
wi fe</w>
还 要</w>
层 次</w>
smo oth</w>
pak istan</w>
为 止</w>
protec ting</w>
全 港</w>
pres er
深 入
the ast</w>
st op
particip ating</w>
re con
辖 下</w>
sing le</w>
trem end
ira qi</w>
pro per</w>
大 规模</w>
兴 趣</w>
integr ation</w>
更 大</w>
pro hi
indi an</w>
fel t</w>
f isc
快 速</w>
大会 堂</w>
t led</w>
no tice</w>
than ks</w>
fo ot
拒 绝</w>
优 惠</w>
fisc al</w>
实 力</w>
prof ound</w>
二零零 二年</w>
pro duce</w>
in don
indon es
去年 同期</w>
考 察</w>
recei ve</w>
munici p
i ble</w>
fi re
w o
coun c
深 圳</w>
fac ed</w>
m em
商 业
an cement</w>
各 类</w>
只 能</w>
l am
al u
hk ma</w>
来 访</w>
四 十</w>
二十 九日</w>
职 务</w>
r ing</w>
promot ed</w>
guang zhou</w>
予 以</w>
stres ses</w>
condu cive</w>
war m</w>
律 师</w>
sust ained</w>
月 底</w>
not e</w>
fu jian</w>
t ext</w>
fin ally</w>
0 5</w>
法 定</w>
前 提</w>
rec ti
prepar ations</w>
off ence</w>
reduc ed</w>
reser ve</w>
越 南</w>
g em
用 于</w>
posi tions</w>
cho ice</w>
角 色</w>
有 利</w>
mo ving</w>
km t</w>
执 政</w>
城 市
o di
mult i</w>
z a</w>
y e</w>
public ation</w>
propag anda</w>
宪 法</w>
双边 关系</w>
上 年</w>
el d
ab les</w>
ma ster</w>
课 题</w>
supre me</w>
re p
na is
war fare</w>
h und
ch ang</w>
暂 停</w>
ex cept</w>
金 额</w>
该 名</w>
早 日</w>
c ing</w>
实际 上</w>
inde ed</w>
g ross</w>
感 染</w>
th ly</w>
rel ating</w>
ex clu
de fic
曾 经</w>
指 定</w>
advis ory</w>
出 发</w>
grad u
必 将</w>
recon nais
ex tr
academ ic</w>
座 谈会</w>
conc ret
责 任
各 方</w>
yu go
semin ar</w>
sa w</w>
. .
十 七日</w>
yugo sla
pro gres
e ous</w>
进 出口</w>
h t
法 新社</w>
在 于</w>
retur ned</w>
pat ri
mea sure</w>
high est</w>
e m</w>
bound ary</w>
austral ia</w>
fi xed</w>
continu ing</w>
public ity</w>
c at
紧 密</w>
海 峡
statu tory</w>
显 著</w>
坚 定</w>
x uan</w>
a ren
le ung</w>
dise ase</w>
coordin ation</w>
跟 进</w>
编 制</w>
类 别</w>
做 到</w>
探 讨</w>
广 东
大 力
fel l</w>
食 环署</w>
中 日</w>
各 自</w>
pre p
cp i</w>
损 失</w>
consult ations</w>
先 进
体 育</w>
旅 游
各个 领域</w>
z e
sp ac
fo rec
走 私</w>
zh ong
mu n</w>
avi ation</w>
3 7</w>
连 续</w>
explor e</w>
effec tiveness</w>
for th</w>
bil ities</w>
comple tion</w>
revis ed</w>
准 则</w>
码 头</w>
业 主</w>
res c
atta ched</w>
thor ough
south bound</w>
几 个</w>
二 是</w>
t ac
sto od</w>
provis ional</w>
collec tion</w>
建 华</w>
re ference</w>
medic ine</w>
l un
every one</w>
南 行</w>
su me</w>
command er</w>
亚太 地区</w>
reduc tion</w>
文 化
y ers</w>
十 三日</w>
acci dents</w>
经贸 关系</w>
上 台</w>
theore tical</w>
相 应</w>
公 正</w>
w ise</w>
me an</w>
绝 对</w>
大 多数</w>
党的 建设</w>
三 百</w>
situ ations</w>
of ten</w>
l ack</w>
tremend ous</w>
any one</w>
合 作
gr ass
长 远</w>
secret ariat</w>
par lia
parlia ment</w>
mo del</w>
sp on
is ms</w>
pat h</w>
环保 署</w>
食 品</w>
十 一日</w>
conven i
business men</w>
comp ens
强 化</w>
co sts</w>
构 成</w>
遭 到</w>
l ation</w>
inter view</w>
ess ential</w>
accep ted</w>
u su
寻 求</w>
sec re
serv ing</w>
sear ch</w>
g one</w>
3 %</w>
放 弃</w>
h d</w>
decl ar
达 国家</w>
贯 彻
政府 部门</w>
发 达国家</w>
候 选人</w>
w ing</w>
reiter ated</w>
que en</w>
intellec tual</w>
gh u
broad ca
1 0.
inv est</w>
cre ating</w>
教 育
经 营
transf er</w>
相 对</w>
rec ru
cont ing
concret e</w>
not es</w>
ji ang
deal ing</w>
man power</w>
ish es</w>
popul ar</w>
los ses</w>
hol ders</w>
8 %</w>
反 华</w>
一 场</w>
j e
a ward</w>
at edly</w>
大 幅</w>
知识 产权</w>
sy n
re in
tru ly</w>
pover ty</w>
cl aimed</w>
sch ol
re la
功 能</w>
ar di
6 00</w>
eld erly</w>
领 土</w>
定 罪</w>
全 军</w>
mo vement</w>
客 人</w>
statis tical</w>
spre ad</w>
er ial</w>
canad a</w>
ac ked</w>
2 ,
巴 基
su b</w>
第 三</w>
经 理</w>
cont ents</w>
f light</w>
ar m</w>
acti vity</w>
assist ant</w>
3 6</w>
第一 次</w>
a de
领 袖</w>
who se</w>
条 文</w>
ad ver
whe re
saf e</w>
practi tion
o w</w>
ch uan</w>
物 价
一 间</w>
sub mit</w>
pan el</w>
nam ely</w>
en sive</w>
laun ching</w>
ev ents</w>
as ean</w>
0 3</w>
提 名</w>
repe atedly</w>
董 建华</w>
渠 道</w>
使 馆</w>
产 业
cr iter
b i</w>
流 动</w>
f low</w>
发 射</w>
友好 关系</w>
公 路</w>
广 场</w>
三 点</w>
sub sequ
follow ed</w>
th ail
thail and</w>
pen alty</w>
wast e</w>
susp ended</w>
报 告
学 者</w>
五 百</w>
min e</w>
exerc ises</w>
p oul
me ters</w>
ep d</w>
st ers</w>
s pl
博 士</w>
t our</w>
ph ot
步 伐</w>
劳 工</w>
ec tion</w>
p ain
谈 话</w>
入境 处</w>
工 人</w>
tr ain</w>
pi on
log istics</w>
believ es</w>
五 个</w>
广 播</w>
re ti
professi on
mon thly</w>
搞 好</w>
议 院</w>
tsu en</w>
ne eded</w>
多 项</w>
de ad</w>
7 %</w>
th eme</w>
qu anti
sch em
aff ect</w>
往 来</w>
run ning</w>
poul try</w>
愿 望</w>
victi ms</w>
sp ending</w>
mar ri
菲 律
新 一
几 年</w>
resc ue</w>
le is
法 案</w>
ste ps</w>
势 头</w>
多 少</w>
加 工</w>
全 体</w>
cri tici
发 表
tempor ary</w>
作 风</w>
fle xi
aff ir
accoun ting</w>
3 4</w>
兴 建</w>
tow n
har d
dis play</w>
6 %</w>
4 %</w>
公 民</w>
警 务
台湾 同胞</w>
展 示</w>
en suring</w>
禁 毒</w>
动 员</w>
沟 通</w>
决 议</w>
全国 政协</w>
两 地</w>
选 民</w>
当 选</w>
si ze</w>
jia xuan</w>
规 管</w>
t ex
ar ts</w>
4 2</w>
昨 天</w>
信 任</w>
sh r
on d
消费 者</w>
亿 港元</w>
人 大</w>
ob vi
ass y</w>
发 布</w>
new ly</w>
tak es</w>
d i</w>
it ely</w>
199 0</w>
职 员</w>
享 有</w>
he gem
emb assy</w>
au ti
6 5</w>
un employment</w>
p ace</w>
fail ed</w>
内 政</w>
rele ase</w>
co ast
前 进</w>
hegem on
2 9
定 期</w>
sugges tions</w>
cour ts</w>
社会 保障</w>
员 国</w>
vic tory</w>
exten d</w>
ext ent</w>
即 时</w>
cour ses</w>
confir med</w>
ordin ary</w>
leis ure</w>
in stance</w>
et c</w>
blo od</w>
潜 力</w>
comp on
b lu
candi dates</w>
集 体</w>
海 上</w>
指 示</w>
报 导</w>
zha o</w>
ob tain</w>
1 1.
公 顷</w>
individu als</w>
lo ss</w>
identi ty</w>
be ha
重 建</w>
achiev ing</w>
少 数</w>
remain ing</w>
reli ef</w>
o h</w>
grat ul
con gratul
领 土
致 辞</w>
样 本</w>
分 配</w>
stres s</w>
remain s</w>
祖国 大陆</w>
海峡 两岸</w>
col lis
服务 业</w>
lic ence</w>
h it</w>
长 者</w>
位 置</w>
spo ke</w>
sh op</w>
b ao</w>
评 论</w>
ke pt</w>
deep ly</w>
浩 田</w>
差 距</w>
不 到</w>
迟 浩田</w>
朝鲜 半岛</w>
w ars</w>
电 台</w>
a th
巴基 斯坦</w>
por tion</w>
ju n</w>
熔 基</w>
neg ative</w>
朱 熔基</w>
应 付</w>
ad here</w>
integr ated</w>
负 担</w>
处 长</w>
国 主义</w>
s old</w>
f ill</w>
明 日</w>
c asi
at mo
al ists</w>
分 歧</w>
continu ous</w>
消 除</w>
用 户</w>
w a</w>
行 人</w>
危 害</w>
理 由</w>
军 区</w>
对外 开放</w>
viet nam</w>
on line</w>
o s
it es</w>
oc casi
法 官</w>
大 纲</w>
pos es</w>
物价 指数</w>
足 够</w>
议 题</w>
联合 国
冷 战</w>
八 十
gras p</w>
get ting</w>
本 身</w>
no tic
sig ning</w>
c d</w>
g ed</w>
紧 张</w>
现 已</w>
y un
al most</w>
en ly</w>
con v
sh ed</w>
hosp it
ati c
首 脑
at ure</w>
gr and</w>
academ y</w>
8 2</w>
be aring</w>
菲律 宾</w>
存 款</w>
we red</w>
ear th</w>
该 署</w>
经 合
经合 组织</w>
inc or
represent ing</w>
ji an
领土 完整</w>
事 会</w>
par li
beha vi
病 毒</w>
str a
6 6</w>
高 新
con sequ
高度 重视</w>
刑 事</w>
expl ained</w>
decreas e</w>
职 责</w>
新 政府</w>
舆 论</w>
lin ed</w>
禽 流感</w>
会 长</w>
pre dic
观 点</w>
六 十</w>
r ac
自 主</w>
qu es</w>
mom ent
m ate</w>
h our</w>
ab led</w>
办 理</w>
hu man
govern ing</w>
湾 泳滩</w>
巴勒 斯坦</w>
ro c
把 握</w>
schem es</w>
invest ments</w>
b at
ad es</w>
ta xi</w>
鉴 于</w>
win ning</w>
uph ol
ph en
安理 会</w>
主 办</w>
为 什么</w>
join ing</w>
coun ter</w>
彻 底</w>
y a
t ack
collis ion</w>
ag encies</w>
sof tw
ev alu
ent al</w>
lo st</w>
比 例</w>
ti bet
responsi bilities</w>
decis ions</w>
nation alities</w>
pos s
pat ter
inci dents</w>
s cri
违 例</w>
印 尼</w>
spr ing</w>
lc sd</w>
intro duce</w>
in ju
d a
bran ch</w>
七 十
fail ure</w>
ec ological</w>
b ad</w>
港 币</w>
ac cur
财 产</w>
ver si
no thing</w>
aggres sion</w>
uni fied</w>
coun t</w>
spl it
resol ved</w>
man i
fe e</w>
医 管局</w>
softw are</w>
h ec
dis aster</w>
declar ation</w>
浏 览</w>
gr ass</w>
fal se</w>
自 由
c s
thorough ly</w>
情 报</w>
ex ist</w>
跌 幅</w>
challeng e</w>
jo bs</w>
eng age</w>
运 会</w>
recommend ations</w>
f ast</w>
employ ed</w>
错 误</w>
enti tled</w>
com plic
上 半年</w>
coast al</w>
货 柜</w>
电视 台</w>
f air
draw n</w>
首 都</w>
dal ai</w>
te sting</w>
requ ire</w>
brief ing</w>
quick ly</w>
manufac tu
inju red</w>
零 点</w>
证 券</w>
下 去</w>
out line</w>
重 大
状 态</w>
八 十</w>
op pose</w>
ade qu
strong ly</w>
correspon ding</w>
chil d</w>
ac compan
发 售</w>
入 世</w>
pro mp
pe tro
閒 基</w>
朱 閒基</w>
requi res</w>
met res</w>
h si
ec ts</w>
absolu tely</w>
星 期</w>
w ishes</w>
su peri
atmo sphere</w>
7 5</w>
investig ating</w>
car ds</w>
架 构</w>
违 法</w>
表 达</w>
le ag
计 算
下 列</w>
sett lement</w>
neigh b
la i</w>
ho st</w>
近 期</w>
无 论</w>
every thing</w>
ec ting</w>
commun ists</w>
4 8</w>
助 于</w>
contradic tions</w>
pe i</w>
港 口</w>
i p</w>
excell ent</w>
conclu sion</w>
证 券
tsu i</w>
生 命</w>
回 归</w>
入 狱</w>
per cent
o ce
职 能</w>
stri ke</w>
po well</w>
生 效</w>
minu tes</w>
am en</w>
um ul
为 主</w>
y au</w>
dou ble</w>
artic les</w>
类 似</w>
pl ant</w>
关 键
三 名</w>
ir y</w>
reco very</w>
通 信</w>
li ghts</w>
转 入</w>
v ess
om en
庆 祝</w>
二零零 六年</w>
contribu tion</w>
两 会</w>
ear ne
vess els</w>
phen omen
competi tiveness</w>
香港特别行政 区</w>
未 有</w>
objec tives</w>
军 方</w>
思 想
f ish
ar ance</w>
ch au</w>
万 美元</w>
s anc
f a</w>
进 口货</w>
企 业
tur ning</w>
市 长</w>
s l
交 易
reduc ing</w>
高 技术</w>
smo oth
quali fied</w>
earne stly</w>
4 3</w>
纪 念
夫 人</w>
broad cast</w>
mechan isms</w>
g ol
fun ding</w>
5 2</w>
s end</w>
consist ent</w>
conclu ded</w>
亚太 经合组织</w>
沙 田</w>
民主 党</w>
revolu tionary</w>
ap plied</w>
尚 未</w>
场 所</w>
remin ded</w>
收 集</w>
祝 贺</w>
swimm ing</w>
ag end
inclu des</w>
be i</w>
su itable</w>
leg ally</w>
dispu tes</w>
deep en</w>
e um</w>
ar ma
以 前</w>
exist ence</w>
4 4</w>
纪 念</w>
t ol
m en
grass roots</w>
家 禽</w>
surve ill
practition ers</w>
检 验</w>
ho od</w>
来 看</w>
tibet an</w>
sig n
并 非</w>
三 讲</w>
fe hd</w>
物 品</w>
天 气</w>
事实 上</w>
surveill ance</w>
pu tting</w>
co vering</w>
认 可</w>
sever e</w>
s ance</w>
in ing</w>
tr ying</w>
newsp aper</w>
moment um</w>
deplo yment</w>
arma ment</w>
缺 乏</w>
申请 人</w>
manag er</w>
二十 一</w>
deb t</w>
邪 教
背 景</w>
期 望</w>
新 型</w>
remain ed</w>
1 2.
债 券</w>
con ve
clu b</w>
acceler ate</w>
东 盟</w>
航 空</w>
主 动</w>
satis fied</w>
c row
成 长</w>
学 员</w>
s we
con gres
m y
leg iti
rec eption</w>
evi dence</w>
ref er
par king</w>
具 备</w>
专 题</w>
smooth ly</w>
9 %</w>
3 9</w>
tun nel</w>
干 部
prep ared</w>
p ho
v it
govern or</w>
e way</w>
当 天</w>
中 学</w>
applic ants</w>
幅 度</w>
义 务</w>
occasi ons</w>
nom in
li ber
ke ts</w>
fac tor</w>
邪教 组织</w>
全 文</w>
下 载</w>
ain s</w>
sustain able</w>
sent enced</w>
mus eum</w>
ar t</w>
邓小 平</w>
大 选</w>
住 户</w>
pursu e</w>
围 绕</w>
唯 一</w>
cop ies</w>
compens ation</w>
极 大</w>
家 长</w>
plen ary</w>
passeng er</w>
de pos
特 区</w>
指 挥
sel l</w>
ap ers</w>
这 么</w>
理 想</w>
al led</w>
adju sted</w>
immedi ate</w>
serv ed</w>
千 年</w>
制造 业</w>
sha res</w>
mak es</w>
v ements</w>
t ari
design ated</w>
cap able</w>
announ cement</w>
si c</w>
prohi b
chec k</w>
最 高
所 作</w>
wel com
m in</w>
h ung</w>
经 历</w>
re rs</w>
p ts</w>
oper ate</w>
fic ations</w>
li br
contr acts</w>
全 面
re ment</w>
pe ak</w>
劳 动</w>
开 发
z ation</w>
ph il
一 宗</w>
solu tion</w>
as k</w>
9 9</w>
monit or</w>
competi tive</w>
pi ec
n ur
broadca sting</w>
高新 技术</w>
审 批</w>
welcom ed</w>
prof its</w>
ne y</w>
消 耗</w>
李 岚
李岚 清</w>
怎 么</w>
agend a</w>
ob lig
劳 动
z ed
thre at
leg co</w>
counc il
200 8</w>
力 于</w>
stand ardi
满 足</w>
对 台</w>
ga p</w>
comm ents</w>
c anc
袭 击</w>
来 源</w>
方 米</w>
工作 者</w>
la u</w>
determin ation</w>
con sci
stan ds</w>
per sist
gu ard</w>
图 书
即 使</w>
以 外</w>
conflic t</w>
ack now
dro p</w>
concer ns</w>
致 力于</w>
二 千</w>
feat ures</w>
bri dge</w>
boo ks</w>
侵 犯</w>
pati ent</w>
p ack
clos er</w>
10 1</w>
能 否</w>
w ants</w>
di stric
4 6</w>
日 报</w>
小 巴</w>
o z
gu n</w>
electr ical</w>
house hold</w>
conflic ts</w>
bo di
refl ect</w>
ass ist</w>
研 制</w>
建 造</w>
ra in</w>
fund ed</w>
cam bodi
金 管局</w>
华 人</w>
加 上</w>
保 护
distric ts</w>
容 易</w>
than k</w>
hand led</w>
emp has
西 亚</w>
股 市</w>
新 疆</w>
因 应</w>
今天 上午</w>
li able</w>
身 份</w>
五 国</w>
严 格
高 科技</w>
制 裁</w>
dise ases</w>
解 决
tal ent</w>
陪 同</w>
w ai</w>
vot es</w>
d ated</w>
1 ,000</w>
stra its</w>
histor ic</w>
8 00</w>
bra z
reg im
dec line</w>
房 委会</w>
prec is
hel ping</w>
阶 级</w>
物 业</w>
人民 法院</w>
k en</w>
i ii</w>
all s</w>
设 有</w>
按 揭</w>
p ass</w>
重要 讲话</w>
七 十</w>
requ est</w>
l l
专 门</w>
4 9</w>
必 然</w>
d d
bus es</w>
percent age</w>
mu tually</w>
l ad
bel ow</w>
就 业
wit n
on d</w>
ide ology</w>
bigg est</w>
作 品</w>
九 十
re fu
hospit als</w>
石 油
东 西</w>
p aying</w>
diver ted</w>
范 畴</w>
武 力</w>
图书 馆</w>
4 1</w>
障 碍</w>
达 赖</w>
充分 发挥</w>
zed ong</w>
tran sp
b re
reconnais sance</w>
参 谋
h or
7 8</w>
6 8</w>
有 所
常 委</w>
分 钟</w>
与 此
销 售
trans formation</w>
st an</w>
fr au
宗 旨</w>
e quality</w>
随 后</w>
一 旦</w>
res h</w>
经济 体制</w>
声 称</w>
im age</w>
he ard</w>
cad re</w>
得 以</w>
c ab
切 实
xi amen</w>
co vers</w>
海 关
en ses</w>
农 民
inten tion</w>
ca using</w>
separ ate</w>
re public
il ed</w>
mess age</w>
manag ing</w>
al ist</w>
dom in
c li
in a</w>
regar ded</w>
mis sing</w>
di vi
使 用
organis ation</w>
north ern</w>
cro s
难 以</w>
多 名</w>
motor ists</w>
ha o
降 低</w>
留 意</w>
武 器
非 常
wr ong</w>
legiti mate</w>
设 置</w>
下 来</w>
fed eral</w>
有 助于</w>
党 派</w>
储 备</w>
依 据</w>
ta res</w>
hec tares</w>
exper t</w>
desig ned</w>
def end
至 少</w>
报告 书</w>
in ev
长 期
框 架</w>
任 何
vi et</w>
cl in
bel ief</w>
签 订</w>
y a</w>
enter ing</w>
ch un</w>
a b</w>
私 营</w>
intere sted</w>
身 份
今 年
k no
sup ports</w>
个 人
活 力</w>
引 导</w>
compar ison</w>
形 象</w>
net works</w>
工 会</w>
recor ds</w>
f f</w>
h i</w>
al liance</w>
树 立</w>
会 否</w>
dam age</w>
d ar
real izing</w>
encour aging</w>
en ough</w>
draw ing</w>
ac qu
议 长</w>
dri vers</w>
in ner</w>
g old</w>
该 处</w>
演 练</w>
wat ers</w>
一九九 七年</w>
薪 酬</w>
空 缺</w>
地 下</w>
飞 行
纳 入</w>
效 果</w>
供 应
专 业
youn g
st ation
convic tion</w>
b and</w>
健 全</w>
一 天</w>
uphol ding</w>
ris ks</w>
perf ect</w>
d h</w>
a ke</w>
爆 发</w>
jour n
go t</w>
0 4</w>
en tr
wan ted</w>
比 亚</w>
山 道</w>
农 产品</w>
repor ting</w>
per form</w>
own ership</w>
may or</w>
commit ment</w>
bon ds</w>
疾 病</w>
多 种</w>
因 而</w>
man kind</w>
complic ated</w>
h ence</w>
成 员国</w>
var ie
shi pping</w>
profession als</w>
join ed</w>
constitu tional</w>
人民 大会堂</w>
不 但</w>
speci fied</w>
k et</w>
直 至</w>
屯 门</w>
tu en</w>
s ac
junc tion</w>
ad ap
相 同</w>
侦 察</w>
yu n</w>
regul atory</w>
bl ack</w>
与此 同时</w>
m erg
de ter
as ing</w>
5 6</w>
大 局</w>
d ong
名 单</w>
frequ ent</w>
财 务</w>
sig ns</w>
deep ening</w>
毛 泽
tri ed</w>
s en</w>
ev ent
开 幕</w>
si m</w>
百分之 二十</w>
prosecu tion</w>
al one</w>
适 用</w>
治 安</w>
or ate</w>
govern mental</w>
罪 名</w>
colleg e</w>
遇 到</w>
令 人
建筑 物</w>
伦 敦</w>
永 远</w>
专 责</w>
there by</w>
contribu te</w>
部 份</w>
ob st
prof it</w>
ob serve</w>
联 邦</w>
废 物</w>
中小 企业</w>
每 月</w>
al ter
so viet</w>
l ateral</w>
若 有</w>
国务 卿</w>
stud ent</w>
off ences</w>
criter ia</w>
荃 湾</w>
incor por
resol ving</w>
e .</w>
全 年</w>
appreci ation</w>
邦 造</w>
朱 邦造</w>
大 批</w>
comple x</w>
asp ir
计 划
常 务
we ak</w>
su m</w>
me at</w>
di stance</w>
元 朗</w>
sen ate</w>
核 武器</w>
ven ues</w>
pur poses</w>
出 口
较 大</w>
典 礼</w>
亲 切</w>
威 尔</w>
合 署</w>
材 料</w>
f em
d y
大 道</w>
大 利</w>
tor al</w>
sum m
军 售</w>
k ung</w>
cru cial</w>
0 6</w>
政 权</w>
collec tive</w>
atta ches</w>
answ er</w>
日 后</w>
shor t
g are
f resh</w>
记 录</w>
th ering</w>
dig ital</w>
n e</w>
mar i
deli ber
in ess</w>
gre es</w>
g row</w>
保 安</w>
z ones</w>
for ced</w>
武 装</w>
其 它</w>
ju ven
comm od
de grees</w>
确 实</w>
b all</w>
邓小 平
邓小平 理论</w>
距 离</w>
拓 展</w>
s ai</w>
cooper ate</w>
被 告</w>
基 于</w>
呼 吸
参 考</w>
can al</w>
sur y</w>
comm odi
ati n</w>
5 8</w>
v als</w>
pr e</w>
commodi ties</w>
z eng</w>
r ational</w>
索 取</w>
审 查</w>
国防 部</w>
受 害
defin itely</w>
民 间</w>
元 首</w>
二 点</w>
10 ,000</w>
重要 性</w>
trea sury</w>
op posed</w>
min ent</w>
cl assi
inter f
ap pl
三 是</w>
effici ent</w>
bri ght</w>
爆 炸</w>
licen sing</w>
head ed</w>
de eds</w>
事 项</w>
contrac tors</w>
货 值</w>
引 发</w>
协 作</w>
repres ent</w>
p sy
ar ian</w>
条 款</w>
更 为</w>
se ize</w>
p n
指 标</w>
sugg ested</w>
mer chan
转 口货</w>
街 道</w>
南 北</w>
l d
introduc tion</w>
cho o
两国 论</w>
feel ings</w>
ad mission</w>
ond on</w>
监 禁</w>
本 人</w>
tim ely</w>
m ist
dis crimin
ar du
sur plus</w>
l ondon</w>
exer tion</w>
问 候</w>
引 进</w>
基 金
tex ti
fe asi
dec la
担 心</w>
创 造
体 力</w>
show ing</w>
nar co
m ir
激 烈</w>
否 则</w>
tai pei</w>
intensi fy</w>
continu ally</w>
b ot
广 州</w>
失 业</w>
un able</w>
back ground</w>
曾 荫
延 长</w>
学 位</w>
restric tions</w>
时 刻</w>
并 会</w>
值 得</w>
k ai</w>
f eng</w>
encour aged</w>
ab use</w>
运 行</w>
五 时</w>
t ations</w>
proce dur
care fully</w>
软 件</w>
广东 省</w>
广 播
交 换
ph arm
mo ther</w>
努 力
本 月</w>
广 大
s tic
inform ed</w>
暴 力</w>
工作 人员</w>
prev enting</w>
广 阔</w>
会 面</w>
top ics</w>
tain ment</w>
sanc tions</w>
inter cep
ic king</w>
1 50</w>
n ai</w>
奥 运会</w>
stead y</w>
great est</w>
effec ts</w>
sy mp
recei pts</w>
e h</w>
con cep
sub si
acc umul
睦 邻
武器 装备</w>
反 腐败</w>
tain s</w>
m n</w>
总 裁</w>
境 外</w>
s cre
ga z
el ig
英 语</w>
气 氛</w>
支 出</w>
对 象</w>
mis sions</w>
he aring</w>
5 1</w>
向 前</w>
合 法
invest ed</w>
7 00</w>
5 3</w>
总 体</w>
开 幕
侦 察
对 华</w>
各 个</w>
4 7</w>
规 律</w>
总 数</w>
uni versi
确 立</w>
改 为</w>
一 家</w>
ai ds</w>
af p</w>
解 放</w>
lia ison</w>
er ies</w>
违 法
小 心</w>
台 北</w>
u k
is ation</w>
提 案</w>
u t
jec ted</w>
coll ected</w>
ta u</w>
ge org
fac tory</w>
财政 司</w>
公 平</w>
ris on</w>
recogn ize</w>
g ri
expan ded</w>
峰 会</w>
城市 规划</w>
read ing</w>
lo an</w>
0 7</w>
最 佳</w>
密 切
优 秀</w>
以 往</w>
col labor
direc ted</w>
te ams</w>
i um</w>
house holds</w>
雇 佣</w>
s essions</w>
地 盘</w>
冲 击</w>
ou ght</w>
d a</w>
su red</w>
g or
贯彻 落实</w>
核 准</w>
in an</w>
z ao</w>
八 个</w>
体 育
t sim</w>
汇 报</w>
mor t
fic ally</w>
ple ased</w>
hao tian</w>
co m</w>
四 点</w>
一 下</w>
k un
ad mitted</w>
食 肆</w>
表 演</w>
侦察 机</w>
事务 署</w>
之 外</w>
terror ist</w>
两 军</w>
qu iry</w>
率 领</w>
典 型</w>
使 命</w>
re sist
num erous</w>
g ang</w>
b ag
第 一个</w>
二 百</w>
road side</w>
pn tr</w>
p tion</w>
em is
de dic
war ded</w>
so le
or dered</w>
该 项</w>
睦邻 友好</w>
暂 时</w>
回 到</w>
制 作</w>
yugosla via</w>
head ing</w>
h ur
b it
go es</w>
更 是</w>
太 平
sum ed</w>
institu tion</w>
之 中</w>
不 再</w>
proce ed</w>
o ther
initi atives</w>
w en
o v</w>
l ay</w>
au di
部 长
将 来</w>
出 任</w>
dis e</w>
consid ering</w>
公 斤</w>
fin ancing</w>
c lim
访 问
universi ties</w>
aw are</w>
atic ally</w>
两 次</w>
wor d</w>
s ong</w>
n an</w>
certific ates</w>
建 商</w>
同 月</w>
p ir
l iter
宗 教
其 余</w>
人民 政府</w>
top ic</w>
si x
pe de
ex ic
m exic
hot el</w>
5 9</w>
早 上</w>
li t</w>
i ve</w>
逐 渐</w>
we ak
vi de
multi lateral</w>
gaz et
许 可
行 驶</w>
sh el
ne ver
consist ently</w>
高 等
m c</w>
ish ment</w>
授 权</w>
承 建商</w>
stam ps</w>
f ish</w>
kil ome
gr ati
conserv ation</w>
che e</w>
c ars</w>
曾荫 权</w>
possi bility</w>
生 态
ky o</w>
澳 洲</w>
土 耳
war ned</w>
th eless</w>
rou te</w>
pede stri
confron tation</w>
att ach</w>
务 局</w>
never theless</w>
jo h
cor di
鲍 威尔</w>
il legally</w>
货 币
大 约</w>
任 期</w>
他 人</w>
ze al
王 伟</w>
太 空</w>
eas y</w>
练 兵</w>
resp ir
patter n</w>
deli very</w>
营 运</w>
南 海</w>
we b</w>
ori ented</w>
之 际</w>
mil len
cl aims</w>
cab in
5 0,000</w>
更 新</w>
扩 散</w>
就 要</w>
天 桥</w>
tot ally</w>
s li
g ir
正 确
售 价</w>
优 先</w>
dis covered</w>
ad he
lo ve</w>
赢 得</w>
港 岛</w>
本 国</w>
sh ops</w>
res ource</w>
en za</w>
consult ative</w>
接 近</w>
区 议会</w>
北 韩</w>
减 低</w>
sh oul
fu el</w>
十 六
几 乎</w>
sci ences</w>
s ars</w>
小 学</w>
来 港</w>
tow er</w>
our selves</w>
in jur
al ties</w>
南 非</w>
urg ent</w>
recei ving</w>
her o
传 统
per spec
forec ast</w>
al location</w>
布 希</w>
记 者
班 子</w>
侵 略</w>
hund red</w>
har m</w>
formul ated</w>
等 级</w>
滥 用</w>
asp ect</w>
阐 述</w>
view ing</w>
ha inan</w>
f la
east bound</w>
古 巴</w>
一 万
tai w
boo st</w>
皇 后</w>
战斗 力</w>
启 动</w>
合 法</w>
traff icking</w>
路 边</w>
李 瑞
一 支</w>
xi ang</w>
t ons</w>
s election</w>
热 烈
二 八</w>
不 久</w>
集 中
法 制</w>
关 闭</w>
civil ian</w>
柴 油</w>
influ enza</w>
高 级
附 件</w>
许可 证</w>
并 未</w>
原 来</w>
town ship</w>
g ained</w>
c ou
wee k
ti de</w>
merchan dise</w>
indones ia</w>
ha m
认 同</w>
扩 展</w>
nan jing</w>
dro pped</w>
指 导
交换 意见</w>
上 诉</w>
se l</w>
rati o</w>
organiz e</w>
off end
cri tic
ardu ous</w>
an cies</w>
纲 领</w>
等 等</w>
查 阅</w>
护 理</w>
商 界</w>
零售 业</w>
消 防
岛 内</w>
加 以</w>
trans fer
保 留</w>
we al
decla red</w>
泳 池</w>
serv ants</w>
schedu le</w>
oce an</w>
inter medi
defic it</w>
charac ter</w>
道 德</w>
加 速</w>
terror ism</w>
中共 中央</w>
v o</w>
chan nel</w>
8 5</w>
尽 早</w>
op enly</w>
ic ity</w>
纪 律</w>
当 年</w>
taiw anese</w>
patri o
种 种</w>
涵 盖</w>
国际 事务</w>
发 动</w>
减 轻</w>
全 世界</w>
2 ,000</w>
法 制
待 遇</w>
不 得
vic tor
su c
意 大利</w>
oppos ing</w>
bang zao</w>
落 后</w>
under tak
mit ting</w>
是 因为</w>
地 址</w>
名 义</w>
cri tical</w>
采 购</w>
津 贴</w>
李瑞 环</w>
代表 大会</w>
on ally</w>
本 质</w>
perform ing</w>
inter ference</w>
hel ped</w>
相 比</w>
九 五</w>
shr ine</w>
ent re
黄 泥</w>
转 达</w>
其 次</w>
ob struc
in ter</w>
第 五
h ab
el led</w>
c ash</w>
空 气
严 重
quanti ty</w>
program s</w>
kw ai</w>
attr act</w>
零 售</w>
10 th</w>
制 品</w>
三 百
partn ers</w>
func tion</w>
ed it
c ot
季 度</w>
信 念</w>
mis s</w>
av es</w>
整 顿</w>
custom ers</w>
comb ined</w>
找 到</w>
宏 观
le n</w>
schol ars</w>
飞行 员</w>
philipp ines</w>
ess ence</w>
corpor ate</w>
21 st</w>
t ext
separ ati
palest ine</w>
k a</w>
go als</w>
罪 案</w>
社会 福利</w>
stat d</w>
end or
cen statd</w>
外 商
克 服</w>
ste pped</w>
real ized</w>
小 泉</w>
出 去</w>
任何 人</w>
mu sic</w>
fin ed</w>
bas es</w>
后 来</w>
sti mul
m ous</w>
h wa</w>
cabin et</w>
上 海
undertak ings</w>
readju stment</w>
per mit</w>
bor n</w>
be auti
d u</w>
ab and
身份 证</w>
怎 样</w>
优 质</w>
ris ing</w>
pre ne
追 求</w>
上 市</w>
tax es</w>
l ers</w>
depos its</w>
ag ree</w>
顾 客</w>
本 报</w>
respir atory</w>
plat form</w>
conting ent</w>
失 业
fl ats</w>
co al</w>
b it</w>
是 说</w>
wee ks</w>
str ain
sou theast</w>
期 待</w>
书 店</w>
y ue</w>
fem ale</w>
国 政府</w>
w arm
g un
ar rest</w>
欧 洲
工 商</w>
失 败</w>
台 海</w>
两 党</w>
tr ack</w>
re ci
narco tics</w>
counter fe
adv ancing</w>
百分之 零点</w>
north bound</w>
farm ers</w>
抗 议</w>
可 行</w>
具 体
3 0
比 率</w>
宣 传
volun t
resul ting</w>
mo s
stre am</w>
pro mul
promul g
load ed</w>
gr ounds</w>
考 验</w>
retur ning</w>
obst ac
loc ations</w>
appe ared</w>
退 休</w>
船 只</w>
两 项</w>
万 人</w>
z es</w>
vit ality</w>
marri age</w>
be ar</w>
抓 住</w>
thor ough</w>
li min
k az
199 1</w>
防 护</w>
莫 斯
第 二十
涌 道</w>
shor tly</w>
pre limin
辩 论</w>
变 成</w>
re new
迎 接</w>
um i</w>
stam p</w>
ous ness</w>
lat ter</w>
clo sure</w>
certific ate</w>
ai red</w>
外 经贸
加 深</w>
spe ak
si chuan</w>
k ers</w>
construc tive</w>
四 百</w>
ch ong
exam ine</w>
统计 数据</w>
印 刷
vir us</w>
mon go
f ishing</w>
f at
entre prene
av en
5 7</w>
im pres
cr ack</w>
b ly</w>
中央政治 局</w>
mo sco
h un
fin dings</w>
f ung</w>
建设 性</w>
wor ld
spe e
isl ands</w>
adequ ate</w>
por ting</w>
执 法
战 场</w>
suc ce
over come</w>
en or
ar ab</w>
5 4</w>
mari time</w>
防 空</w>
移 民</w>
最 低</w>
凌 晨</w>
compar ing</w>
停 车
依 靠</w>
一 道</w>
m b</w>
fil led</w>
continu es</w>
feat ure</w>
electr icity</w>
转 移</w>
东 部</w>
ji e</w>
营 办</w>
债 务</w>
particip ated</w>
mo del
min ority</w>
mag istr
lin ked</w>
in gu
im ported</w>
每 天</w>
子 女</w>
土耳 其</w>
s in</w>
cal ling</w>
货 车</w>
t md</w>
ro g
po ol</w>
ko iz
koiz umi</w>
1 3.
关 税</w>
ur s</w>
innov ations</w>
enh ancement</w>
av al</w>
缓 和</w>
两 天</w>
zeal and</w>
station ed</w>
elimin ate</w>
每 日</w>
厦 门</w>
ref used</w>
ho sted</w>
e ted</w>
pro portion</w>
emphas is</w>
教 科
mosco w</w>
formul ate</w>
con dem
mongo li
bu re
al leg
6 3</w>
谴 责</w>
ter ly</w>
ste el</w>
p lies</w>
ne x</w>
境 内</w>
than ked</w>
me i</w>
观 察</w>
营 商</w>
纷 纷</w>
就 是说</w>
viol ence</w>
sen si
bure au
带 动</w>
家 宝</w>
学 会</w>
r aid</w>
progres sive</w>
ori entation</w>
m ur
event ually</w>
diplom acy</w>
界 人士</w>
tour ist</w>
sp lit</w>
no ti
dec ades</w>
consoli date</w>
al ing</w>
ab ide</w>
东 亚</w>
tren ds</w>
任 命</w>
trans actions</w>
e ing</w>
direc tors</w>
deb ate</w>
corpor ations</w>
beg in</w>
外商 投资</w>
zh eng</w>
w u
other wise</w>
de ad
co de</w>
an nex</w>
遏 制</w>
南 亚</w>
sur vi
温 家宝</w>
日本 政府</w>
坚 定
人 口
亚 洲
市 区</w>
regi ment</w>
bloc k</w>
anci ent</w>
americ ans</w>
ni um</w>
es d</w>
求 是</w>
re sume</w>
5 ,000</w>
尽 量</w>
天 文
us eful</w>
香港特 区</w>
汇 率</w>
procedur e</w>
inter nation
fe ren
elec toral</w>
u g
界 别</w>
台 商</w>
九 届
st ant</w>
ro l
g ni
ber y</w>
潜 艇</w>
墨 西
wat ch</w>
干 预</w>
合 同</w>
psy ch
m ic
ku om
递 交</w>
呼吸 系统</w>
ful fill</w>
cle an
稍 后</w>
科 索
m ar</w>
im possible</w>
h us
3 ,
长 时间</w>
如 今</w>
天 然
复 苏</w>
于 是</w>
一 经</w>
to kyo</w>
minist erial</w>
说 法</w>
s low
节 性</w>
组 成
组成 部分</w>
到 底</w>
自 觉</w>
场 地</w>
ran ks</w>
ho t</w>
g ing</w>
arrang ed</w>
reser ves</w>
dn ess</w>
清 理</w>
巨 大
信息 化</w>
不 管</w>
hu an</w>
稿 代</w>
外经贸 部</w>
国 情</w>
原 则
南 韩</w>
viet nam
当 日</w>
利 用
sh ap
附 表</w>
九 十</w>
y el
gu ided</w>
enter tainment</w>
奉 行</w>
刚 刚</w>
六 个月</w>
亚 太</w>
么 样</w>
vietnam ese</w>
per s</w>
mor al</w>
ch ap
环 节</w>
作 出
下 稿代</w>
照 顾</w>
游 泳</w>
海关 人员</w>
各 项
9 5</w>
科索 沃</w>
peri ods</w>
引 致</w>
屋 宇</w>
spee ches</w>
int ang</w>
ar ization</w>
an xi</w>
战 机</w>
参谋 长</w>
五 千</w>
t ell</w>
op tim
lan qing</w>
ear n
团 长</w>
pro ved</w>
开 拓</w>
ti st</w>
essi vely</w>
alter n
莫斯 科</w>
oz p</w>
or ious</w>
6 4</w>
proce eding</w>
person ally</w>
correc tly</w>
装 置</w>
秀 莲</w>
持 有</w>
席 会议</w>
一九 八
signific antly</w>
hous es</w>
排 放</w>
嘉 宾</w>
世 贸</w>
sk y</w>
s wit
继 续
weap on</w>
ru i
in ations</w>
man age</w>
ex emp
数 码</w>
不 准</w>
gu il
com pos
a x</w>
法 治</w>
四 名</w>
军 人</w>
inst all
ho sti
视 为</w>
刊 登</w>
z oned</w>
9 8</w>
prin t</w>
n aval</w>
kuom intang</w>
de tec
全 会</w>
对 待</w>
增 幅</w>
一 辆</w>
refl ected</w>
in d
gran ted</w>
c le</w>
blu e</w>
ash ed</w>
手 续</w>
pre f
g y
deplo yed</w>
sol ic
gr ams</w>
6 9</w>
北 角</w>
vigor ous</w>
procurat orial</w>
millen nium</w>
fl ying</w>
金融 机构</w>
st ments</w>
concer ted</w>
季 节性</w>
伟 大
valu able</w>
interpre tation</w>
holi days</w>
e ve</w>
batt le
盗 版</w>
客 观</w>
各 族
主 体</w>
up grading</w>
s av
de tained</w>
失 去</w>
免 费</w>
satisfac tion</w>
ec ture</w>
潮 流</w>
教 学</w>
instruc tions</w>
cep a</w>
ad d</w>
优 化</w>
m ong</w>
gr ant</w>
人 大
专 利</w>
suff ered</w>
in si
exp enses</w>
al le
开 放
exp ect</w>
enthusias m</w>
cal cul
8 7</w>
witn essed</w>
ver i
trad ition</w>
orig in</w>
查 处</w>
veh icul
vehicul ar</w>
e yes</w>
lan ding</w>
通 道</w>
电 脑
z hu
uni ons</w>
un prece
fam ous</w>
exce eds</w>
affir med</w>
w o</w>
varie ty</w>
mal ay
面 向</w>
malay si
experi enced</w>
con ver
a c</w>
届 时</w>
人 次</w>
sinc ere</w>
sh ek</w>
out look</w>
wa h</w>
sol ved</w>
re plac
es sive</w>
cre w</w>
cap abilities</w>
首脑 会议</w>
补 偿</w>
确 认</w>
时 间
克 斯坦</w>
不 满</w>
west bound</w>
par ks</w>
ne u
fl y
金融 危机</w>
年 初</w>
命 令</w>
令 人</w>
中 新社</w>
s ligh
ko so
英 文</w>
tian jin</w>
0 8</w>
im pe
hong kong</w>
gni tion</w>
for tun
沙 咀</w>
ne i
li mit</w>
证 据</w>
平 方米</w>
vide o</w>
trad es</w>
撞 机</w>
将 军</w>
中央 政府</w>
kaz ak
fa ther</w>
e able</w>
d ens</w>
consum ers</w>
吕 秀莲</w>
七 百</w>
z oning</w>
pp er</w>
establish ments</w>
建 成</w>
sub scri
s an</w>
part ner</w>
author ized</w>
w ages</w>
consider able</w>
con taining</w>
期 内</w>
人大 代表</w>
trou ble</w>
sol ving</w>
s a</w>
dis pat
院 长</w>
邮 政局</w>
通 讯
平 均
天文 台</w>
t al</w>
strong er</w>
republic an</w>
koso vo</w>
金 钟</w>
互 访</w>
se ats</w>
bur den</w>
accompan ied</w>
空 气</w>
带 领</w>
ren min
perspec tive</w>
perform ed</w>
ge ograph
compu ters</w>
associ ations</w>
概 念</w>
权 主义</w>
renmin bi</w>
prepar ation</w>
lea ving</w>
l td</w>
kw un</w>
神 社</w>
来 到</w>
w im
convic ted</w>
al lies</w>
a warded</w>
表示 感谢</w>
宣 言</w>
纲 要</w>
im per
amoun ted</w>
霸 权主义</w>
分 享</w>
依 然</w>
wh ol
pos session</w>
er o
absolu te</w>
一 件</w>
strateg ies</w>
ste pping</w>
re ad</w>
kilome ters</w>
allow ing</w>
著 名</w>
商 会</w>
min imum</w>
外交 政策</w>
号 码</w>
动 议</w>
ex pe
航 天</w>
股 票</w>
日 至</w>
in s</w>
有 意</w>
恶 化</w>
mani fe
machin ery</w>
ff s</w>
明 白</w>
转 化</w>
广 告</w>
博 物
不 懈</w>
re move</w>
有 何</w>
实 事
实事 求是</w>
妥 善
cop y</w>
categ ories</w>
空 中</w>
祖国 统一</w>
六 百</w>
tem per
ji ab
investig ate</w>
i p
enor mous</w>
论 是</w>
紧 密
澳 大
东 京</w>
precis ely</w>
ji a</w>
a po
南 联盟</w>
不 了</w>
val ent</w>
ti g
de fe
专 员</w>
ga thering</w>
feel ing</w>
cap ital
白 宫</w>
rel atives</w>
pl ants</w>
ex tre
ca p</w>
新 西
val ley</w>
uk rain
tax ation</w>
jiab ao</w>
级 党委</w>
各 级党委</w>
offend ers</w>
marke ting</w>
form al</w>
ch un
appe ar</w>
驻 华
那 样</w>
居 住</w>
反 导</w>
comm ent
积极 参与</w>
巡 查</w>
博物 馆</w>
w ait</w>
separati st</w>
ou se</w>
fil ling</w>
comp ly</w>
chong qing</w>
苏 联</w>
网 络
尖 沙咀</w>
pass ing</w>
cap e</w>
1 5.
简 单</w>
是 从</w>
乃 至</w>
em en</w>
艺 术
thous and</w>
kno ws</w>
ex cep
de struc
研究 所</w>
明 确
战 线</w>
巴 西</w>
mo de</w>
bu y</w>
诚 意</w>
物 质</w>
sy ri
sup ple
subsequ ently</w>
pl ed</w>
pay ments</w>
in aug
ar gu
有 制</w>
吴 仪</w>
两 位</w>
weal th</w>
wa iting</w>
th ai</w>
rou tes</w>
load ing</w>
ag on</w>
赋 予</w>
税 收</w>
庞 大</w>
substan tial</w>
su rely</w>
produc ing</w>
o red</w>
g ame</w>
fla g</w>
equi pped</w>
ca uses</w>
旅游 业</w>
抓 紧</w>
shor e</w>
s elec
g ul
expres sion</w>
6 2</w>
共和 党</w>
po is
employ er</w>
草 图</w>
显 然</w>
reco gnition</w>
promis e</w>
elig ible</w>
放 在</w>
增长 率</w>
一 向</w>
t ent
qi ao</w>
nei ther</w>
i m</w>
frequ ently</w>
em anci
emanci p
阿拉 伯</w>
停车 场</w>
long ed</w>
f lu
ch u
a wards</w>
1 4.
时间 表</w>
所 在</w>
cordi al</w>
comm em
ar ats</w>
零 零</w>
演 讲</w>
地 产</w>
loc k</w>
企业 家</w>
中 东
stead ily</w>
injur ies</w>
大 业</w>
全 局</w>
de par
虚 假</w>
精神 文明</w>
科 研
港 湾</w>
历史 性</w>
刑 事
公共 服务</w>
伤 亡</w>
人 物</w>
自 然
特 征</w>
泊 车</w>
im posed</w>
马 会</w>
ul t</w>
origin ally</w>
nam es</w>
最 好</w>
real ization</w>
arti ll
观 众</w>
安 装</w>
国 内外</w>
ir ing</w>
e c</w>
cre d
attr acted</w>
沿 海</w>
应 对</w>
z he
ter ing</w>
susp en
mp ing</w>
b o</w>
酒 店</w>
第 六
全 力</w>
一 时</w>
st abil
pr o</w>
organiz ational</w>
m as
裁 判</w>
柬 埔
价 格
restaur ant</w>
regim e</w>
re mark
阿 富
第二 次</w>
分 割</w>
假 期</w>
behavi or</w>
言 论</w>
福 建</w>
比 重</w>
k ing
doub t</w>
cham ber</w>
融 资</w>
coordin ated</w>
警 队</w>
基 层
que ens
b id
批 出</w>
k m</w>
it a</w>
eg yp
非 政府</w>
参 拜</w>
不 变</w>
ra w</w>
n esses</w>
descri bed</w>
选 拔</w>
孩 子</w>
inf r
fly over</w>
与 会
world wide</w>
考 试</w>
千 元</w>
mot or</w>
it age</w>
as tic</w>
尽 量
体 制
licen sed</w>
difficul ty</w>
an net
平 台</w>
否 认</w>
互 相</w>
二十 五</w>
suspen sion</w>
re h
飞 弹</w>
竞 选</w>
国家 主权</w>
合 并</w>
保 安
举 报</w>
ti gh
stor age</w>
pro minent</w>
6 7</w>
伙 伴
ili ation</w>
he re
ap s</w>
三 次</w>
wim ax</w>
under taking</w>
poli tici
memb ership</w>
list en</w>
compos ite</w>
阿富 汗</w>
pra ised</w>
judg ing</w>
el ling</w>
dr in
bu dd
频 繁</w>
热 烈</w>
制 约</w>
summ er</w>
serv ic
ment ary</w>
hon or</w>
ap ped</w>
西 行</w>
各族 人民</w>
准 确</w>
众 多</w>
ex plic
tiv ity</w>
recogn ized</w>
pro longed</w>
十五 分</w>
别 的</w>
manufactu rers</w>
manag ed</w>
lo ad</w>
b ol
感 情</w>
圆 满
res ist</w>
inspec tions</w>
ind ices</w>
销 货</w>
组 织
百分之 三十</w>
格 局</w>
国 民</w>
lan e</w>
cu ba</w>
b in</w>
avi an</w>
适 合</w>
秘书 处</w>
日 起</w>
操 作</w>
z u
prelimin ary</w>
go od
be y
生 命
公 营</w>
sur face</w>
spe eding</w>
cul ts</w>
科学 技术</w>
中共 中央政治局</w>
af gh
传 播</w>
tow ns</w>
queens way</w>
高 于</w>
安 置</w>
各 界人士</w>
七 个</w>
to co
ref use</w>
1. 5</w>
有 权</w>
rec re
pers ist</w>
ital y</w>
dec ide</w>
ain ing</w>
同 事</w>
vac ancies</w>
ton n
r ail</w>
libr ary</w>
li ang</w>
in ary</w>
ar ch
空气 污染</w>
stor m</w>
p age</w>
nam ed</w>
k o</w>
b arri
au d
革 命
应 有</w>
大 众</w>
动 物</w>
parli ament
inf ection</w>
electr ic</w>
diffe rence</w>
candi date</w>
annet te</w>
外交 部长</w>
地 震</w>
re juven
fl u</w>
ex plan
记者 会</w>
荷 兰</w>
机 动</w>
文 字</w>
st ar</w>
ju dge</w>
演 出</w>
教 训</w>
培 育</w>
op h
bil ls</w>
any thing</w>
secre t</w>
e ter
def end</w>
竞 赛</w>
实 践
公 屋</w>
oc ca
occa sion</w>
min ds</w>
v ital</w>
crimin als</w>
bey ond</w>
对 华
一 百</w>
simp le</w>
res e
reh abil
fair ly</w>
燃 料</w>
artill ery</w>
am ents</w>
演 说</w>
客 户</w>
v oc
运 输
有 限</w>
容 许</w>
先进 性</w>
ti ally</w>
six th</w>
j oc
1. 2</w>
航空 公司</w>
守 则</w>
gul f</w>
foc used</w>
circul ar</w>
波 兰</w>
sco red</w>
marx ist</w>
ban k
用 地</w>
改 道</w>
宝 贵</w>
售 卖</w>
z er
w all</w>
u pper</w>
int ended</w>
款 项</w>
教科 书</w>
形 态</w>
usu ally</w>
tal king</w>
sym posi
se ve
限 期</w>
拿 道</w>
坚 拿道</w>
n er
exce eded</w>
equi valent</w>
靖 国
靖国 神社</w>
各 区</w>
m its</w>
critici zed</w>
b es</w>
强 烈
stipul ated</w>
l atin</w>
讲 座</w>
生 态</w>
thous ands</w>
mexic o</w>
往 往</w>
南 部</w>
k istan</w>
deb ts</w>
6 1</w>
载 有</w>
相互 了解</w>
百分之 二点</w>
百分 点</w>
yi el
t an</w>
pro lif
d ented</w>
省 委</w>
man d
jur is
for ged</w>
报 名</w>
v es
unprece dented</w>
spac es</w>
pharm ac
deleg ates</w>
若 否</w>
护 照</w>
形 势
pu shing</w>
dri ver</w>
univers al</w>
con stant</w>
西 班
指 责</w>
th ir
off ering</w>
k wan</w>
ghu a</w>
ch ance</w>
apo log
似 乎</w>
会 议
zhe jiang</w>
战略 性</w>
意 味
ran king</w>
pursu ing</w>
ad ing</w>
透 明
宪 报</w>
光 碟</w>
joc key</w>
ht m</w>
gol den</w>
电 力</w>
游 戏</w>
一 体
e igh
counterfe it</w>
20 10</w>
华 侨</w>
viol ation</w>
spo t</w>
de v
轨 道</w>
教 统</w>
control led</w>
ci gare
an i</w>
经 费</w>
八 百</w>
tic al
mand atory</w>
concep ts</w>
留 下</w>
引 入</w>
商 务</w>
n u
ag ents</w>
鼓 舞</w>
警 员</w>
社 署</w>
政 务
广 生</w>
使 得</w>
rep air</w>
k es</w>
es el</w>
cl ari
豁 免</w>
帐 目</w>
中 文</w>
gre w</w>
attr ibu
联合 公报</w>
石 广生</w>
旺 角</w>
六 个</w>
p on
ch eng
高度 评价</w>
金 正
参 议院</w>
ear th
be gun</w>
热 情</w>
委 托</w>
伙伴 关系</w>
superi ority</w>
georg e</w>
est ates</w>
面 前</w>
派 出</w>
校 长</w>
juris dic
identi fied</w>
confi dent</w>
ay ed</w>
资 本
证 明
wid er</w>
fur ther
entreprene urs</w>
en de
国务 院
d ow
ca su
体制 改革</w>
vot ed</w>
struc tures</w>
simp ly</w>
金正 日</w>
诉 讼</w>
工 厂</w>
t emp
happ ened</w>
adop ting</w>
ac u
造 业</w>
能 性</w>
百分之 一点</w>
孙 玉
prohib ited</w>
所 得</w>
ya su
tack le</w>
m s
inten sive</w>
dang er</w>
consoli d
普 通</w>
stri ving</w>
re n</w>
innov ative</w>
flo od</w>
c la
austral ian</w>
未 经</w>
建 造业</w>
model s</w>
ende av
第 四</w>
国际 法</w>
tical bookstore</w>
syn dic
statis ticalbookstore</w>
er t</w>
ch ong</w>
r ice</w>
out come</w>
nat ur
c au
十 二</w>
五 百
严 峻</w>
x in</w>
1 20</w>
政 策
意味 着</w>
ri ed</w>
defend ant</w>
contain er</w>
carri er</w>
过 境</w>
自 行</w>
组 建</w>
孙玉 玺</w>
人 均</w>
peac e
municip ality</w>
di esel</w>
choo se</w>
突 然</w>
务 实</w>
seve rely</w>
prolif eration</w>
larg er</w>
issu ing</w>
9 00</w>
十 九
transfer red</w>
ou tw
重 组</w>
自 治</w>
腐 败
监 督
思 路</w>
升 级</w>
保 持
ch ment</w>
再 度</w>
公安 机关</w>
qui to</w>
municip alities</w>
fri end</w>
dec lined</w>
本 年</w>
x u
see ing</w>
min im
ha w
compris ing</w>
政 制</w>
学 家</w>
北京 市</w>
党 组织</w>
今 晚</w>
主 管</w>
mac ro
lu o</w>
demonstr ated</w>
author ised</w>
破 产</w>
搜 查</w>
requ is
control ling</w>
comp liance</w>
a o
除 外</w>
通 报</w>
省 长</w>
军 官</w>
k ar
further more</w>
残 疾</w>
一体 化</w>
sur r
neighbor ly</w>
马 来
永 久</w>
护 署</w>
天然 气</w>
墨西 哥</w>
offic ially</w>
figh ter</w>
dr af
ab m</w>
海 域</w>
利 润</w>
tol er
tend er</w>
rui huan</w>
ir o</w>
formul ating</w>
寻 找</w>
失 踪</w>
大 大</w>
ves sel</w>
quar terly</w>
渔 护署</w>
民 航</w>
实 在</w>
商 讨</w>
可 能性</w>
tal ked</w>
invol ve</w>
f an</w>
exper im
澳大 利亚</w>
埃 及</w>
事 长</w>
retur ns</w>
j ing
fa x</w>
北 部</w>
一 度</w>
mort g
holi day</w>
f low
bel ar
大 事</w>
fer ry</w>
break through</w>
滋 病</w>
民 党</w>
pre ven
h arm
群 众
st ages</w>
obvi ously</w>
等 于</w>
生 物</w>
sh oc
ex posed</w>
bro ke</w>
kil o
acknow le
角 度</w>
搜 集</w>
战 区</w>
人 事</w>
wh at
organiz ing</w>
natur ally</w>
mos quito</w>
arri val</w>
am bi
透明 度</w>
科 研</w>
干 扰</w>
依 照</w>
speci fically</w>
注 重</w>
一 一</w>
writ ing</w>
practic ing</w>
gener ations</w>
dis closed</w>
introduc ing</w>
预 算
签 证</w>
symposi um</w>
sensi tive</w>
he igh
cros sing</w>
二 五</w>
d il
ai ming</w>
1 6.
十分 重视</w>
stop ped</w>
ound ly</w>
m l</w>
he av
comm uni
7 8
第二 季</w>
正 如</w>
seas on</w>
i x</w>
fran ch
n t</w>
follow ers</w>
热烈 欢迎</w>
武 装
拉 夫</w>
九 龙
y en</w>
re place</w>
送 往</w>
it ful</w>
chap ter</w>
ath le
调 控</w>
总 局</w>
一 级</w>
pos ing</w>
澳 门
柬埔 寨</w>
大 埔</w>
tal ents</w>
sh aring</w>
re viewed</w>
l ung</w>
an ian</w>
海 洋</w>
qu an</w>
out door</w>
eas ily</w>
c s</w>
min g
gu e</w>
evalu ation</w>
奠 定</w>
separ ately</w>
newsp apers</w>
critic ism</w>
conveni ence</w>
直 升
对 手</w>
regist er</w>
promp tly</w>
le um</w>
bann er</w>
al d</w>
联合 声明</w>
家 人</w>
scienti sts</w>
ex ac
volun te
tr il
refl ects</w>
destro yed</w>
restaur ants</w>
re ver
nation wide</w>
beauti ful</w>
起 到</w>
调查 科</w>
封 路</w>
图 谋</w>
国务 委员</w>
之 下</w>
tion ally</w>
stu died</w>
employe e</w>
发 扬</w>
up grade</w>
l er</w>
autonom y</w>
第一 季</w>
承 办</w>
计 画</w>
终 于</w>
水 湾</w>
teach er</w>
prosper ous</w>
commit ments</w>
遭 受</w>
近 年</w>
刑 罚</w>
七 点</w>
自 动</w>
新一 轮</w>
新 形势
新形势 下</w>
审 判</w>
十一 时</w>
pack age</w>
emb o
ch ick
证 书</w>
家 属</w>
外 汇
产 量</w>
prob ably</w>
outw ard</w>
con currently</w>
突 击</w>
思 维</w>
sh en</w>
gen u
步 骤</w>
t in
real istic</w>
loo ked</w>
hel ic
c .</w>
ap ping</w>
the ories</w>
se ems</w>
马来 西亚</w>
行 程</w>
打 破</w>
bir th</w>
斯 坦
印刷 版</w>
为 首</w>
toco l</w>
interf ere</w>
extr a</w>
dis played</w>
统一 大业</w>
真 的</w>
vig il
tr igg
sub marine</w>
rel ying</w>
pro tocol</w>
取 代</w>
中国人民 解放军</w>
qu ake</w>
mp f</w>
helic op
gi ves</w>
exc ise</w>
coordin ate</w>
cen ters</w>
新西 兰</w>
地 铁</w>
回 顾</w>
发 布
价 值
不 论</w>
上 将</w>
tur key</w>
restric ted</w>
let ters</w>
cor ps</w>
compon ent</w>
克 兰</w>
requ ested</w>
is ol
integr ate</w>
ag ers</w>
通 常</w>
岗 位</w>
内 阁</w>
争 议</w>
董 事</w>
巴 黎</w>
太平 洋</w>
weap on
sinc er
sincer ity</w>
off ensive</w>
h es
邮 购</w>
传 真</w>
ou d</w>
dist inc
c a</w>
策 划</w>
后 果</w>
右 翼</w>
亲 自</w>
he ight</w>
回 收</w>
中 午</w>
per mitted</w>
lis tic</w>
clo thing</w>
ak es</w>
划 分</w>
y er</w>
u gh
str ai
se iz
out break</w>
lun ar</w>
fle et</w>
eng aging</w>
19 80</w>
结 论</w>
和 解</w>
三 千</w>
pl ays</w>
kun i</w>
fl ag
col on
1 00,000</w>
行 车</w>
自 焚</w>
海 峡</w>
恐怖 主义</w>
pi p
额 外</w>
中 说</w>
一 段
refer red</w>
伤 害</w>
wan chai</w>
wa ve</w>
n ers</w>
贸易 额</w>
评 审</w>
短 期</w>
治 国</w>
多 边</w>
九 届</w>
succ essively</w>
lo se</w>
guang xi</w>
decreas es</w>
ch er
volunt ary</w>
ten ants</w>
bal listic</w>
扩 大
上 来</w>
syst em
sove reign</w>
han ded</w>
good will</w>
e ously</w>
com ment</w>
ar ous
火 箭</w>
vot ing</w>
suspec ts</w>
1 000</w>
西班 牙</w>
监 会</w>
政务 司</w>
技 能</w>
总 区</w>
ti ary</w>
sh ared</w>
lic ences</w>
consequ ences</w>
at tained</w>
驾 车</w>
四 百
商 贸</w>
exten sion</w>
极 化</w>
同 一</w>
sl op
lo k</w>
grad es</w>
bus y</w>
af cd</w>
街 市</w>
本 报
milit ar
inf lation</w>
exten sively</w>
des ire</w>
deal t</w>
coun ties</w>
外 贸</w>
信 仰</w>
supervis ory</w>
pres cri
k id
0 9</w>
谋 求</w>
警务 人员</w>
经营 者</w>
理 事会</w>
举 行
yasu kuni</w>
travel ling</w>
j uni
un changed</w>
the red</w>
relig ion</w>
previ ously</w>
pion e
mean ing</w>
cambodi a</w>
集 团
资 源
百分之 十</w>
消 息
sp ent</w>
flexi ble</w>
fam ili
十二 时</w>
y an
i hood</w>
hon est</w>
discus sing</w>
deman ded</w>
am ended</w>
明 天</w>
成 熟</w>
guil ty</w>
ar ising</w>
and ong</w>
7 7</w>
语 言</w>
早 前</w>
层 面</w>
农 业
不 够</w>
vot ers</w>
en quiry</w>
租 金</w>
检察 院</w>
司 令
人 手</w>
w is
u ms</w>
sett le</w>
9 2</w>
行 使</w>
消费 品</w>
对 付</w>
垃 圾</w>
使用 者</w>
yu xi</w>
seas onally</w>
f arm</w>
cop y
coll ect</w>
前 途</w>
spe ak</w>
prepar e</w>
彼 此</w>
ro te</w>
am a</w>
1 7.
这 份</w>
身 上</w>
获 准</w>
看 来</w>
活 跃</w>
党和 国家</w>
一 部</w>
m atic</w>
防 卫</w>
很 快</w>
s ity</w>
repe ated</w>
remark able</w>
j an</w>
fru itful</w>
三 国</w>
七 时</w>
repres ented</w>
ic ide</w>
gar den</w>
frau d</w>
corrup t</w>
父 母</w>
低 于</w>
仪 器</w>
一 步
w rote</w>
tic kets</w>
expl ain</w>
emb ar
c ell
无 疑</w>
neighb ors</w>
bom bing</w>
通 货
赛 马会</w>
本 署</w>
好 处</w>
wor ried</w>
par is</w>
me rely</w>
categ ory</w>
sligh tly</w>
mil li
e di
c ant
十 八</w>
促 使</w>
ow ing</w>
explo sion</w>
cho w</w>
7 3</w>
2. 5</w>
农 村
zh i
weapon ry</w>
transp aren
pro cu
pr ag
figh ters</w>
选 票</w>
议 程</w>
直升 机</w>
推 向</w>
利用 外资</w>
sud den
separ ation</w>
satell ites</w>
repor tedly</w>
petro leum</w>
bat ch</w>
at tain</w>
脱 困</w>
美 好</w>
毛泽 东</w>
新 年</w>
弹 道
transparen cy</w>
stoc ks</w>
institu tional</w>
ht ml</w>
custom er</w>
赔 偿</w>
私 家
私家 车</w>
副 委员长</w>
享 受</w>
二十 四</w>
举 措</w>
w ill
serv es</w>
音 乐</w>
电 话
控 制
买 卖</w>
up coming</w>
s mar
qu esti
m p</w>
distribu ted</w>
b lin
流 通</w>
diver si
长期 以来</w>
分 类</w>
li vel
耶 夫</w>
港 人</w>
impro vements</w>
dispu te</w>
五 点</w>
中 日
不 移</w>
tonn es</w>
formul ation</w>
本 次</w>
播 出</w>
充 满</w>
边 境</w>
轻 微</w>
普 通
下 半年</w>
respec ts</w>
ce as
物 价</w>
战 斗</w>
合 适</w>
十 四
作 业</w>
人 才
prof oundly</w>
parliament ary</w>
mor rison</w>
h ing</w>
brea king</w>
发 达</w>
信息 技术</w>
sh op
首 脑</w>
tis m</w>
re conc
ch er</w>
独 立
化 验</w>
s add
il lic
identi fy</w>
7 1</w>
被 控</w>
sudden ly</w>
s lo
f ash
decis ive</w>
薪 金</w>
所 属</w>
委 书记</w>
z hong</w>
vo ice</w>
ten sion</w>
rel ess</w>
q in</w>
in stru
f ail</w>
b un
防 范</w>
纪 委</w>
纠 纷</w>
口 岸</w>
九 时</w>
东 区</w>
re mark</w>
pres entation</w>
mongoli a</w>
illic it</w>
co verage</w>
appl ying</w>
部长 级</w>
s ar
s an
rel ation</w>
recti fication</w>
per mits</w>
lin ess</w>
exam ined</w>
autom o
通 知
蒙 古</w>
发布 会</w>
印 度
一 代</w>
so red</w>
she ung</w>
rad ar</w>
ne ther
8 8</w>
结 果
注 册
投 标</w>
r mb</w>
fash ion</w>
歧 视</w>
商 机</w>
人 心</w>
ten ing</w>
sh am</w>
re moved</w>
r o</w>
prepar ing</w>
inter im</w>
do z
di gn
是 不是</w>
sec tions</w>
observ ed</w>
i tions</w>
警务 处</w>
出 台</w>
sup plies</w>
hom es</w>
form ally</w>
fi er
back ward</w>
赤 字</w>
订 明</w>
产 值</w>
mar g
达 成
诺 夫</w>
绿 化</w>
积极 性</w>
万 年</w>
spon sored</w>
clo sing</w>
1 2
整 体
在 座</w>
tw ice</w>
k i</w>
落 成</w>
时 报</w>
关 系
ri gh
jiang su</w>
iz hou</w>
fir ms</w>
cl aim</w>
7 6</w>
世 纪
malaysi a</w>
her itage</w>
元 化</w>
交易 所</w>
whol es
viol ated</w>
u ous</w>
kazak h
ban qu
心 脏
坚定 不移</w>
医 疗
tre ated</w>
sou ght</w>
quali fications</w>
dist ingu
ach ie
采取 措施</w>
打 道</w>
失业 率</w>
判 决</w>
公 告</w>
persist ently</w>
li fe
assess ed</w>
adju stments</w>
十 四</w>
fo ster</w>
exac tly</w>
enti rely</w>
doc tors</w>
con tain</w>
an a</w>
赞 成</w>
感 觉</w>
z x
证 监会</w>
知 悉</w>
智 利</w>
不 顾</w>
tril lion</w>
sam ples</w>
oblig ations</w>
i .
comm unique</w>
达成 协议</w>
老 师</w>
少 数
削 减</w>
ti me
ram p</w>
mar ines</w>
f ang</w>
e ye</w>
相 结合</w>
地 面</w>
别 人</w>
中 全会</w>
雷 达</w>
视 察</w>
舞 台</w>
监 测</w>
时 机</w>
六 点</w>
二 七</w>
posi t</w>
持 牌</w>
三 角</w>
ma p</w>
de posit</w>
ar bit
财 经</w>
第三 季</w>
现 金</w>
wel comes</w>
u k</w>
re pu
fish eries</w>
accoun ted</w>
祝 愿</w>
回 避</w>
wid ely</w>
resid ent</w>
pun ishment</w>
通知 书</w>
选 出</w>
南 省</w>
列 为</w>
ti ous</w>
te sted</w>
ni a</w>
la sting</w>
西 九龙</w>
zx s</w>
under take</w>
strugg les</w>
indic ates</w>
f ly</w>
dis pos
多 极化</w>
公 开
ch aired</w>
anim al</w>
音 乐
聘 用</w>
放 宽</w>
南 斯
借 鉴</w>
一 事</w>
sinc e
ill nesses</w>
re forming</w>
p an</w>
ef s</w>
collabor ation</w>
achie vement</w>
讯 息</w>
心 理</w>
传 染
win d</w>
vi c</w>
obstac les</w>
kazakh stan</w>
gr a
com for
退 出</w>
港 澳</w>
基 建</w>
单 车</w>
全 党</w>
保安 局</w>
交 界</w>
y o
b ab
邦 国</w>
对 方</w>
国际 形势</w>
吴 邦国</w>
七 一</w>
ri sts</w>
leag ue</w>
circul ation</w>
资 企业</w>
皮 书</w>
一 个月</w>
usu al</w>
st one</w>
ide als</w>
d avi
aven ue</w>
首 席</w>
纺 织
科学 院</w>
版 权</w>
tre es</w>
del ta</w>
里 面</w>
satisfac tory</w>
gu o
规 会</w>
类 型</w>
摘 要</w>
一九九 六年</w>
prov en</w>
fe ver</w>
d f</w>
arbit r
air space</w>
ad minist
若 干</w>
探 员</w>
copy right</w>
aren a</w>
ad just</w>
accep table</w>
连 串</w>
获 悉</w>
含 量</w>
两 人</w>
re v
presid ed</w>
explor ation</w>
ap pra
复 兴</w>
生态 环境</w>
文 署</w>
大 使馆</w>
会 员</w>
ran k</w>
r ai
pe ar
n g</w>
accor d</w>
现 状</w>
名 为</w>
两 种</w>
wat er
k er</w>
j p</w>
f m</w>
览 会</w>
stat ements</w>
sig nal</w>
recomm ended</w>
min ing</w>
labor atory</w>
dis armament</w>
destruc tion</w>
dam aged</w>
运 动
招 标</w>
回 升</w>
since rely</w>
braz il</w>
战 术</w>
总 量</w>
定 书</w>
livel ihood</w>
ide al</w>
i. e.</w>
human it
bri ef</w>
amoun ts</w>
财 富</w>
中 华</w>
严 厉</w>
promis ed</w>
op ti
joh n</w>
旅 行</w>
大 臣</w>
只 会</w>
regul arly</w>
kw ok</w>
f lights</w>
br and</w>
开 设</w>
八 岁</w>
opti mis
nom ination</w>
f ounded</w>
contain ers</w>
battle field</w>
高 素质</w>
社会 治安</w>
t sing</w>
n d</w>
a str
航 天
用 作</w>
tou rists</w>
sub sid
shar p</w>
per mission</w>
ong s</w>
mo vi
西 贡</w>
end ang
compon ents</w>
au c
感 受</w>
中 环</w>
一 再</w>
so ft</w>
计算 机</w>
游 行</w>
深 水</w>
接 待</w>
外 商</w>
selec ting</w>
in put</w>
con sent</w>
am id</w>
18 .
外 地</w>
名 称</w>
d er
cle arance</w>
许 可</w>
行 径</w>
累 计</w>
sm all
cre ative</w>
appe aled</w>
ail ing</w>
民 意</w>
无 论是</w>
伊 斯
sen ding</w>
议 定书</w>
健 行</w>
sur pris
su it</w>
procurat orate</w>
li ed</w>
g amb
终 止</w>
练 习
游 客</w>
告 士</w>
vent ure</w>
ta k</w>
mon o
journ alists</w>
invol ves</w>
expec tations</w>
7 2</w>
边 界</w>
日 子</w>
vis a</w>
occup ational</w>
mo ves</w>
l ying</w>
h ang</w>
atis m</w>
ans wered</w>
第三 次</w>
ev a</w>
de a
这 场</w>
服务 中心</w>
政 司</w>
心脏 病</w>
别 国</w>
spo ts</w>
pear l</w>
it ably</w>
high way</w>
试 点</w>
敏 感</w>
年 轻
inter vention</w>
har mon
gu est</w>
ca us
1. 3</w>
多 元化</w>
和 谈</w>
信 号</w>
供应 商</w>
secur e</w>
n it
n ig
emerg ed</w>
care ful</w>
配 套</w>
派 发</w>
患 有</w>
一九 七
ph ones</w>
guang sheng</w>
cot ton</w>
appro ach
百分之 三点</w>
sub jects</w>
shap e</w>
pharmac eu
acceler ating</w>
证明 书</w>
百分之 五十</w>
白 皮书</w>
如 欲</w>
resist ance</w>
phenomen on</w>
out lets</w>
l or
尉 健行</w>
si mult
simult an
concentr ate</w>
associ ated</w>
陆 续</w>
十二 个</w>
万 吨</w>
under stood</w>
ou ce
ouce ster</w>
gl oucester</w>
意 愿</w>
与 会</w>
macro economic</w>
e ase</w>
canad ian</w>
a sion</w>
弹道 导弹</w>
反 而</w>
t us</w>
sent ence</w>
ro man
popul ar
pat ent</w>
li en</w>
gre et
comp iled</w>
输 往</w>
管 道</w>
张 万年</w>
康 文署</w>
定 位</w>
到 达</w>
修 正
x im
ste ph
rehabil itation</w>
inter viewed</w>
c up</w>
律 政司</w>
处 分</w>
全 体
ref er</w>
intensi fied</w>
greet ings</w>
连 接</w>
返 回</w>
受害 人</w>
un il
texti le</w>
concentr ated</w>
八 点</w>
mal e</w>
灵 活</w>
披 露</w>
哪 些</w>
出 访</w>
sadd am</w>
inspec ted</w>
for man
el a</w>
edit orial</w>
commod ity</w>
ber t</w>
announ c
伪 造</w>
un re
qu an
pris on</w>
k wong</w>
investig ated</w>
g an</w>
di vis
打 赢</w>
tim ate</w>
temper ature</w>
sett led</w>
min or</w>
科学 家</w>
地 球</w>
修正 案</w>
ten s</w>
speak er</w>
il ing</w>
g ang
ast ers</w>
acceler ated</w>
调 动</w>
中 南海</w>
pre requis
nation ality</w>
fe i</w>
试 图</w>
救 援</w>
市 委</w>
o ked</w>
b ird</w>
20 ,000</w>
日 内
报 纸</w>
乌 克兰</w>
young er</w>
mod er
领导 班子</w>
意 志</w>
城 镇</w>
公 安</w>
vill ages</w>
un anim
it or</w>
exclu sive</w>
depart mental</w>
陆 军</w>
阿 尔
球 场</w>
提 到</w>
十 三</w>
刚 才</w>
主 导</w>
re vision</w>
开 创</w>
三 千
t y
observ atory</w>
ep age</w>
de en</w>
表 述</w>
监 测
总 统
列 入</w>
contain s</w>
ab er
阶 层</w>
违 背</w>
发 生
世界 各地</w>
三 项</w>
un less</w>
isl am
banqu et</w>
足 以</w>
裁 军</w>
社会 各界</w>
常务 委员会</w>
xi ao</w>
ve get
resul ted</w>
re viewing</w>
al located</w>
据 报</w>
mortg age</w>
king dom</w>
fl at</w>
feasi bility</w>
br il
4 ,
wis dom</w>
reci pi
institu tes</w>
h ung
思 考</w>
固 定</w>
命 运</w>
信 用
中央政治 局
stipul ations</w>
r d</w>
k en
determin e</w>
解放 思想</w>
按 季</w>
多 人</w>
外 活动</w>
inst alled</w>
训 练
取 缔</w>
九 个</w>
主 流</w>
consul t</w>
贫 困</w>
旗 帜</w>
人 力
te i</w>
f aster</w>
exp o</w>
dec ade</w>
爆 炸
充 满
ter tiary</w>
respon dents</w>
h ai
feren tial</w>
cam p</w>
aber deen</w>
风 暴</w>
常 化</w>
分 之一</w>
li qu
ex po
bro ken</w>
au gh
3 ,000</w>
首 长</w>
随 时</w>
可 靠</w>
人民 日报</w>
三 大</w>
ten ed</w>
se ment</w>
neighbor ing</w>
ha z
co ast</w>
独 特</w>
士 兵</w>
信 托</w>
不 时</w>
sub marines</w>
pho to</w>
oper ated</w>
multi ple</w>
di stor
25 82</w>
赛 事</w>
访 者</w>
动 摇</w>
tac tics</w>
ro y
pres sing</w>
dign ity</w>
deter i
经济 社会</w>
摩 利</w>
乐 观</w>
一 半</w>
t u</w>
sa ving</w>
less ons</w>
leag ues</w>
9 4</w>
交 谈</w>
之 所以</w>
utili zation</w>
ord erly</w>
offic i
dis semin
水 域</w>
无 牌</w>
pre ferential</w>
bri g
bran ches</w>
身 体</w>
署 理</w>
电 信</w>
消息 人士</w>
排 除</w>
平 等
du l
am m
订 单</w>
大 幅度</w>
人民 代表大会</w>
x es</w>
she et</w>
dy nam
compe t
accompl ish</w>
日内 瓦</w>
国 力</w>
叙 利亚</w>
前 来</w>
中 西部</w>
seiz ure</w>
obvi ous</w>
l an</w>
集 会</w>
诊 所</w>
出 入境</w>
中央政治局 常委</w>
reli able</w>
b b
自 我</w>
学 术</w>
中 有</w>
tari ff</w>
ro ll</w>
org an</w>
not ing</w>
bur dens</w>
标 题</w>
当 今
强 制
东 南亚</w>
一 带</w>
quot ed</w>
moun tain</w>
expres sing</w>
eigh th</w>
d rought</w>
cl asses</w>
automo bil
奥 运</w>
全 省</w>
ukrain e</w>
sw d</w>
some one</w>
gor e</w>
gir l</w>
锣 湾</w>
铜 锣湾</w>
结果 显示</w>
深 远</w>
水 资源</w>
倾 向</w>
cre ati
accoun t
练习 者</w>
正 面</w>
可 行
victi m</w>
dis asters</w>
classi fied</w>
caus eway</w>
bank rup
accur ate</w>
较 为</w>
解 除</w>
十 六</w>
reconc iliation</w>
ob ser
dialogu es</w>
振 兴</w>
团 结
tru sted</w>
sw er
rob bery</w>
l eng
belar us</w>
arg ent
订 定</w>
自 愿</w>
娱 乐</w>
仅 仅</w>
不 愿</w>
urg e</w>
pic ture</w>
d c</w>
commun ities</w>
第四 季</w>
ye e</w>
speci ally</w>
r ation
publish ing</w>
divi ded</w>
con ce
高 达</w>
国 王</w>
吸 引
互 动</w>
x ian</w>
re sumption</w>
d augh
char ter</w>
花 园</w>
整 治</w>
布 什
传染 病</w>
人 事
中国 外交部</w>
tech ni
se f</w>
moun ted</w>
industri alization</w>
comm en
驻华 大使</w>
车 站</w>
新闻 界</w>
当今 世界</w>
九届 全国人大</w>
un ite</w>
procu rement</w>
pres ence</w>
ist ani</w>
c mc</w>
as signed</w>
戈 尔</w>
市 政局</w>
尊 严</w>
创 作</w>
produc tivity</w>
or ities</w>
in land</w>
dg es</w>
coun ts</w>
ch u</w>
解决 问题</w>
强 硬</w>
地 说</w>
入 口</w>
yun nan</w>
dedic ated</w>
ag ement</w>
美国 国会</w>
四 时</w>
后 勤</w>
li ant</w>
di v
col leagues</w>
adv ancement</w>
顺 利
国 债</w>
tu red</w>
short age</w>
ren tal</w>
on y</w>
enjo yed</w>
国 人</w>
promulg ated</w>
in comes</w>
ed y</w>
e i</w>
du m</w>
ass ess</w>
our able</w>
dis abled</w>
绝 大多数</w>
本 届</w>
trans mission</w>
the ater</w>
proper ties</w>
ig nor
ga thered</w>
equ ity</w>
7 4</w>
记 处</w>
肺 炎</w>
symp tom
propos e</w>
me te
g la
e x</w>
火 力</w>
毛 病</w>
多 方面</w>
吸 收</w>
两 大</w>
ve ter
mag az
加 紧</w>
冠 军</w>
什 么样</w>
五 名</w>
we aring</w>
typ ho
tt es</w>
tempor arily</w>
ment ality</w>
flexi bility</w>
expo sure</w>
aspir ations</w>
9 6</w>
科技 进步</w>
相 继</w>
台 办</w>
务 求</w>
foc using</w>
f ty</w>
f ab
cap ita</w>
两 者</w>
tor ies</w>
don ald</w>
此 举</w>
年 人</w>
一 千</w>
occu pi
inspec t</w>
非 正式</w>
斯 特
截 止</w>
尽量 减少</w>
十 时</w>
共同 利益</w>
e ur
1 30</w>
销售 处</w>
物 资</w>
填 妥</w>
transi t</w>
piec e</w>
contribu ted</w>
con tained</w>
解放 军
研 发</w>
合法 权益</w>
ye v</w>
regul ate</w>
pat ro
gun s</w>
普 查</w>
市 政</w>
不得 不</w>
三 天</w>
一 方</w>
where as</w>
un swer
si u</w>
sa ve</w>
rang ing</w>
mess ages</w>
le i</w>
constitu te</w>
con secu
alle vi
国 事
国事 访问</w>
一 个
tre at</w>
steph en</w>
res or
electron ics</w>
机 械</w>
早 已</w>
实 验
le ban
contrac tor</w>
accumul ated</w>
继 承</w>
绝 不</w>
强 劲</w>
三 时</w>
wi reless</w>
what ever</w>
w ant
sh andong</w>
pol l</w>
piec es</w>
patrio tic</w>
communi ques</w>
那 种</w>
证 件</w>
瞩 目</w>
商业 银行</w>
who m</w>
tr ag
subsi di
stre am
it h</w>
gen eva</w>
还 会</w>
比 如</w>
军事 演习</w>
交 流
s mes</w>
ri bao</w>
rese tt
nor theast</w>
col um
analy sts</w>
王 永
植 物</w>
希 腊</w>
to b
pr u
om s</w>
lim its</w>
becom es</w>
19 .
领 空</w>
道 歉</w>
相互 尊重</w>
炸 弹</w>
列 出</w>
互 信</w>
symptom s</w>
some times</w>
r an</w>
ou l</w>
infr ing
humanit arian</w>
dispos al</w>
cur ricul
盟 国</w>
理 念</w>
transi tion</w>
por tu
银 行
秘 书</w>
已 于</w>
termin al</w>
mic ro
gamb ling</w>
cont em
2 50</w>
总 会</w>
大力 发展</w>
印 象</w>
不 久
suspec t</w>
sel ect</w>
s ab
philipp ine</w>
phenomen a</w>
mete or
lia oning</w>
ir on</w>
conveni ent</w>
as set</w>
订 立</w>
监测 站</w>
死 者</w>
接 纳</w>
忘 录</w>
备 忘录</w>
subsequ ent</w>
sem i</w>
or ation</w>
internation ally</w>
8 9</w>
邮 件</w>
道 理</w>
艰 巨</w>
基金 会</w>
历 来</w>
九 百</w>
两国 政府</w>
电 影
收 购</w>
工 务局</w>
办 事</w>
判 处</w>
一段 时间</w>
contr ary</w>
au stri
妥 善</w>
同 学</w>
加 剧</w>
wh el
it ly</w>
cr acking</w>
观 察
百 姓</w>
始 终
web sites</w>
tri ad</w>
so il</w>
separ ated</w>
del ay</w>
defin ed</w>
c em
获 取</w>
意 识
家 庭
关 切</w>
under taken</w>
franch ised</w>
exam ples</w>
dis rup
痴 迷
斜 坡</w>
意识 形态</w>
启 用</w>
不久 前</w>
olymp ics</w>
council s</w>
congres ses</w>
bel gi
追 究</w>
经济 效益</w>
南 京</w>
tent h</w>
si mul
se vent
r a</w>
demonstr ation</w>
8 6</w>
起 诉</w>
财政 部</w>
根本 上</w>
智 慧</w>
广 西</w>
从 根本上</w>
sevent h</w>
re action</w>
pun ished</w>
ot ing</w>
g org
捍 卫</w>
代 价</w>
pak istani</w>
over whel
贩 毒</w>
物 流</w>
总 参谋长</w>
处 在</w>
speci alized</w>
布什 总统</w>
乡 村</w>
discipl inary</w>
空 袭</w>
现 任</w>
对外 贸易</w>
可 见</w>
可 是</w>
保 养</w>
亚 欧</w>
f it
en force</w>
comm an
新闻 稿</w>
携 手</w>
农 历</w>
hosti le</w>
en coun
em ed</w>
0 s</w>
进 一步
进一步 提高</w>
灾 害</w>
提 供
军 备
举行 会谈</w>
judg es</w>
bo at</w>
at el
相 当
清 醒</w>
她 们</w>
增长 速度</w>
re strain
prin ting</w>
m n
称 为</w>
痴迷 者</w>
拥 护</w>
手 机</w>
夥 伴</w>
zh en
pol and</w>
or al</w>
ici ans</w>
gr ants</w>
creati vity</w>
大 战</w>
发展 局</w>
quot a</w>
pho en
nether lands</w>
kil ling</w>
ent our
cre ation</w>
ch ur
ail ed</w>
9 1</w>
随 即</w>
生 育</w>
指 控</w>
共 处</w>
传统 友谊</w>
time table</w>
情 绪</w>
reti red</w>
rein force</w>
mo di
initi ated</w>
d ingly</w>
advoc ate</w>
9 7</w>
年 前</w>
军 国主义</w>
suff ering</w>
el ine</w>
阻 止</w>
走 上</w>
打 算</w>
创 意</w>
s men</w>
resid ence</w>
registr y</w>
phoen ix</w>
lin ing</w>
congratul ations</w>
普 及</w>
摆 脱</w>
口 头</w>
受 惠</w>
乔 石</w>
ro les</w>
phil atel
enc ing</w>
en vo
air lines</w>
安 定</w>
ta ji
smar t</w>
舰 队</w>
中日 关系</w>
stic k</w>
sho t</w>
peas ant</w>
facilit ating</w>
adver ti
鼓 吹</w>
访 美</w>
天 津</w>
大 中</w>
to m</w>
preser ve</w>
no ise</w>
n .</w>
inter ior</w>
gl orious</w>
香港特别行政 区政府</w>
百 万</w>
控 罪</w>
拦 截</w>
利 息</w>
prerequis ite</w>
in ity</w>
exc essive</w>
earth quake</w>
care er</w>
正 常化</w>
标 签</w>
封 锁</w>
合 办</w>
smo king</w>
inf ec
cl ass
宣 称</w>
ti tle</w>
judg ment</w>
g ao</w>
fin ding</w>
e ased</w>
跨 国
海 南</w>
侵 略
post al</w>
m tr</w>
k ang</w>
entour age</w>
co ali
ab sor
重 庆</w>
轰 炸</w>
缅 甸</w>
renew al</w>
politici ans</w>
inev itably</w>
fac tories</w>
casu alties</w>
a side</w>
遵 循</w>
明 显
审 计</w>
大 致</w>
人 群</w>
sole mn</w>
protec ted</w>
pri ze</w>
视 乎</w>
要 素</w>
布 莱
四 千</w>
农民 收入</w>
内 涵</w>
ur gency</w>
preven tive</w>
jian xing</w>
d ad</w>
arous ed</w>
a eg
香港特 区政府</w>
结 算</w>
所 说</w>
j ord
ital ian</w>
a p</w>
转 让</w>
俄罗 斯
w ann
ti er</w>
资本 主义</w>
深 圳
手 法</w>
同 比</w>
we igh
tion ing</w>
t am
m m</w>
budd h
aw a</w>
遗 憾</w>
进 度</w>
负 债
系 统
战斗 机</w>
wholes ale</w>
st aged</w>
small er</w>
reser vo
bo y</w>
见 面</w>
油 麻</w>
情 报
总 经理</w>
可 望</w>
会 同</w>
人力 资源</w>
ut most</w>
phot ograph
coali tion</w>
bann ed</w>
走 出</w>
中 型</w>
y ao</w>
victor ia</w>
gradu ates</w>
acc o</w>
2 0.
语 文</w>
外 来</w>
基本 上</w>
出 版
人 大常委会</w>
三 条</w>
tob acco</w>
pa rent</w>
开 辟</w>
以 此</w>
st ad
se t
sav ings</w>
re placed</w>
min i</w>
im ag
i ans</w>
counter parts</w>
金 大中</w>
那 里</w>
监 狱</w>
毕 业
小 型</w>
安 南</w>
城 规会</w>
sa ke</w>
reach es</w>
off ers</w>
not able</w>
judic i
he ar</w>
bir ds</w>
萨 达
正 义</w>
招 聘</w>
态 势</w>
州 市</w>
喜 欢</w>
军备 竞赛</w>
二 三</w>
w aves</w>
tw en
te en</w>
t ough</w>
su icide</w>
so le</w>
inev itable</w>
ef ul
bor ne</w>
章 启
章启 月</w>
比 利
此 前</w>
st alls</w>
si ght</w>
public ly</w>
per forman
lo s</w>
colleg es</w>
applic able</w>
混 乱</w>
工商 界</w>
中国人民 银行</w>
xia o
text book</w>
t se
pro test</w>
performan ces</w>
pass age</w>
方 位</w>
地 图</w>
中 非</w>
observ ation</w>
law ful</w>
hegemon ism</w>
explic itly</w>
理 想
ro ot</w>
famili ar</w>
cigare ttes</w>
究 竟</w>
清 晰</w>
当 值</w>
少数 民族</w>
审 理</w>
完 全
卫生 防护</w>
初 期</w>
三 岁</w>
shop ping</w>
ro r</w>
lo fty</w>
k am</w>
im plic
igh ton</w>
adv ances</w>
百分之 四十</w>
女 性</w>
sac red</w>
p g</w>
mo tions</w>
le ighton</w>
h ering</w>
ex tra
des er
certi fied</w>
adop tion</w>
so cc
minu te</w>
mac au</w>
endor sed</w>
demonstr ate</w>
anim als</w>
规 划
缴 付</w>
纺织 品</w>
暴 露</w>
wann ian</w>
socc er</w>
norm ally</w>
gazet ted</w>
du mping</w>
防 治</w>
观 塘</w>
纠 正</w>
改 行</w>
recru it
mat ch</w>
le af
kilo grams</w>
ho m</w>
最 多</w>
判 断</w>
保 存</w>
y ang
v acc
ad hering</w>
非 法
表 决</w>
瑞 典</w>
焦 点</w>
敌 人</w>
奖 励</w>
t ree</w>
s par
s low</w>
gla d</w>
统 治</w>
n a</w>
judici ary</w>
dep end</w>
bo s
an ticip
藏 有</w>
学 术
t ance</w>
squ ad</w>
recruit ment</w>
it em</w>
deplo y</w>
认真 学习</w>
萨达 姆</w>
收 回</w>
携 带</w>
wor thy</w>
ol der</w>
dis charge</w>
课 税</w>
每 次</w>
收 取</w>
户 外活动</w>
划 作</w>
work er</w>
rejuven ation</w>
proce ed
pro ve</w>
law yers</w>
杂 志</w>
廉 政</w>
一九九 二年</w>
temp le</w>
pri mar
dev ices</w>
council or</w>
conve yed</w>
8 1</w>
董 事长</w>
清 洗</w>
sup pli
resolu te</w>
k in</w>
f s</w>
cho sen</w>
bril liant</w>
au th
雇 用</w>
礼 顿</w>
开 办</w>
十 一</w>
中 间</w>
不 利</w>
三 角
tal ented</w>
s log
proceed ings</w>
mi cha
i v
i bility</w>
葡 萄
合 资</w>
众 议院</w>
syndic ate</w>
surve ys</w>
se es</w>
op tions</w>
mar king</w>
艰 苦
政 务</w>
二 读</w>
train ed</w>
t ine</w>
stres sing</w>
ab ling</w>
颁 发</w>
基 因</w>
全 有</w>
sha anxi</w>
sh are
ow ed</w>
hu ai
期 限</w>
党和 政府</w>
人 道
th ers</w>
im pose</w>
f ar
dea ths</w>
athle tes</w>
纽 约
移 动</w>
百分之 四点</w>
国防 教育</w>
一 号</w>
semin ars</w>
mp fa</w>
manag ers</w>
hun an</w>
197 2</w>
警 惕</w>
器 材</w>
傅 全有</w>
借 口</w>
上 周</w>
st ory</w>
requ ests</w>
re mo
phot os</w>
com posed</w>
辅 导</w>
停 泊</w>
从 来</w>
indones ian</w>
赞 同</w>
总 是</w>
信 贷</w>
介 入</w>
split tist</w>
pen ding</w>
o x
cham pion
bang guo</w>
ap pli
生 存</w>
月 初</w>
提 前</w>
地 利</w>
偏 高</w>
k er
i b
geograph ical</w>
fundament ally</w>
ann an</w>
运 动员</w>
涉 案</w>
弘 扬</w>
党 内</w>
以 为</w>
la ying</w>
i v</w>
gorg es</w>
egyp t</w>
cy cle</w>
connec ted</w>
送 交</w>
符 合
中华人民 共和
yu an
trad itions</w>
through s</w>
l a</w>
entr ance</w>
bon d</w>
al ize</w>
afgh an
极 为</w>
据 介绍</w>
对 性</w>
四 是</w>
si gh
posi tively</w>
break throughs</w>
academ ies</w>
进 口
过 渡</w>
赞 扬</w>
康 复</w>
philatel ic</w>
explor ing</w>
discrimin ation</w>
att acked</w>
afghan istan</w>
模 拟</w>
店 铺</w>
几 天</w>
全 民</w>
occup ation</w>
f i</w>
目 前
率 先</w>
善 意</w>
不 能
s wi
s enti
p ao</w>
jiang xi</w>
diver sions</w>
bal anced</w>
身 分</w>
格 达</w>
形 式
基 督
原 有</w>
制 止</w>
出 席会议</w>
under ground</w>
sep h</w>
jo seph</w>
issu ance</w>
e tr
最 少</w>
办公 时间</w>
二十 年</w>
tri bun
sac ri
pharmaceu tical</w>
on ary</w>
mobil ization</w>
ky r
invol vement</w>
encoun tered</w>
有 益</w>
扣 除</w>
品 种</w>
八 千</w>
win ter</w>
we ar</w>
ne ar
fier ce</w>
bo x</w>
appro xim
advoc ated</w>
营 造</w>
到 访</w>
emis sions</w>
comb ating</w>
al ert</w>
第 七
税 费</w>
民族 团结</w>
增 至</w>
we ight</w>
re stor
pre text</w>
li e</w>
hom epage</w>
har mony</w>
consecu tive</w>
郊 野</w>
联合 作战</w>
气 象
出 于</w>
with draw</w>
tac tical</w>
re ds</w>
p df</w>
explan ation</w>
cem eter
198 9</w>
达 致</w>
转 为</w>
触 犯</w>
积 累</w>
扮 演</w>
妥善 处理</w>
人道 主义</w>
中 欧</w>
twen ty</w>
poli tically</w>
fail ing</w>
ch ri
ch ile</w>
celebr ate</w>
目前 为止</w>
照 片</w>
val id</w>
intermedi ate</w>
bi a</w>
民 国</w>
vic inity</w>
il lu
d less</w>
ad mir
警 署</w>
理想 信念</w>
新 增</w>
快 速
和平 共处</w>
保险 公司</w>
付 出</w>
prepar atory</w>
chec ks</w>
aeg is</w>
恶 劣</w>
保险 业</w>
ru shed</w>
micha el</w>
高 速</w>
贫 困
级 别</w>
死 刑</w>
持 续
司 令</w>
今年 以来</w>
中小 型</w>
一 至</w>
u. n.</w>
shi ft</w>
of ta</w>
o to</w>
h id
davi d</w>
辞 职</w>
熟 悉</w>
污 水</w>
平等 互利</w>
刺 激</w>
wel l
sla ugh
pol arization</w>
parli aments</w>
op tion</w>
impe tus</w>
fac es</w>
econom ics</w>
deleg ations</w>
commissi oned</w>
collec ting</w>
altern ative</w>
裁 定</w>
年 内</w>
公 然</w>
书 记处</w>
with draw
wat ching</w>
occu r</w>
harm ful</w>
cr ack
配 置</w>
访 港</w>
此 行</w>
八 时</w>
七 岁</w>
sum ing</w>
reg re
occupi ed</w>
near by</w>
exten ding</w>
al ling</w>
此 事</w>
性 能</w>
征 收</w>
宾 馆</w>
声 音</w>
军 用</w>
who le
substan tive</w>
fe rences</w>
e es</w>
as king</w>
针 对性</w>
申 办</w>
年 轻</w>
whole hear
ple dged</w>
d ai</w>
coll ap
an men</w>
联 邦
红 潮</w>
天 安
四 岁</w>
动 用</w>
split ting</w>
primar ily</w>
off shore</w>
e ting</w>
accep ting</w>
3. 5</w>
特 定</w>
医 药</w>
事 业
z z
ri d
pursu ed</w>
hot els</w>
h ang
destro yers</w>
财政 政策</w>
负债 表</w>
访问 期间</w>
本 着</w>
施 政</w>
战略 目标</w>
凝 聚
p as
ow ner</w>
j ames</w>
dist ur
1 1
0 6
财政 年度</w>
联 同</w>
丧 生</w>
the at
succe ed</w>
refu ge
inform al</w>
exce ed</w>
contem por
跑 马
中 将</w>
negoti ation</w>
迹 象</w>
综合 症</w>
rou tine</w>
ple a
exam ining</w>
chair men</w>
采取 行动</w>
比利 时</w>
撤 销</w>
up held</w>
under mine</w>
surr ounding</w>
pursu it</w>
hear ts</w>
conv inc
consult ancy</w>
urg es</w>
mo vements</w>
imper ative</w>
immigr ants</w>
il in</w>
gra ve</w>
fu tures</w>
form at</w>
fin ished</w>
ch ao</w>
普 遍
变 得</w>
y ong</w>
ton ight</w>
op ens</w>
deli ver</w>
指 明</w>
市 公司</w>
学 年</w>
列 车</w>
二 级</w>
严 厉
上 市公司</w>
me tr
machin es</w>
clim ate</w>
辖 市</w>
转 向</w>
缩 短</w>
油 价</w>
有 机</w>
凝聚 力</w>
v ation</w>
sym bo
s d
purch asing</w>
ha ps</w>
g ate</w>
draf ting</w>
be at</w>
输 入</w>
跑马 地</w>
水 务</w>
巡 逻</w>
发表 声明</w>
tend ency</w>
shoul der</w>
main stream</w>
l pg</w>
i ved</w>
g ong</w>
bl air</w>
8 3</w>
197 9</w>
舰 艇</w>
石油 气</w>
小 标题</w>
审 核</w>
保 密</w>
作出 贡献</w>
tro op</w>
l ity</w>
kyr gy
jus ti
dil ig
b one</w>
am ed</w>
继续 加强</w>
灾 难</w>
恐 怖</w>
展 出</w>
变 革</w>
warm ly</w>
syri a</w>
initi ally</w>
extre me</w>
en ri
acc used</w>
见 到</w>
定 性</w>
历 程</w>
v ili
se oul</w>
qu ick</w>
f c</w>
adap t</w>
难 民</w>
药 品</w>
直 辖市</w>
机 器</w>
哈 萨
切实 加强</w>
分 析
他 续</w>
严 正</w>
wel coming</w>
ro oms</w>
hund reds</w>
ghu i</w>
at er
预 料</w>
裁 决</w>
营 企业</w>
友好 访问</w>
参 加
viol ent</w>
st e</w>
sp ain</w>
lif t</w>
gu ards</w>
earn est</w>
contempor ary</w>
as sumed</w>
施 政
接 收</w>
扶 贫</w>
成 克
成克 杰</w>
布莱 尔</w>
工 人
ye oh</w>
sum mar
suff er</w>
pi er</w>
exist s</w>
de vote</w>
bid ding</w>
attr acting</w>
acu te</w>
终 审</w>
更 生</w>
敦 道</w>
嫌 疑
否 定</w>
凝 聚</w>
六 时</w>
vill agers</w>
re mot
prece ding</w>
hsi ung</w>
e ag
crow d</w>
a sts</w>
a ero
r ong</w>
energ e
en abling</w>
eful ly</w>
dr agon</w>
co ven
ar rog
answ ering</w>
首 要</w>
附 属</w>
负 债</w>
表 态</w>
自 从</w>
更 改</w>
投 票
巴 格达</w>
增 多</w>
之 交</w>
主 管
s cru
machin e</w>
b ought</w>
aff ecting</w>
自 杀</w>
roc ket</w>
ch ris
1. 1</w>
差 异</w>
多 万</w>
争 端</w>
pass port</w>
it ative</w>
intercep ted</w>
fel d</w>
consider ations</w>
统一 战线</w>
三 峡
sti c</w>
psych ological</w>
ol ine</w>
bureau x</w>
am end</w>
福 建
居 屋</w>
以 至</w>
中 期</w>
东 行</w>
一九九 五年</w>
se at</w>
overwhel ming</w>
genu ine</w>
c able</w>
bri bes</w>
阁 下</w>
潜 在</w>
指导 思想</w>
十 个</w>
两国 间</w>
三角 洲</w>
一 张</w>
x ia</w>
remo val</w>
par at
is d</w>
heal th
appoint ments</w>
an hui</w>
ab ol
驱 逐
毕 业</w>
增 值</w>
产业 化</w>
t p
solu tions</w>
r are</w>
iz ations</w>
grow n</w>
fore ver</w>
bag h
航 运</w>
老 挝</w>
珠 三角</w>
固 定
medic ines</w>
jour ney</w>
该 区</w>
生 物
持 有人</w>
卫 视</w>
人 选</w>
之 内</w>
三 合
regar dless</w>
fav or</w>
en abled</w>
2 2
组 合</w>
环境 卫生</w>
有 效
总 监</w>
平 时</w>
决 于</w>
优 秀
价值 观</w>
y am</w>
voc ational</w>
tian anmen</w>
shi p
ru ms
mas sive</w>
comman ding</w>
audi ence</w>
an ia</w>
高级 官员</w>
细 节</w>
第一 号</w>
构 想</w>
多 样
坚 持
上 涨</w>
re nov
re member</w>
me ticul
m igr
k y</w>
bl ack
致 命</w>
示 威</w>
取 决于</w>
y in</w>
fab ric
dep ends</w>
简 介</w>
江 总书记</w>
全 方位</w>
stipul ates</w>
pen etr
es cal
e ch
b ad
1 60</w>
黄 金</w>
阿 根
缩 小</w>
欢 迎
曾 庆
多 位</w>
受 访者</w>
优 良
九 二</w>
susp ic
provi ders</w>
pl ing</w>
man ned</w>
ann ually</w>
7 9</w>
进 取</w>
村 民</w>
分 为</w>
公 有制</w>
信 用</w>
中 外
一 十</w>
sum mary</w>
prec au
plea sure</w>
on going</w>
li ao</w>
k h
fe u
el ev
consci ousness</w>
突 出
已 达</w>
僵 局</w>
习 惯</w>
专 家
xi ong</w>
tari ffs</w>
rums feld</w>
consolid ating</w>
attemp ted</w>
arrang e</w>
的 确</w>
爱 国
海 湾
浙 江</w>
实验 室</w>
前 所
中共 中央
ri d</w>
recipi ents</w>
r i</w>
preser ving</w>
pre ad</w>
pic tures</w>
hid den</w>
fal ling</w>
exam inations</w>
es pread</w>
六 百
wid espread</w>
smo ke</w>
re sumed</w>
mist akes</w>
consid ers</w>
第四 次</w>
渡 轮</w>
对华 政策</w>
inaug ur
fron t
bagh dad</w>
amm uni
附 图</w>
清 水湾</w>
极 端</w>
会 计
亏 损</w>
respon d</w>
mechan ical</w>
gradu ate</w>
exerc ising</w>
def ensive</w>
弹 性</w>
在 场</w>
st ering</w>
min es</w>
ic ed</w>
ex it</w>
conv enti
编 号</w>
农民 负担</w>
主 持
withdraw al</w>
subscri ption</w>
qui red</w>
edi tion</w>
ch e</w>
患 者</w>
展 望</w>
奥 地利</w>
发 牌</w>
化 学</w>
前 线</w>
严 打</w>
li sting</w>
cs sa</w>
cru ise</w>
b c</w>
5 ,
面 向
选 手</w>
跨 境</w>
船 舶</w>
海 内外</w>
斯 洛
就业 人数</w>
外 界</w>
de voted</w>
cour age</w>
counter part</w>
co existence</w>
ang le</w>
5 0
尸 体</w>
办公 厅</w>
前 夕</w>
war ships</w>
ren der</w>
reco vered</w>
qi yue</w>
presid ents</w>
per haps</w>
gu es
g reg
f an
cultiv ate</w>
蔓 延</w>
um b
stre ets</w>
st all</w>
remot e</w>
re mind</w>
p ill
on ia</w>
mult in
for d</w>
fire power</w>
cl ou
bom b</w>
零售 商</w>
筹 备</w>
秘 密</w>
尼 泊
就业 机会</w>
一 连串</w>
substan tially</w>
n ings</w>
imp acts</w>
every where</w>
el se</w>
destro y</w>
ca o</w>
1. 6</w>
驻 军</w>
父 亲</w>
海 洋
效 应</w>
好 转</w>
sun g</w>
quar ant
ma sters</w>
m u</w>
br un
白 俄罗斯</w>
悬 挂</w>
忠 告</w>
原 料</w>
十 七</w>
三合 会</w>
ur ing</w>
sud den</w>
stad ium</w>
el and</w>
dri ven</w>
den ied</w>
限 度</w>
警 区</w>
税 务</w>
数 码
宣 扬</w>
保 障
si t</w>
re b
poss ess</w>
gi ant</w>
fat al</w>
def ending</w>
appra is
综合 国力</w>
原则 立场</w>
劳 动力</w>
切 勿</w>
决 不</w>
下 载
zha o
trou b
possi bly</w>
indic ate</w>
approxim ately</w>
邻 国</w>
论 述</w>
深 化
深化 改革</w>
崭 新</w>
处 所</w>
四 川</w>
台湾 独立</w>
vig or</w>
pu shed</w>
emp h
bo ards</w>
ass a
an ish</w>
金 钱</w>
特 大</w>
坚 强</w>
unre mitting</w>
invest ing</w>
integr ating</w>
guidel ine</w>
bo ats</w>
accur ately</w>
非常 重视</w>
辉 煌</w>
真 实</w>
曾庆 红</w>
充分 认识</w>
prag matic</w>
mater i
exce eding</w>
瑞 士</w>
检察 机关</w>
有 没有</w>
尔 德</w>
六十 六</w>
专 用</w>
sal ary</w>
s le
pir ated</w>
j er
he ed</w>
gr av
conve y</w>
bloc k
电子 化</w>
波 黑</w>
概 括</w>
来 讲</w>
施 行</w>
发展 势头</w>
信息 产业</w>
relation ships</w>
prosecu ted</w>
my an
cal i
阻 碍</w>
沙 湾</w>
昨 晚</w>
日 中</w>
开 拓
参加 者</w>
参 赛</w>
千 万</w>
公 认</w>
乡 镇
七 千</w>
prescri bed</w>
complain t</w>
8 4</w>
源 头</w>
技 巧</w>
征 询</w>
取 得
不 好</w>
row ing</w>
re si
mo stly</w>
estim ates</w>
barri ers</w>
马 洲</w>
葵 涌</w>
落 马洲</w>
牺 牲</w>
便 会</w>
u gu
typho on</w>
threat ened</w>
simultan eously</w>
po ols</w>
j u</w>
预 留</w>
第三 号</w>
儿 子</w>
re sig
lo y
jurisdic tion</w>
ch p</w>
ap parat
adver se</w>
acknowle dged</w>
1. 4</w>
相 反</w>
十五 岁</w>
und ant</w>
targ eted</w>
replac ement</w>
nig er
flo o
em b</w>
conventi onal</w>
ch ers</w>
责任 感</w>
英 国
综 援</w>
政治 经济</w>
反 对
南斯 拉夫</w>
九 点</w>
tion ed</w>
inv ite</w>
hu bei</w>
arch it
6 ,
工业 生产</w>
下载 版</w>
一 岁</w>
ri ch
reti rement</w>
preci ous</w>
o i</w>
mur der</w>
imm ol
expendit ures</w>
dis count</w>
9 3</w>
看 看</w>
污 染
母 亲</w>
此 类</w>
分 布</w>
党 人</w>
xi ang
wal ks</w>
tur k
mac ed
grati tude</w>
down loaded</w>
as sume</w>
197 8</w>
辅 助</w>
足 球
检 查
日 方</w>
六 岁</w>
产业 结构</w>
中 等</w>
不 开</w>
ul timate</w>
oppos es</w>
na vig
merg er</w>
main tains</w>
hop ing</w>
exer t</w>
bre eding</w>
由 此</w>
毕业 生</w>
婚 姻
关 怀</w>
全体 会议</w>
党 政
一 人</w>
tse ung</w>
fe ar</w>
dispat ched</w>
au tu
al ban
江 三角洲</w>
sal aries</w>
repu tation</w>
p neu
commen cement</w>
appe arance</w>
镕 基</w>
通货 膨
朱 镕基</w>
周 围</w>
区 域
公安 部</w>
份 子</w>
telecommun ication</w>
eur o</w>
depar ture</w>
announ ce</w>
adju sting</w>
accompl ished</w>
闭 幕</w>
监 视</w>
朱 总理</w>
暴 雨</w>
文 物</w>
化 学
sur ge</w>
str ing
gran ting</w>
fo ot</w>
dre w</w>
autu mn</w>
有 成效</w>
强制 性</w>
大 大
哥 伦
世纪 之交</w>
tan ks</w>
spokes woman</w>
s ist</w>
re r</w>
mak ers</w>
intensi fying</w>
et c.</w>
1 10</w>
降 落</w>
本报 记者</w>
施 工</w>
敌 对
凤 凰
一 架</w>
wil d</w>
viol ating</w>
ten ant</w>
ol a</w>
cu tting</w>
重 案</w>
第 八
忽 视</w>
多 家</w>
功 夫</w>
企 业界</w>
亚 地区</w>
un licensed</w>
taji kistan</w>
sh an
qi u</w>
nar row</w>
he bei</w>
front line</w>
cu ban</w>
ad ed</w>
谢 谢</w>
第二 号</w>
从 中</w>
pol it
milli ons</w>
flag s</w>
deep er</w>
curricul um</w>
0. 5</w>
to il
p in</w>
非 典型</w>
跨国 公司</w>
省 市</w>
处 罚</w>
前所 未有</w>
ur ugu
tp b</w>
ti se</w>
thre ats</w>
pe i
lan tau</w>
exper tise</w>
b reach</w>
0. 1</w>
高 效</w>
不断 扩大</w>
typ ical</w>
incorpor ated</w>
guarante ed</w>
g ains</w>
exhibi tions</w>
con spir
现 阶段</w>
智 能</w>
布 希
可行 性</w>
厂 商</w>
v ingly</w>
unanim ously</w>
un employed</w>
un authorised</w>
shi f
compe te</w>
责任 制</w>
观 看</w>
烟 花</w>
内 需</w>
以 免</w>
resolu tions</w>
princi pled</w>
inten sity</w>
farm ing</w>
ev ol
aero space</w>
营 业</w>
疫 苗</w>
桥 梁</w>
摧 毁</w>
执 政党</w>
tr uc
gazet te</w>
饮 食</w>
阿根 廷</w>
流 入</w>
收 支</w>
布 鲁
国际 货币
凤凰 卫视</w>
今 次</w>
产 品
transp a
stan ley</w>
sett ling</w>
optimis tic</w>
ir anian</w>
hen an</w>
exc use</w>
crack down</w>
charac ters</w>
高 校</w>
远 程</w>
近 来</w>
不 良
transpa rent</w>
sam ple</w>
prin ted</w>
ke jie</w>
happ iness</w>
commun ic
cambodi an</w>
b ai
预 定</w>
连 同</w>
据 统计</w>
宏观 调控</w>
为 本</w>
subsi dies</w>
peace keeping</w>
patro l</w>
pal ace</w>
op tical</w>
grad ual</w>
en trusted</w>
bigg er</w>
apparat us</w>
讲 话
考 核</w>
社会 制度</w>
最 为</w>
抓 住
屿 山</w>
大 屿山</w>
动 机</w>
互 相
survi val</w>
rele ases</w>
mon ia</w>
mem or
educ ate</w>
dr ill</w>
重 复</w>
电 邮</w>
最高 人民法院</w>
无 线
提 及</w>
干部 队伍</w>
嫌疑 人</w>
出 生</w>
价格 指数</w>
vent ures</w>
up date</w>
ten se</w>
pol ling</w>
mor i</w>
met al</w>
jord an</w>
compris es</w>
c ell</w>
aff air</w>
转 口</w>
此 项</w>
敦 促</w>
并 于</w>
和平 解决</w>
到 来</w>
spec ies</w>
s ory</w>
restric tion</w>
resig nation</w>
predic ted</w>
f arms</w>
eth ics</w>
ess y</w>
consult ant</w>
brea ks</w>
acqu ire</w>
驻 港</w>
良 好
乡 镇</w>
sp end</w>
man eu
magaz ine</w>
il s</w>
fran k</w>
bot tom</w>
鲜 明</w>
首脑 会晤</w>
话 题</w>
被 迫</w>
欺 骗</w>
尔 斯</w>
回 国</w>
占 领</w>
两国 之间</w>
ven e
r ally</w>
kin d
expe d
ep ide
em o
cle ans
预算 案</w>
访问 团</w>
工程 师</w>
定 为</w>
倡 议</w>
依法 治国</w>
以 期</w>
不可 分割</w>
tu p</w>
spre ading</w>
rec lam
myan mar</w>
l ag
impres sion</w>
f it</w>
1. 8</w>
阵 地</w>
行 长</w>
藉 此</w>
火 警</w>
报 案</w>
tribun al</w>
re development</w>
m ol
im peri
cleans ing</w>
ap i</w>
附 有</w>
百分之 五</w>
施政 报告</w>
战 士</w>
工 场</w>
匈 牙
notic ed</w>
hel ps</w>
comp ul
au dit</w>
28 78
2 2.
转 型</w>
资 深</w>
财 务
讲话 中</w>
税 率</w>
疫 情</w>
王永 平</w>
气 体</w>
既 往</w>
在 讲话中</w>
十 三
医 学</w>
动 作</w>
假 如</w>
代 理
乐 园</w>
xi e</w>
s h</w>
contro ls</w>
accor dingly</w>
详 细
编 队</w>
注册 处</w>
无 线</w>
假 日</w>
万 名</w>
stu b
list ened</w>
inten se</w>
ec e</w>
行 线</w>
腐败 现象</w>
签 发</w>
疑 问</w>
电 力
抓住 机遇</w>
实际 行动</w>
外交 关系</w>
与 其</w>
under ing</w>
sab ot
oper ator</w>
na than</w>
emph atically</w>
competi tions</w>
be l</w>
addres sing</w>
198 8</w>
海 岸</w>
殖 民
年 计划</w>
工业 化</w>
re jected</w>
o kin
ch ain</w>
bu ying</w>
跨 国</w>
百分之 五点</w>
爱 国主义</w>
渔 农</w>
应 急</w>
党的 领导</w>
人 权
五 万元</w>
e a</w>
dead line</w>
de ta
brig ade</w>
a h
通讯 社</w>
超 越</w>
李 肇
时 代
日 常</w>
十 九</w>
z i
susp end</w>
stimul ate</w>
shen yang</w>
resp ected</w>
quarant ine</w>
pref ecture</w>
ou b
ordin ate</w>
af raid</w>
ac commod
8 0
28 78</w>
颁 布</w>
学 历</w>
under going</w>
row n</w>
plan ting</w>
notic es</w>
install ation</w>
id a</w>
hen n
appe als</w>
预 防
本 来</w>
拖 欠</w>
与会 者</w>
unswer vingly</w>
ti ble</w>
s core</w>
obser vers</w>
leng th</w>
flow ers</w>
e dge</w>
after wards</w>
难 题</w>
释 放</w>
新闻 组</w>
开发 区</w>
严厉 打击</w>
mat ure</w>
here tical</w>
fire works</w>
dec ei
c z
bi ological</w>
面 貌</w>
物 质
比 较
李肇 星</w>
圆满 成功</w>
zer o</w>
ye ung</w>
und oub
trans form</w>
stop ping</w>
m c
hon or
clin ics</w>
驱逐 舰</w>
美 中
既 有</w>
富 裕</w>
出 口货</w>
protec tive</w>
p apers</w>
multin ational</w>
foot ball</w>
automobil e</w>
appro ve</w>
ag u
真 诚</w>
物 料</w>
扎 实</w>
充分 利用</w>
mean time</w>
inf ected</w>
es h</w>
cr c</w>
coven ant</w>
commem or
b la
款 额</w>
新 鲜</w>
大 小</w>
党和 人民</w>
主 席
不断 加强</w>
us er</w>
ta m</w>
repe at</w>
mp ed</w>
ment ally</w>
lin king</w>
henn essy</w>
comple ting</w>
comm it</w>
针 政策</w>
西 区</w>
方 针政策</w>
撞 毁</w>
导 向</w>
supervis ors</w>
迄 今</w>
药 剂</w>
联合 会</w>
紧 迫
商 谈</w>
商 场</w>
周 边
兵 种</w>
住 房</w>
一 如
sto red</w>
cultiv ation</w>
con forms</w>
近 几
负责 同志</w>
珠 江三角洲</w>
形式 主义</w>
坟 场</w>
合 共</w>
丧 失</w>
qing hong</w>
fron tier</w>
econom ically</w>
conc essions</w>
1. 7</w>
实 质
处 置</w>
和 谐</w>
听 到</w>
事 先</w>
业 绩</w>
wr ite</w>
volunte ers</w>
to ol</w>
string ent</w>
pedestri ans</w>
meteor ological</w>
list ening</w>
islam ic</w>
enjo ys</w>
con vers
attemp ts</w>
陷 入</w>
奥 尔
圆 满</w>
台湾 海峡</w>
公共 交通</w>
l ing
govern ance</w>
do w</w>
cle aring</w>
citiz en</w>
an eous</w>
领 取</w>
逮 捕</w>
选 区</w>
纺 织</w>
简 称</w>
百分之 七十</w>
战 胜</w>
成 品</w>
促 进
京 都</w>
一如 既往</w>
yong yang</w>
sou ven
see ks</w>
requ iring</w>
rec ur
mo tive</w>
high ways</w>
feasi ble</w>
er ron
项 原则</w>
西 省</w>
移 交</w>
合 格</w>
可 于</w>
另 有</w>
全 新</w>
会 于</w>
五 项原则</w>
事 关</w>
wh en
pr ince</w>
f ile</w>
燃 油</w>
宪 章</w>
多 种
台 风</w>
何 时</w>
仔 细</w>
ou ts</w>
dr ain
drain age</w>
dis charged</w>
conf isc
15 th</w>
塞 尔</w>
合作 伙伴</w>
卫生 组织</w>
九 岁</w>
wholehear tedly</w>
undoub tedly</w>
un de
t c</w>
hu b</w>
every body</w>
aud iting</w>
香港 市民</w>
月 刊</w>
摆 在</w>
国家 机关</w>
回 来</w>
党 风
war nings</w>
vene zu
nor ms</w>
n one</w>
empha si
chec king</w>
过 往</w>
诸 多</w>
产 阶级</w>
yel low</w>
up dated</w>
stor ms</w>
shar ply</w>
revis e</w>
reclam ation</w>
play ers</w>
ob taining</w>
in sti
hus band</w>
estim ate</w>
acknow ledge</w>
监 控</w>
登 革
电 器</w>
权 威</w>
工人 阶级</w>
when ever</w>
t v
reservo ir</w>
rel ative</w>
pir acy</w>
pil ots</w>
per su
mis cell
gener ated</w>
fu zhou</w>
execu tion</w>
b loo
香 烟</w>
爱 尔
此 案</w>
发展 商</w>
单 程</w>
二 号</w>
不 利于</w>
manife sted</w>
brun ei</w>
轮 候</w>
缓 解</w>
注 释</w>
恶 势力</w>
基金 组织</w>
全球 战略</w>
sil ver</w>
pneu monia</w>
la os</w>
fo rest</w>
dep ending</w>
con fu
compet ent</w>
高等 教育</w>
逆 差</w>
苏 丹</w>
税 券</w>
甲 类</w>
今 早</w>
一 艘</w>
一 同</w>
texti les</w>
rul ed</w>
miscell aneous</w>
fal len</w>
exhi b
cheng du</w>
教 署</w>
情 势</w>
对 策</w>
十二 号</w>
力 争</w>
党风 廉政</w>
储 税券</w>
w are</w>
regul ar
pedestri an</w>
par ked</w>
p it
lea p</w>
facil ity</w>
con g
compul sory</w>
al ised</w>
西 藏
电子 商务</w>
淑 仪</w>
意 图</w>
大 胆</w>
便 利</w>
techni ques</w>
secret aries</w>
ord ering</w>
mat ely</w>
con sp
aspir ation</w>
4 ,000</w>
违法 犯罪</w>
第 五</w>
神 圣</w>
法 团</w>
拉 圭</w>
引 述</w>
基 会</w>
含 有</w>
代 理</w>
vigil ance</w>
mis sed</w>
i bian</w>
att end
计算 机
至 关
深 信</w>
武 警
担 当</w>
廉 洁</w>
u r</w>
ten tion</w>
ren min</w>
de tail</w>
comm enting</w>
appropri ately</w>
邮 戳</w>
跨 越</w>
相 适应</w>
海 洛
扩 张</w>
打 开</w>
呼 声</w>
创 业</w>
分 离</w>
六 千</w>
ri vers</w>
prof ession</w>
minist ries</w>
low est</w>
deman ding</w>
c ling</w>
罗 湖</w>
综合 治理</w>
建 立
南 方</w>
分 组</w>
公 平
依 赖</w>
tack ling</w>
regul ating</w>
movi e</w>
fa ke</w>
daugh ter</w>
al lows</w>
阻 挠</w>
犯罪 活动</w>
忧 虑</w>
多 谢</w>
卓 越</w>
全 心
中东 地区</w>
li ability</w>
independ ently</w>
ha o</w>
d in
appli ances</w>
ammuni tion</w>
评 定</w>
芬 兰</w>
电 信
日 晚</w>
播 放</w>
巨大 成就</w>
同 意
出 动</w>
不 应</w>
se tup</w>
represent ations</w>
ful filling</w>
frequ ency</w>
cz ech</w>
conven ed</w>
an x
防 务</w>
邮 品</w>
议 书</w>
vis ible</w>
n y</w>
defe at</w>
con form</w>
arm ies</w>
ar ab
结 婚</w>
申 报</w>
拖 延</w>
多 边
党 员
余 下</w>
人 力</w>
二十 二</w>
一 座</w>
wal k</w>
s au
marg in</w>
infec tious</w>
func tional</w>
endeav or</w>
dis cre
di e</w>
麻 烦</w>
赞 助</w>
美 洲</w>
督 导</w>
清 除</w>
合 计</w>
原 油</w>
view point</w>
qi ang</w>
inv iting</w>
d al</w>
cl aiming</w>
领 会</w>
轩 尼
补 贴</w>
新 党</w>
台湾 地区</w>
全 意</w>
pro te
immol ation</w>
cro ati
consci ously</w>
牢 固</w>
港 澳
扶 持</w>
回 复</w>
同意 书</w>
博 览</w>
匈牙 利</w>
全心 全意</w>
swimm ers</w>
propos es</w>
f ast
dis abilities</w>
b acking</w>
迈 出</w>
衷 心
至关 重要</w>
streng ths</w>
pl astic</w>
ish ments</w>
im f</w>
bureau cr
applic ant</w>
al i</w>
5 000</w>
轩尼 诗</w>
证券 公司</w>
表示 满意</w>
接 到</w>
总 领
尼 日
例 子</w>
五 年计划</w>
中央 银行</w>
tor ily</w>
less on</w>
for get</w>
dre am</w>
货 运</w>
调 指出</w>
新闻 处</w>
强 调指出</w>
小 布什</w>
实质 性</w>
实 战</w>
世界 卫生组织</w>
万 人次</w>
ur a</w>
sm ashed</w>
se x</w>
ph ases</w>
inform ation
e ating</w>
down load</w>
consp ic
ci vili
肉 类</w>
罗 干</w>
拉 美</w>
张 建
周 知</w>
单 方面</w>
优 惠
ga ther</w>
fal un</w>
blin d</w>
adhe rence</w>
毫 无
恪 守</w>
差 饷</w>
re organization</w>
in sufficient</w>
hero in</w>
diversi fied</w>
command ers</w>
1 40</w>
高 原</w>
聚 集</w>
联合 行动</w>
次 会议</w>
市 政府</w>
四 次会议</w>
军事 行动</w>
yi u</w>
inc ur
grad ed</w>
bet ting</w>
首 位</w>
自 动
联合国 安理会</w>
第二 阶段</w>
单 一</w>
yugosla v</w>
restrain t</w>
premis e</w>
for ge</w>
congres smen</w>
百分之 八十</w>
海 基会</w>
派 遣</w>
气 象</w>
毛泽 东
毛泽东 思想</w>
政治 家</w>
推 荐</w>
外 贸
乐 团</w>
一 边</w>
week end</w>
rela xed</w>
real ities</w>
quan you</w>
guarante es</w>
0. 2</w>
违 规</w>
聘 请</w>
离 港</w>
用 水</w>
接 着</w>
得 悉</w>
平 壤</w>
尼泊 尔</w>
困 境</w>
吉 尔
南 京
viol ate</w>
respec ting</w>
regre t</w>
read just</w>
ne gl
moun tains</w>
m ic</w>
certi fication</w>
b acks</w>
提 议</w>
意 见
大 中型</w>
success es</w>
fi es</w>
cru de</w>
charg ing</w>
break down</w>
advis e</w>
administ ering</w>
登 记
执 业</w>
成 功
当 代</w>
下 岗
re venues</w>
o c</w>
form alism</w>
fl or
约 束</w>
示 范</w>
百分之 六点</w>
急 性</w>
循 环</w>
开幕 式</w>
前 面</w>
偷 渡</w>
ul ti
re ar</w>
o g
mem orial</w>
graph y</w>
deliber ately</w>
高 峰</w>
电 讯
海 底
海底 隧道</w>
极 其</w>
抵 港</w>
发 起</w>
内 部
佣 工</w>
人民 检察院</w>
superi or</w>
sh ou
confi d
civili ans</w>
ar d
analy sed</w>
马 上</w>
管理 人员</w>
电 站</w>
海 事处</w>
永 久
本 土</w>
本 周</w>
严 肃</w>
三十 五</w>
text books</w>
recre ational</w>
cy ber
bankrup t
5 00,000</w>
检 疫</w>
山 东</w>
外 币</w>
各 省</w>
千 名</w>
二十 六</w>
上 任</w>
wo od</w>
telec om</w>
t ang
o g</w>
fel low</w>
countr y
美中 关系</w>
种 类</w>
直 到</w>
犯罪 分子</w>
注 射</w>
惯 例</w>
当 事
千 五百</w>
z stan</w>
pione ering</w>
loo ks</w>
la undering</w>
j ac
farm land</w>
civil izations</w>
c as
质 疑</w>
色 情</w>
致 使</w>
百分之 三</w>
猪 肉</w>
天安 门
天 气
在 职</w>
商 务
充 实</w>
体 会</w>
par tial</w>
log y</w>
lam a</w>
f eng
emp ty</w>
cho i</w>
滋 生</w>
杆 菌</w>
房 地产</w>
垄 断</w>
倾 销</w>
众 所
sign als</w>
fil ms</w>
fe b</w>
appreci ate</w>
这 篇</w>
等 国</w>
影 响
崇 高</w>
公 吨</w>
倡 导</w>
上 限</w>
op pon
direc tions</w>
金融 中心</w>
老 人</w>
汉 城</w>
机 电</w>
幸 福</w>
任 职</w>
一 周</w>
sh ir
servic emen</w>
rein for
r aft</w>
ec tures</w>
doc tor</w>
div or
c auti
att acking</w>
警 觉</w>
紧密 结合</w>
生 活
注 入</w>
替 代</w>
数 年</w>
揭 露</w>
愉 快</w>
影响 力</w>
原 本</w>
动 荡</w>
众所 周知</w>
世 人</w>
tan k</w>
pu r</w>
mo red</w>
consul ted</w>
chick ens</w>
. m</w>
香港 金融
香港金融 管理局</w>
绿 色</w>
法律 法规</w>
江 苏</w>
六 名</w>
不 便</w>
ts in</w>
re vi
phil os
g ent
col i</w>
character ized</w>
2 3.
198 5</w>
超 级
谅 解</w>
简 化</w>
民 意
欧 元</w>
台 阶</w>
交 由</w>
prospec t</w>
lo ving</w>
demonstr ations</w>
convic tions</w>
精 力</w>
种 植</w>
福建 省</w>
真 理</w>
平 民</w>
布 局</w>
品 牌</w>
呈 现</w>
st le</w>
s lu
nation als</w>
install ations</w>
dom ain</w>
cultiv ating</w>
civil ized</w>
apprais al</w>
0. 3</w>
轻 型</w>
第一 阶段</w>
海 港</w>
新 任</w>
手 中</w>
弥 敦道</w>
十五 届</w>
削 弱</w>
党 校</w>
sho oting</w>
purch ases</w>
pr oud</w>
men tion</w>
hu ang
enjo ying</w>
conspir acy</w>
back bone</w>
2 6.
赌 博</w>
经济 学家</w>
档 案</w>
挑 衅</w>
德 里</w>
充分 肯定</w>
两 间</w>
re now
post p
person ages</w>
p in
ou ter</w>
o k
he res</w>
gre ece</w>
floo ding</w>
d are</w>
香港 海关</w>
进 修</w>
调查 组</w>
等 候</w>
爱 国</w>
泳 客</w>
更 换</w>
提 倡</w>
会 场</w>
turk ish</w>
satis fy</w>
pro mo
juni or</w>
a a</w>
迈 向</w>
四 十五分</w>
刊 载</w>
也 许</w>
不 安</w>
一 般
young sters</w>
var i
tur ns</w>
tr a</w>
si ves</w>
fr anc
exemp tion</w>
ec tural</w>
d res
ar ouse</w>
黑 钱</w>
附 加
设 计
订 购</w>
股 份</w>
相当 于</w>
深入 开展</w>
强 制</w>
国 会
哈萨 克斯坦</w>
可 疑</w>
会 计</w>
week ly</w>
t les</w>
l ou
fru its</w>
fo reign
erron eous</w>
紧 迫</w>
灾 区</w>
外 发</w>
北 方</w>
下 台</w>
promo tional</w>
n 1</w>
emerg ing</w>
dis co
cont est</w>
argent ina</w>
al bright</w>
accompan ying</w>
难 以
金融 市场</w>
着 重</w>
相 等于</w>
政 协
战 法</w>
宴 会</w>
决 议案</w>
train ees</w>
pro active</w>
ho ist
har dly</w>
comment ary</w>
attemp ting</w>
2. 4</w>
艰苦 奋斗</w>
常 任</w>
s ex
p yongyang</w>
mo tiv
ing ness</w>
harmon ious</w>
黎 巴
队 员</w>
中华 民国</w>
re store</w>
pic k</w>
p lot</w>
li abilities</w>
k crc</w>
gu izhou</w>
ex ported</w>
elimin ating</w>
col om
assist ing</w>
设 在</w>
融 入</w>
维 和</w>
善 于</w>
准 许</w>
军 备</w>
上 空</w>
re affirmed</w>
bel ong</w>
飞 船</w>
现 出</w>
深 厚</w>
意 思</w>
乌 拉圭</w>
some what</w>
inter vals</w>
el ement</w>
down loading</w>
arri ve</w>
组 别</w>
独立 自主</w>
永久 性</w>
日 元</w>
文 娱</w>
当 今</w>
反 复</w>
入境 者</w>
三十 八</w>
pol ar</w>
emis sion</w>
2 4.
零 件</w>
金 字</w>
控 股</w>
常 任
天安门 广场</w>
场 合</w>
国际 公约</w>
交 给</w>
一 句</w>
will ingness</w>
recommend ation</w>
envo y</w>
chri st
ch en
目 的
来 华
来华 访问</w>
旁 容</w>
探 访</w>
奥 林
外汇 储备</w>
坦 克</w>
周 末</w>
动 性</w>
不 明</w>
vis ual</w>
si onal</w>
ill ness</w>
comp ati
comb ine</w>
cc tv</w>
c ater</w>
allow ance</w>
边 防</w>
自由 化</w>
政治 部</w>
悠 久</w>
到 位</w>
个 世纪</w>
strai gh
pr d</w>
oppos ite</w>
land s
cant on</w>
7 ,
来 华</w>
坚 实</w>
交通 部</w>
trad ers</w>
separ atism</w>
plac ing</w>
philos oph
fortun e</w>
dec eased</w>
commit ting</w>
连 战</w>
读 者</w>
精 确</w>
粤 港</w>
期 货</w>
数 额</w>
抵 制</w>
干 线</w>
常任 理
大 肠
塔 吉
供 水</w>
交通 工具</w>
上 网</w>
一 幅</w>
zh eng
work shop</w>
ulti mately</w>
standardi zed</w>
patrio tism</w>
okin awa</w>
kind erg
kinderg ar
circ le</w>
c tu
驾 驶
艰 苦</w>
职 业
生产 能力</w>
奥林 匹
专业 人士</w>
urg ently</w>
tou ch</w>
su en</w>
sp heres</w>
constitu tes</w>
celebr ation</w>
ast ing</w>
黑 社会</w>
聆 讯</w>
翌 日</w>
目 睹</w>
欣 赏</w>
商 标</w>
yiel d</w>
pun ish</w>
mobil ize</w>
kid n
ho i</w>
h 5
ful filled</w>
exp ounded</w>
er r
c lock</w>
认 清</w>
战 役</w>
城 镇
品 质</w>
全 力
不 合理</w>
y ing
the ft</w>
satisfac torily</w>
mil est
lif ting</w>
dynam ic</w>
dis pen
coun ting</w>
落 案</w>
航 线</w>
着 力</w>
百 计</w>
日本 首相</w>
提 高
军 用
三 级</w>
scre en</w>
qu alities</w>
objec tion</w>
n ic
iz es</w>
hy dro
foreign ers</w>
c k</w>
a us
2 5.
1 11</w>
0. 4</w>
气 候</w>
日 趋</w>
文化 交流</w>
技术 创新</w>
定 义</w>
大肠 杆菌</w>
大 概</w>
原 子
三 号</w>
thou se</w>
ref ers</w>
pa k</w>
ca i</w>
领 先</w>
询 问</w>
立 案</w>
旅 行
教 学
护 人员</w>
巴勒 斯坦
实 效</w>
医 护人员</w>
北 行</w>
产 地</w>
主管 部门</w>
th om
questi on
q in
p am
leaf lets</w>
in her
for th
c el
艾 滋病</w>
百分 比</w>
生 机</w>
森 喜</w>
工作 组</w>
图 则</w>
中 外</w>
slo v
k g</w>
dar k</w>
ag eous</w>
看 待</w>
理 论
树 木</w>
指 南</w>
妻 子</w>
口 号</w>
中 医</w>
一 所</w>
rev ital
read iness</w>
happ en</w>
addres sed</w>
28 .
海 协</w>
模 糊</w>
政治 权利</w>
忘 记</w>
国 议会</w>
吉尔 吉
一 片</w>
supervis e</w>
m el
m ates</w>
in ward</w>
ic ks</w>
hur t</w>
h ke
fu n</w>
ab or
顽 固</w>
证券 市场</w>
访 日</w>
计划 生育</w>
融 合</w>
署 会</w>
离 岛</w>
每 本</w>
广大 干部</w>
叶 利
叶利 钦</w>
参 议员</w>
出 路</w>
不 敢</w>
sto res</w>
promis es</w>
minim ise</w>
en ables</w>
den ghui</w>
cu b
carri ers</w>
br ings</w>
ar af
预 先</w>
邮 递</w>
运动 会</w>
租 户</w>
目的 地</w>
司令 员</w>
公 立
中 旬</w>
trans national</w>
to ols</w>
rai ded</w>
manufac tures</w>
fir ing</w>
emplo ying</w>
contr acted</w>
construc ting</w>
al titude</w>
ab s
第二 个</w>
毒 药</w>
机 密</w>
有 待</w>
如 说</w>
噪 音</w>
印 刷</w>
主 义
vir tu
res cu
renow ned</w>
norm alization</w>
li ved</w>
li an</w>
la sted</w>
f ry</w>
carri ag
b and
高 举</w>
足 球</w>
衷 心</w>
法制 建设</w>
捷 克</w>
信用 卡</w>
win ners</w>
rain fall</w>
den gue</w>
2 7.
推 翻</w>
年 间</w>
wor ries</w>
speci alists</w>
re construction</w>
mag nific
m ou
la den</w>
identi fication</w>
defin ition</w>
co hes
3 000</w>
院 士</w>
调查 结果</w>
评 论
裁 处</w>
联 络
经贸 委</w>
经 常
着 眼
制 成品</w>
不 容</w>
pro of</w>
nomin al</w>
m o</w>
flu ctu
astr on
天 主
大 雨</w>
哪 里</w>
农 场</w>
严格 遵守</w>
wor ry</w>
subsid y</w>
s c</w>
pay able</w>
nan hai</w>
ky oto</w>
g al</w>
comm ence</w>
支 票</w>
批 发</w>
却 是</w>
充分 体现</w>
主 权
专 营</w>
yel tsin</w>
tri ps</w>
thou ghts</w>
suppli ers</w>
sto len</w>
re mun
proc essed</w>
mac ro</w>
ig no
h5 n1</w>
detec ted</w>
cho ices</w>
渔 船</w>
优良 传统</w>
一 台</w>
tro p
re tain</w>
me ter</w>
kyrgy zstan</w>
advoc ating</w>
顾 问
邮 局</w>
总 体
带 有</w>
巴 拉克</w>
国际 贸易</w>
十 七
中 巴</w>
supple mentary</w>
st aying</w>
refuge es</w>
recogn ised</w>
insi sted</w>
g al
flor ida</w>
enthusias tic</w>
ash es</w>
短 期内</w>
相互 支持</w>
澄 清</w>
消防 处</w>
治 党</w>
支 持
提 出
很 难</w>
宏观 经济</w>
储 存</w>
under go</w>
recre ation</w>
moder ate</w>
lan ded</w>
helicop ters</w>
araf at</w>
ang el
aband on</w>
执 行
工程 项目</w>
尝 试</w>
善 用</w>
吸 烟</w>
人 生</w>
subsidi ary</w>
neighbor liness</w>
marke dly</w>
con strain
bel ong
ac quired</w>
股 东</w>
男 童</w>
实 实</w>
后 勤
从 未</w>
recti fy</w>
30 25</w>
0. 7</w>
高 水平</w>
题 为</w>
立 委</w>
研究 员</w>
担 忧</w>
总统 府</w>
建立 健全</w>
就 任</w>
天 水</w>
专 利
下岗 职工</w>
magistr acy</w>
la h</w>
elimin ated</w>
deep ened</w>
condem ned</w>
过 渡
美 化</w>
红 旗</w>
搜 救</w>
女 儿</w>
k an</w>
f ate</w>
distingu ished</w>
dg ing</w>
der ived</w>
cli ents</w>
chin as</w>
cat ering</w>
bom bs</w>
advis er</w>
高 官</w>
赛 马</w>
评 核</w>
节 日</w>
法 特</w>
歪 曲</w>
尽 速</w>
印 制</w>
专 项</w>
sou l</w>
sli p</w>
qing hai</w>
pain ting</w>
necess ity</w>
mi xed</w>
memor an
ent ary</w>
du al</w>
ad dic
货币 政策</w>
游 说</w>
年 均</w>
姿 态</w>
复 盖</w>
业 务
z i</w>
tor ate</w>
str ang
slop e</w>
po sted</w>
magnific ent</w>
k new</w>
instru ments</w>
转 换</w>
起 草</w>
谨 慎</w>
认 定</w>
终 身</w>
来 临</w>
斯 基</w>
政 委</w>
感 到
总 站</w>
小 三通</w>
分 裂
冲 绳</w>
兴 国</w>
二 月份</w>
九九 年</w>
一 岳</w>
一 大批</w>
zhao xing</w>
soli dar
solidar ity</w>
pr inc
occur rence</w>
hu a
consoli dated</w>
黎巴 嫩</w>
除 非</w>
科 教
故 事</w>
报 章</w>
巴 士
工作 坊</w>
届 满</w>
副 局长</w>
云 南</w>
valu ed</w>
per si
palestin ians</w>
l y
ide olog
hon est
boo sting</w>
analy ze</w>
爱尔 兰</w>
激 励</w>
服 装</w>
有 售</w>
周 一岳</w>
之 上</w>
严 肃
spec ul
organ ise</w>
doz en</w>
ar ise</w>
航 母</w>
维 奇</w>
绑 架</w>
收 看</w>
搜 寻</w>
九九 九</w>
particul ars</w>
m as</w>
ke t
gras ping</w>
comple mentary</w>
chi ang</w>
blu e
b low</w>
2. 3</w>
198 6</w>
赤 柱</w>
摊 位</w>
年 期</w>
外 籍</w>
低 座</w>
二十 九</w>
you ths</w>
trop ical</w>
sty les</w>
se wage</w>
resett lement</w>
ig u
excep tion</w>
comb ining</w>
clean ing</w>
5 6
阿拉 法特</w>
违 纪</w>
调 解</w>
空 运</w>
百分之 二</w>
游 泳池</w>
平 稳</w>
外 部</w>
反 恐</w>
专 线</w>
tur mo
sem ination</w>
se emed</w>
no .</w>
foc al</w>
entr ies</w>
calcul ated</w>
25 8
银 行业</w>
计 委</w>
累 积</w>
科 院</w>
禁 区</w>
春 节</w>
俄 国</w>
从 严</w>
system atic</w>
spokes person</w>
sh u</w>
oun ced</w>
leban on</w>
inaugur ation</w>
d inner</w>
日 益
恐 怕</w>
委 内
中 俄
under stand
str ained</w>
secre ts</w>
necess arily</w>
j ilin</w>
fi red</w>
dy n
du ti
dis semination</w>
arti stic</w>
account ability</w>
迫 切
幼 稚
委内 瑞
国际货币 基金组织</w>
前 后</w>
减 至</w>
上 载</w>
run s</w>
prev ailing</w>
ho sting</w>
hegemon y</w>
cul tures</w>
cir cu
che on</w>
采 纳</w>
管 治</w>
省 政府</w>
登 陆</w>
欧洲 联盟</w>
影 视</w>
实 验</w>
多 元</w>
包 装</w>
专 访</w>
不 容
it ting</w>
ge o
comb ination</w>
ch anc
chanc ell
24 6</w>
. .</w>
金 属</w>
申 索</w>
次 数</w>
构 成
侦 查</w>
举 世
ti e</w>
swe den</w>
st on</w>
i ency</w>
h air</w>
cr acked</w>
conting ency</w>
餐 会</w>
迈 进</w>
认真 贯彻</w>
第三 代</w>
第 三十
空 前</w>
百分之 六十</w>
最 早</w>
数 百
故 此</w>
支 柱</w>
护 士</w>
就 职</w>
对 立</w>
同 盟</w>
共 享</w>
五十 年</w>
一九九 三年</w>
par ti
im porting</w>
conspic uous</w>
bo xes</w>
预 报</w>
项 怀
玩 具</w>
爱 滋病</w>
正确 处理</w>
强 权
幼稚 园</w>
同 日</w>
全 市</w>
v an</w>
stri kes</w>
refl ecting</w>
log is
implic ations</w>
conc ession</w>
col lu
al isation</w>
accep tance</w>
过 来</w>
商 人</w>
交 涉</w>
上海 市</w>
yp ical</w>
war r
v a</w>
shu ibian</w>
s now</w>
p tions</w>
domin ant</w>
dec iding</w>
cha o
cau ght</w>
ar mored</w>
announc ers</w>
adhe red</w>
间 接</w>
邪 说</w>
选 定</w>
相 连</w>
百分之 七点</w>
展 现</w>
两 院</w>
post mark</w>
ke en</w>
comm only</w>
ch ron
at ypical</w>
西 北</w>
热 点</w>
深 刻
延 续</w>
厘 定</w>
分裂 主义</w>
个人 资料</w>
prison ers</w>
pain st
north west</w>
n r</w>
import antly</w>
fal ls</w>
d ering</w>
bul gar
长 远
路 段</w>
职 权</w>
登革 热</w>
曾 俊
整 合</w>
容 忍</w>
吸引 力</w>
二十 七</w>
三 军</w>
stoc k
n ative</w>
j ury</w>
auc tion</w>
ap r</w>
邻 近</w>
社 论</w>
共同 愿望</w>
共产 党员</w>
人 家</w>
vi vi
situ ated</w>
reli gi
rec y
pois ons</w>
noti fication</w>
demonstr ates</w>
concer t</w>
compar atively</w>
ail s</w>
ad s</w>
3 0,000</w>
19 50</w>
1 80</w>
用 心</w>
比 如说</w>
李 少
托 人</w>
我 方</w>
强权 政治</w>
巴士 站</w>
危 险
十 八
公立 医院</w>
以 致</w>
want only</w>
turmo il</w>
sugges tion</w>
ol ing</w>
o dy</w>
l ending</w>
g .</w>
empha size</w>
at a</w>
appe ars</w>
项怀 诚</w>
这 套</w>
表 面</w>
带 头</w>
尽 力</w>
二十 三</w>
w ished</w>
viol ations</w>
tax is</w>
se izing</w>
sd ds</w>
pro pri
ig n
f at</w>
commis sions</w>
chris tian</w>
chec ked</w>
canc elled</w>
1. 9</w>
这 名</w>
紧 紧
渗 透</w>
处 理
发 挥
值 得
w ounded</w>
refer ring</w>
memoran dum</w>
g ans
fa ith</w>
de duc
budg ets</w>
appreci ates</w>
罪 犯</w>
显 得</w>
所 长</w>
增 加
te en
sor ts</w>
s fc</w>
produc er</w>
magistr ates</w>
logis tical</w>
libr aries</w>
id en
g at
for ging</w>
determin ing</w>
del igh
调 节</w>
衰 退</w>
紧 张
研究 院</w>
慰 问</w>
当事 人</w>
出口 额</w>
东 南</w>
上 下</w>
secon dly</w>
por k</w>
om ing</w>
o o</w>
mem ory</w>
lun cheon</w>
canc er</w>
author itative</w>
8 8
销 毁</w>
谈 及</w>
珍 惜</w>
渔 业</w>
正 好</w>
棉 花</w>
方 百计</w>
归 祖国</w>
实践 证明</w>
地 下
回 归祖国</w>
千 方百计</w>
兄 弟</w>
一 面</w>
war time</w>
ul ar</w>
st ops</w>
iden tical</w>
autom atic</w>
au l</w>
allevi ate</w>
1 00
该 国</w>
诞 生</w>
营 业
朱 閒</w>
审 慎</w>
复 杂
地 为</w>
合 力</w>
加 拉
克 罗
为 重要</w>
ug c</w>
sh im
priv ately</w>
n is</w>
bag s</w>
aband oned</w>
颁 奖
维 亚</w>
曼 谷</w>
战 备</w>
懈 努力</w>
富 强</w>
咨 询</w>
受害 者</w>
代 替</w>
亚太 区</w>
不 懈努力</w>
part ment</w>
lo sing</w>
l t
im mun
g all
buddh ist</w>
198 7</w>
而 港</w>
电话 号码</w>
煽 动</w>
李 国
数 十
拿 出</w>
创造 条件</w>
九 月份</w>
spar e</w>
rela x
navig ation</w>
mid night</w>
inter action</w>
emplo y</w>
ca stle</w>
bar ak</w>
audi o</w>
attribu table</w>
顿 政府</w>
经济 合作
精 简</w>
第四 号</w>
战 时</w>
学 科</w>
十五 大</w>
克林 顿政府</w>
religi ons</w>
p air</w>
neu tr
ha ste</w>
gent le
fair ness</w>
enem ies</w>
duti able</w>
chancell or</w>
3 50</w>
2. 6</w>
顺 差</w>
跨 越
容 量</w>
士 尼</w>
双 重</w>
作 者</w>
人 为</w>
wa ke</w>
ren dered</w>
po ly</w>
inten d</w>
bankrupt cy</w>
bang kok</w>
葡萄 牙</w>
罗 马
统计 局</w>
数码 港</w>
按 年</w>
拍 卖</w>
户 口</w>
徒 刑</w>
妥 协</w>
册 子</w>
un healthy</w>
stric ken</w>
ste ering</w>
re ward</w>
ne ts</w>
lead ed</w>
decl are</w>
d aw
analy zed</w>
200 ,000</w>
难 度</w>
近 几年</w>
致 以</w>
着 眼</w>
明 扬</w>
抓 获</w>
威 特</w>
填 海</w>
出 境</w>
tr am
s s
milest one</w>
inaug ural</w>
fic ial</w>
d ao</w>
cont ext</w>
clin ical</w>
carri es</w>
股 票
百分之 十五</w>
大 门</w>
大 多</w>
地 域</w>
创 新
军 舰</w>
soldi er</w>
mer its</w>
guarante eing</w>
fu els</w>
f ought</w>
e at</w>
马 其
限 额</w>
现 实
张 贴</w>
局 部
尼 斯</w>
客 观
委内瑞 拉</w>
四 项</w>
unil ater
s ors</w>
rac ing</w>
lad ies</w>
in sist</w>
for ce
foot ing</w>
ci vic</w>
alleg ed</w>
饭 店</w>
非 洲
集 体
菲 尔德</w>
相 似</w>
方 会谈</w>
孙 明扬</w>
国际 竞争</w>
分 队</w>
六 方会谈</w>
公安 局</w>
prov oc
forth coming</w>
commis sar</w>
5 5
马 英
超 出</w>
航 班</w>
纯 文字</w>
社会 化</w>
电讯 局</w>
消 毒</w>
数 据
改 组</w>
拉 姆
建 国</w>
国民 议会</w>
周 边</w>
加 金</w>
九 千</w>
vers ity</w>
pol ls</w>
oblig ation</w>
la o</w>
earn ings</w>
cemeter y</w>
belgi um</w>
重 开</w>
运 送</w>
用 忍</w>
汽 车
戒 急
戒急 用忍</w>
想 法</w>
惩 教署</w>
两 条</w>
un favorable</w>
relax ation</w>
le v
frau dul
b all
as surance</w>
ab undant</w>
王 国</w>
流 失</w>
巴 利</w>
占 有</w>
优 良</w>
下 滑</w>
一百 五十</w>
ts ai</w>
sau di</w>
quali fication</w>
liqu id
indi g
ic tion</w>
fin es</w>
f te
energe tically</w>
ear ned</w>
cl am
am i</w>
adver tis
经常 性</w>
程 碑</w>
着眼 于</w>
政策 措施</w>
呈 报</w>
同 类</w>
即 属</w>
从 业
世界 银行</w>
un known</w>
ou red</w>
mon u
lu x
l c</w>
helicop ter</w>
gar rison</w>
clo sures</w>
chang chun</w>
car park</w>
青 山</w>
长 沙</w>
配 额</w>
这 件</w>
起 点</w>
第一 位</w>
盈 余</w>
特 首</w>
努力 提高</w>
分 开</w>
军 费</w>
兵 力</w>
公平 竞争</w>
今 晨</w>
up graded</w>
s oph
rou ted</w>
represent ation</w>
rela x</w>
promp t</w>
poin ting</w>
pay roll</w>
extra ordinary</w>
consider ably</w>
马英 九</w>
陆 委会</w>
近几 年来</w>
跨越 式</w>
设 想</w>
认 证</w>
科教 兴国</w>
湖 南</w>
拓 宽</w>
找 出</w>
契 机</w>
参 选</w>
例 行</w>
urg ing</w>
ur ban
peac efully</w>
organ ic</w>
mil es</w>
isol ated</w>
hon ourable</w>
disc s</w>
dec eption</w>
consequ ently</w>
高 速
订 阅</w>
能 源
租 约</w>
深 切</w>
水 警</w>
有 序</w>
成 分</w>
寄 回</w>
基督 教</w>
卖 旗</w>
五 岁</w>
之 用</w>
sole mn
polic emen</w>
interf ering</w>
gues thouse</w>
desig ns</w>
d s
al izing</w>
衡 量</w>
美国 国务院</w>
红 色</w>
特 别行政
澳门 特别行政
枢 纽</w>
强 有力</w>
小 册子</w>
各个 方面</w>
博 览会</w>
势 必</w>
主权 国家</w>
view points</w>
veter an</w>
under gone</w>
r age</w>
ma d</w>
liter ature</w>
inspec tors</w>
indig nation</w>
c ann
ar ity</w>
ag ent</w>
资 会</w>
贪 污</w>
而 已</w>
用 以</w>
柏 林</w>
权 威
无 须</w>
不 易</w>
三 月份</w>
一 体</w>
sum ming</w>
roman ia</w>
r ating</w>
n ing
me ant</w>
le tting</w>
go s</w>
g en</w>
expe di
as er</w>
9 9
调查 队</w>
美 机</w>
大 学生</w>
多边 贸易</w>
均 会</w>
四 川
商 用</w>
吁 请</w>
公 署</w>
事业 单位</w>
zhong nanhai</w>
surpris e</w>
practic able</w>
li tion</w>
ira c</w>
hen ry</w>
hear t
experim ents</w>
excell ency</w>
ch irac</w>
bloc ks</w>
austri a</w>
黑 点</w>
顺利 进行</w>
这 起</w>
认 知</w>
海 外
市 值</w>
大 球场</w>
在 此
全国 人民代表大会</w>
上 级</w>
一 大</w>
ret ro
remun eration</w>
rec alled</w>
hung ary</w>
fore sts</w>
cur b</w>
contradic tion</w>
进 而</w>
街 头</w>
背 后</w>
武警 部队</w>
或 是</w>
想 到</w>
库 区</w>
就 职
容 加金</w>
契 约</w>
发 点</w>
出 发点</w>
we i
st al
practic ed</w>
fail s</w>
deta chment</w>
cou ple</w>
consul ate</w>
长 春</w>
自动 化</w>
自 二</w>
新 疆
持 久</w>
得 出</w>
建筑 工程</w>
废 除</w>
应 变
哥伦 比亚</w>
前 列</w>
供 款</w>
之 地</w>
sub stance</w>
nur sing</w>
in separ
feu dal</w>
dr .</w>
.. ..
经 由</w>
社 区
灵 活
支 撑</w>
六 月份</w>
修 正</w>
九十 年代</w>
valu ation</w>
standardi ze</w>
shu n</w>
od d</w>
observ ing</w>
m ass
ju l</w>
hel lo</w>
de vi
cyber port</w>
carriag eway</w>
198 2</w>
霸 权</w>
第 九
稳 健</w>
新一 代</w>
化 解</w>
充 当</w>
九 八年</w>
sel s</w>
pri orities</w>
por no
mist ake</w>
mer ch
lic ense</w>
democr ats</w>
def ine</w>
ac ies</w>
私 人
德 国
北 省</w>
办 学</w>
党员 干部</w>
t b</w>
sp anish</w>
sh ad
roy al</w>
revis ing</w>
rec k
niger ia</w>
len in
emancip ating</w>
b ing
a den</w>
迪 士尼</w>
输 出</w>
跟 踪</w>
着 手</w>
杰 出</w>
新 建</w>
影 片</w>
张建 宗</w>
发表 谈话</w>
单 独</w>
制造 商</w>
分析 家</w>
侵略 战争</w>
一 八</w>
u de</w>
tr ac
pro fic
lo wered</w>
inter active</w>
au g</w>
草 拟</w>
群 体</w>
洛 杉
提 请</w>
抛 出</w>
定 额</w>
几 十年</w>
休 憩</w>
zer land</w>
termin us</w>
swit zerland</w>
sho es</w>
ris en</w>
resear chers</w>
reconnais ance</w>
loc ate</w>
indic ating</w>
f ong</w>
counc ill
cher ish</w>
car oline</w>
英 年</w>
节 省</w>
百分之 七</w>
布 赖
国家 计委</w>
勾 结</w>
创 建</w>
下 令</w>
一百 一十</w>
t ab
stri king</w>
re tail
op ec</w>
oc t</w>
ir s</w>
b in
辽 宁</w>
规划 署</w>
表 扬</w>
蓝 图</w>
科 威特</w>
种 族
省 级</w>
唐 英年</w>
tr ials</w>
tigh ten</w>
sub missions</w>
pres ents</w>
ic als</w>
ho s</w>
gu an</w>
de tention</w>
ce ase</w>
b ar</w>
apolog y</w>
逐 步
模 范</w>
机 械
包 含</w>
亲 身</w>
一 番</w>
mil iti
k ou</w>
inv asion</w>
in no
graph ic</w>
ed a</w>
conserv ancy</w>
cat ch</w>
advertis ements</w>
福 州</w>
社 团</w>
曾俊 华</w>
更 具</w>
廉 政
广 泛
三 方</w>
succe eded</w>
r and
pu ts</w>
prohi bi
pill ar</w>
no v</w>
ne pal</w>
eng agement</w>
e rec
dr am
discipl ined</w>
a qu
6 ,000</w>
0. 6</w>
起 飞</w>
老 院</w>
拉 动</w>
名 额</w>
军事 力量</w>
充满 信心</w>
二十 八</w>
一 国</w>
rec all</w>
ob jects</w>
lib eral</w>
instruc tion</w>
fle w</w>
bro aden</w>
ab ri
黄 大
顾问 公司</w>
汇 演</w>
楼 面</w>
更 要</w>
放 缓</w>
扩大 内需</w>
婴 儿</w>
四 月份</w>
un reasonable</w>
st ro
spe ed
inf er
in ated</w>
for ums</w>
com promise</w>
进 食</w>
耕 地</w>
永 图</w>
杂 项</w>
晚 宴</w>
敌对 势力</w>
入 住</w>
依法 行政</w>
之 路</w>
wu han</w>
r c</w>
princ ess</w>
pres sed</w>
er adic
dam ages</w>
ak a</w>
龙 永图</w>
帐 户</w>
大 浪</w>
公共 卫生</w>
八 项</w>
互 补</w>
东 北</w>
ver dic
univers ally</w>
sub mission</w>
so ong</w>
mod es</w>
loc ally</w>
l ecture</w>
hoist ed</w>
drin k</w>
convinc ed</w>
骨 干</w>
通 用</w>
贝 尔
象 征</w>
手 头</w>
帝 国主义</w>
列 明</w>
亲 临</w>
win dow
urugu ay</w>
mono poly</w>
militar ism</w>
mat su</w>
hsi eh</w>
f ai
explo sives</w>
c ited</w>
集团 军</w>
载 列</w>
该 批</w>
航空 兵</w>
积极 探索</w>
没 收</w>
此 后</w>
案 情</w>
无 可
教 资会</w>
席 位</w>
中 文
世界 杯</w>
专 项
wil li
utili zing</w>
slow down</w>
scre ening</w>
recti fying</w>
r on</w>
ple dge</w>
inde fin
e .
divis ions</w>
dis pers
comm ended</w>
br us
ad mit</w>
8 ,000</w>
8 ,
领导 集体</w>
限 于</w>
通 往</w>
男 女</w>
用 来</w>
拍 摄</w>
扩 阔</w>
市场 化</w>
专 机</w>
yo sh
work shops</w>
veget ables</w>
u z
th es
min eral</w>
li mit
dow ns</w>
disco very</w>
associ ate</w>
advoc ates</w>
acqu is
2. 7</w>
集团 公司</w>
身 体
罗马 尼亚</w>
经 验
组 人员</w>
百分之 四</w>
江 西</w>
机 组人员</w>
抵 京</w>
所 有制</w>
心 态</w>
布赖 特</w>
外 判</w>
发展 前景</w>
sh anxi</w>
le aps</w>
l ots</w>
inter ven
influ ential</w>
ha m</w>
ess ly</w>
dest in
chur ch</w>
brus sels</w>
appreci ated</w>
适 宜</w>
离 不开</w>
海 面</w>
外 资企业</w>
uni fy</w>
spon sor
spac ec
in k</w>
ca tho
ac t
钢 铁</w>
紧 缩</w>
痛 苦</w>
无 限期</w>
救 灾</w>
慈 善</w>
建 党</w>
座 谈</w>
奥尔 布赖特</w>
发 射
加 路</w>
军 机</w>
入 场</w>
信 徒</w>
作 好</w>
传 达</w>
一百 三十</w>
slop es</w>
gans u</w>
g ar</w>
0. 8</w>
配 备</w>
国 土</w>
十二 岁</w>
十 字
北 南</w>
刘 淑仪</w>
健 康
乡镇 企业</w>
trigg ered</w>
renov ation</w>
organ ising</w>
mo on</w>
flo ating</w>
cr ash</w>
al co
量 度</w>
电 单车</w>
江 省</w>
执法 人员</w>
当 作</w>
室 内</w>
吊 销</w>
十九 楼</w>
人 员
vis ibility</w>
thom as</w>
strai ght</w>
presid ency</w>
nomin ated</w>
m ation</w>
develop ers</w>
des k</w>
20 th</w>
转 运</w>
贾 庆
自 律</w>
经 受</w>
第五 号</w>
正 当</w>
横 过</w>
检 测</w>
感到 高兴</w>
决 赛</w>
下 功夫</w>
tre ati
tow ed</w>
th es</w>
spacec raft</w>
pre si
j ailed</w>
in qu
huai cheng</w>
epide mic</w>
em pl
di et</w>
con n
colon ial</w>
attribu ted</w>
督 察</w>
疑 虑</w>
斯 特</w>
报 刊</w>
国家 经贸委</w>
台湾 岛</w>
二 六</w>
un willing</w>
trans action</w>
syri an</w>
shi pment</w>
sc and
ri g
rec over</w>
p aul</w>
fe ed
ex empl
dissemin ate</w>
com position</w>
路 口</w>
补 选</w>
电 厂</w>
数 月</w>
家 居</w>
壮 大</w>
动 武</w>
分 行</w>
保 卫</w>
休 市</w>
于 本</w>
九 铁</w>
东 北
v ul
treati es</w>
poss essing</w>
pen alties</w>
l has
en rol
cont am
b eration</w>
anticip ated</w>
香港 大学</w>
破 获</w>
核 实</w>
所 致</w>
成 衣</w>
家 中</w>
同 情</w>
中央 人民政府</w>
theat re</w>
ke y
d am</w>
d .</w>
coordin ating</w>
c r</w>
bro ther</w>
b ail</w>
ap point</w>
辐 射</w>
走 私
拖 走</w>
手 提</w>
小 贩</w>
大力 支持</w>
备 有</w>
出 院</w>
减 免</w>
八 月份</w>
入 息</w>
乙 类</w>
不 多</w>
work place</w>
town ships</w>
s and
manufac ture</w>
lhas a</w>
lead s</w>
g ot
fal l
enfor cing</w>
dispen s
criter ion</w>
character istic</w>
bel i
as c
am ong
马其 顿</w>
香港 回归</w>
长 廷</w>
谢 长廷</w>
表示 祝贺</w>
维 多
立 方米</w>
研 讨</w>
光 荣</w>
亲 切
五 月份</w>
不能 不</w>
resor t</w>
resist ing</w>
ram p
grat eful</w>
dn a</w>
deli beration</w>
de pri
bos nia</w>
among st</w>
al arm</w>
3. 2</w>
19 70</w>
造 福</w>
通 告</w>
近 邻</w>
辛 格</w>
西 安</w>
斯 菲尔德</w>
布鲁 塞尔</w>
安 宁</w>
及 早</w>
劳工 局</w>
公 积金</w>
zhu hai</w>
z huang</w>
us age</w>
tr ic</w>
t ables</w>
sup plied</w>
souven ir</w>
p leaded</w>
o id
inten tions</w>
in quiry</w>
h eng</w>
ful f
fte c</w>
consi sts</w>
beli efs</w>
approach ing</w>
ambassad ors</w>
alco ho
adju dic
高等 法院</w>
非 公有制</w>
突 破
短 缺</w>
流 域</w>
拉姆 斯菲尔德</w>
志 愿
夫 妇</w>
合作 项目</w>
会 为</w>
中俄 关系</w>
st ayed</w>
respon ded</w>
perf ecting</w>
ot ed</w>
is s</w>
insepar able</w>
high ligh
expres ses</w>
ell s</w>
dig est</w>
av oid
2. 2</w>
贩 卖</w>
流 量</w>
核 子</w>
既 定</w>
增 设</w>
另 一名</w>
亲 民党</w>
丹 麦</w>
两岸 人民</w>
下 旬</w>
ti ming</w>
sex ual</w>
sent ences</w>
pre condition</w>
pl b</w>
pay ers</w>
inten ds</w>
igno red</w>
fru it</w>
elec tors</w>
capital ist</w>
angel es</w>
al em</w>
英 雄</w>
而 设</w>
紧 急
宗教 信仰</w>
反 倾销</w>
偿 还</w>
中东 问题</w>
vis itor</w>
tot aling</w>
rail ways</w>
manufactu red</w>
fore front</w>
en acted</w>
curren cies</w>
compati ble</w>
appoin ting</w>
调 配</w>
规 格</w>
补 性</w>
第 九届</w>
点 五</w>
截 查</w>
恐怖 分子</w>
弹 头</w>
亲切 友好</w>
五 一</w>
互 补性</w>
事 态</w>
乘 坐</w>
下 调</w>
w .</w>
s me</w>
precis ion</w>
po wered</w>
ob ject</w>
k har
ha u</w>
eas ing</w>
b ury</w>
arrog ance</w>
15 00</w>
钓 鱼
职 系</w>
申 领</w>
居 留</w>
基 石</w>
城 乡
卡 拉</w>
十 月份</w>
剥 夺</w>
何 种</w>
优惠 政策</w>
互 助</w>
trigg er</w>
transi tional</w>
tot aled</w>
threat ening</w>
r ush</w>
pres sion</w>
fin land</w>
chick en</w>
champion ship</w>
ch iro</w>
b u</w>
198 4</w>
知 名</w>
看 出</w>
烟 草</w>
海湾 战争</w>
时 应</w>
居 留
国会 议员</w>
名 字</w>
原 定</w>
俄 中</w>
伊斯 兰
人口 普查</w>
业 已</w>
w ai
incur red</w>
gre en
gentle men</w>
exchang ing</w>
dat ab
correc tional</w>
car ni
这 家</w>
美 日</w>
约 旦</w>
百 年</w>
现 于</w>
显 着</w>
文 莱</w>
批 发
学 童</w>
存 异</w>
头 脑</w>
国际 化</w>
卫 队</w>
七 名</w>
wor se</w>
wit ness</w>
w er</w>
uz be
supervis ing</w>
mi x</w>
ke e
jer us
fre ely</w>
extre mis
explo itation</w>
emerg ence</w>
di um</w>
deligh ted</w>
de x</w>
饮 食
西藏 自治区</w>
蓬 勃
缴 交</w>
紧张 局势</w>
控 告</w>
拉 萨</w>
强 国</w>
座 位</w>
军用 飞机</w>
伤 者</w>
亚洲 各国</w>
五 中全会</w>
义 工</w>
主 导
terror ists</w>
shu tt
scen es</w>
s our
premi um</w>
medi ation</w>
lenin ism</w>
jerus alem</w>
je ou</w>
hel p
flo ws</w>
de c</w>
d ry</w>
co oked</w>
attend ance</w>
announ cing</w>
4. 5</w>
青 衣</w>
竞 投</w>
沿 海
求 职</w>
核 武</w>
时 段</w>
同 步</w>
前 不久</w>
停 留</w>
事实 证明</w>
中 部</w>
中 毒</w>
中 断</w>
三 四</w>
on ese</w>
inter change</w>
il a</w>
f led</w>
e. g.</w>
dro me</w>
顾 及</w>
贯 穿</w>
老 百姓</w>
知 情</w>
煤 矿</w>
污染 物</w>
服务 行业</w>
效 能</w>
参 阅</w>
中 亚</w>
v angu
tol l</w>
mea suring</w>
la y
k ill</w>
f lower</w>
ex position</w>
cor ner</w>
cauti ous</w>
c af
b old</w>
as sign
announ ces</w>
allow ances</w>
7 7
管理 体制</w>
求 同
求同 存异</w>
此 一</w>
安 老院</w>
国 内
动 态</w>
三十 三</w>
七 天</w>
wid ening</w>
solemn ly</w>
read ers</w>
mo ftec</w>
larg ely</w>
earli est</w>
accommod ation</w>
陕 西</w>
迫 使</w>
股 权</w>
等 待</w>
神 盾</w>
浪 费</w>
无 视</w>
救 生
手 术</w>
总 公司</w>
富 有</w>
付 款</w>
s or</w>
s ick</w>
pl ying</w>
pl ung
p ent
or che
orche str
mo tives</w>
experim ental</w>
ex porting</w>
ex ha
ast y</w>
马 路</w>
边 境
评论 员</w>
巴 尔
小 型
以 巴</w>
事 发</w>
严 密</w>
一 流</w>
th row</w>
str ain</w>
portu gal</w>
pl az
pip eline</w>
mean ing
con ferences</w>
collap se</w>
capital ism</w>
blue print</w>
batt les</w>
af o
2. 8</w>
远 远</w>
评 级</w>
觉 性</w>
若 会</w>
致 函</w>
稳 步</w>
税 务局</w>
民主 党派</w>
日 程</w>
教 材</w>
摄 影</w>
心 理
得 逞</w>
年 报</w>
巡 视</w>
展 览会</w>
居留 权</w>
创造 性</w>
作 法</w>
who ever</w>
urban ization</w>
termin ation</w>
te a</w>
r ounds</w>
pro tests</w>
instru ment</w>
g aining</w>
f p</w>
es tion</w>
diffe ren
convers ation</w>
b y
ag greg
3 33</w>
预 约</w>
联 会</w>
紧密 联系</w>
派 员</w>
法律 援助</w>
持续 增长</w>
屋 苑</w>
射 击</w>
审 计
官 僚
告 人</w>
原则 上</w>
八 一</w>
二 万</w>
suspic ious</w>
re mp
poten ti
g ates</w>
cs c</w>
approach ed</w>
air ports</w>
aggres sive</w>
abs ence</w>
沿 着</w>
扣 留</w>
得 税</w>
希 拉克</w>
公 会</w>
主 办
不 知</w>
一九九 四年</w>
ri gor
ra p</w>
pre t
di men
catho lic</w>
bel t</w>
arri ving</w>
an ce
2. 1</w>
隔 离</w>
贾庆 林</w>
贵 国</w>
请 求</w>
用 人</w>
样 子</w>
整 改</w>
愤 慨</w>
感 兴趣</w>
崛 起</w>
去 年底</w>
入 侵</w>
保 释</w>
仍 会</w>
九龙 城</w>
sit ting</w>
petro l</w>
p ig
hk mc</w>
fer ti
exempl ary</w>
d ay
cub ic</w>
and re
abri dged</w>
自 民党</w>
米 尔</w>
理 性</w>
有 利
日 制</w>
实 地</w>
全 党
一 月份</w>
veri fication</w>
threat en</w>
r ay</w>
philosoph y</w>
m apping</w>
hol der</w>
diver se</w>
contin ent</w>
comple x
accor ds</w>
0. 9</w>
贫 穷</w>
深入 调查</w>
有 时</w>
最 快</w>
恰 当</w>
市场 竞争</w>
四 级</w>
伟大 事业</w>
一九 九</w>
see kers</w>
liber alization</w>
ev ed</w>
cha os</w>
arrang ing</w>
administr ations</w>
3 00,000</w>
气 温</w>
必 要
姓 名</w>
基 准</w>
事 馆</w>
东 方</w>
一 中</w>
th ri
shar on</w>
reli ance</w>
inter views</w>
gir ls</w>
fulf ill
classi fication</w>
chem icals</w>
broad er</w>
b ac
accompl ishing</w>
部长 会议</w>
论 证</w>
联 席会议</w>
私 家</w>
指挥 员</w>
抨 击</w>
扩 充</w>
常务 副</w>
常 规</w>
安 哥
基层 干部</w>
坚持 不懈</w>
三 分之一</w>
一 篇</w>
un fair</w>
thin ks</w>
succ ession</w>
ramp ant</w>
n ai
li eu
fore stry</w>
execu ted</w>
evi dent</w>
es tive</w>
clo thes</w>
b orders</w>
az er
贵 州</w>
监 察
监 事会</w>
病 房</w>
海 湾</w>
氧 化
无 意</w>
抵 御</w>
战 后</w>
展 览
发 电</w>
二 战</w>
上 去</w>
tr acking</w>
symp a
restor ation</w>
quanti ties</w>
qing lin</w>
pub lish</w>
pri de</w>
ku wait</w>
in spir
high light</w>
gr and
fulfill ment</w>
fo od
ab outs</w>
10 %</w>
首 个</w>
预 警</w>
集中 力量</w>
里 程碑</w>
缴 纳</w>
章 程</w>
稳 妥</w>
搜 索</w>
尼日 利亚</w>
大 部份</w>
利 亚
傍 晚</w>
亲 属</w>
世界 观</w>
sum med</w>
destin y</w>
bang lad
assa ult</w>
美 英</w>
纪 元</w>
百分之十 二</w>
民 兵</w>
朝 着</w>
废 气</w>
国 企</w>
七 月份</w>
un lawful</w>
them es</w>
shoc ked</w>
pent agon</w>
le aves</w>
indic ators</w>
heav ily</w>
gr ound
dyn asty</w>
chi u</w>
as sign</w>
ack ers</w>
贸易 逆差</w>
获 发</w>
舞 蹈</w>
第二 期</w>
理 邪说</w>
歪 理邪说</w>
最高 人民检察院</w>
党 政</w>
作出 努力</w>
严 惩</w>
七 十五</w>
一 块</w>
trans lation</w>
t te</w>
syn drome</w>
sha ke</w>
sh ak
pois oning</w>
lieu tenant</w>
hel pers</w>
extr ic
ess enti
dis gu
d ney</w>
col or</w>
ci a</w>
cal m</w>
bu t
azer bai
民主 法制</w>
楼 花</w>
尽 可能</w>
学 金</w>
司令 部</w>
十二 月份</w>
冻 结</w>
促 请</w>
二十 多年</w>
两 份</w>
sub ordinate</w>
pi g</w>
occup y</w>
h s
el em
detec tion</w>
def ence</w>
cla uses</w>
bal lot</w>
ag grav
3. 1</w>
遭 遇</w>
越 南
资 料
调 研</w>
编 辑</w>
汽 油</w>
核 证</w>
干部 人事</w>
娱 乐
多样 化</w>
多 月</w>
切 合</w>
保 育</w>
亦 会</w>
sup er</w>
n ga
ke i</w>
el ed</w>
econom ist</w>
该 局</w>
积极 支持</w>
百分之 八</w>
用 品</w>
洛杉 矶</w>
核 试验</w>
曾 培
曾培 炎</w>
景 气</w>
技术 改造</w>
庇 护</w>
工程 署</w>
修 复</w>
位 数</w>
交 回</w>
yong tu</w>
trea sure</w>
sho res</w>
plaz a</w>
plat e
n gos</w>
mor s</w>
k as
inf low</w>
fraudul ent</w>
f estive</w>
exped ite</w>
dis h</w>
d an</w>
contr acting</w>
constitu ted</w>
al bert</w>
4 7
违法 行为</w>
载 货</w>
电视 节目</w>
森 林</w>
杀 人</w>
平均 数</w>
塔吉 克斯坦</w>
城 乡</w>
商 品
前 进
便 是</w>
一 年
under way</w>
sor t</w>
sen ator</w>
off set</w>
li vely</w>
k ao
gi f
block ade</w>
au to</w>
诈 骗</w>
联 系
紧迫 感</w>
空 军
百分之十 四</w>
办 好</w>
出 色</w>
不 当</w>
z u</w>
ti ght</w>
t ch</w>
sum mon
lif ted</w>
inc en
food stu
emerg e</w>
el ders</w>
conserv ative</w>
bri bery</w>
argu ment</w>
6 6
3 5
集 邮</w>
采取 有效</w>
见 度</w>
能 见度</w>
策 略
来 往</w>
抽 取</w>
异 常</w>
屠 杀</w>
妨 碍</w>
坚 信</w>
否 决</w>
人才 培养</w>
五 千元</w>
不 幸</w>
三 人</w>
sy dney</w>
respon ding</w>
promis ing</w>
mar gare
maced onia</w>
inf il
infil tr
fo stering</w>
econom ists</w>
cro ps</w>
contr ast</w>
con version</w>
.... ..</w>
领导 小组</w>
震 惊</w>
识 别</w>
缔 造</w>
策略 性</w>
我 谨</w>
怎 么样</w>
应 邀</w>
完 结</w>
大 桥</w>
农村 税费</w>
ten nis</w>
sp y</w>
prosecu tions</w>
margare t</w>
in convenience</w>
help ful</w>
h s</w>
flo ods</w>
deter rent</w>
阻 挡</w>
通货膨 胀</w>
迄 今
相 处</w>
操 作
实 事</w>
定 于</w>
单 张</w>
ul ts</w>
t less</w>
rol ling</w>
m ide
k it
illu str
h inter
est ing</w>
en rich</w>
cor rid
campaig ns</w>
b our
academ ics</w>
配 偶</w>
红 军</w>
粮 食
生 存
居 所</w>
北 区</w>
亚 欧
wor st</w>
u sh
th am</w>
s ri</w>
rec ession</w>
q a
provi dent</w>
proc esses</w>
op en
o be
my self</w>
mide ast</w>
hol es</w>
explo red</w>
em per
comple ment</w>
阅 读</w>
贿 赂</w>
缓 慢</w>
第二 届</w>
立 刻</w>
淘 汰</w>
沈 国
水 准</w>
扎 扎
扎扎 实实</w>
回 报</w>
化 工</w>
共产 主义</w>
二 时</w>
两 宗</w>
丙 类</w>
不 想</w>
ta e</w>
sk ill</w>
reci proc
re im
kao hsiung</w>
in hab
heart felt</w>
fo li
educ ated</w>
doz ens</w>
develop s</w>
d ental</w>
cultiv ated</w>
consul ting</w>
chu en</w>
b ounds</w>
返 港</w>
解放军 报</w>
海 报</w>
期 徒刑</w>
文 书</w>
奖 项</w>
国 庆</w>
前进 方向</w>
修 建</w>
三峡 工程</w>
ob s
o king</w>
manag erial</w>
liter ated</w>
j ail</w>
gener ate</w>
gang s</w>
f old</w>
em be
arti sts</w>
非常 高兴</w>
适 时</w>
调 整
记 得</w>
管 会</w>
炮 兵</w>
政 法
坚 决
地 区
人权 委员会</w>
vil le</w>
v lad
tru ste
sp ite</w>
ric k</w>
polit bur
politbur o</w>
mobil ized</w>
doub ts</w>
dest ination</w>
comment ator</w>
ch ol
bi o
1, 500</w>
防 火</w>
遗 产</w>
载 人</w>
百分之 六</w>
波 斯</w>
普 选</w>
德 拉</w>
开 通</w>
巨 额</w>
台湾 人</w>
协 力</w>
副 会长</w>
准 入</w>
会 后</w>
smugg led</w>
rain y</w>
public ize</w>
no body</w>
mus li
ham as</w>
enfor ced</w>
b ai</w>
风 气</w>
负 面
规 范
艰 难</w>
湿 地</w>
流 长</w>
曾 于</w>
支 路</w>
总 政治部</w>
安 徽</w>
基本 方针</w>
地 理</w>
初 级
切实 可行</w>
党 建</w>
依 托</w>
speci alist</w>
por ters</w>
liter ary</w>
k un</w>
juni chiro</w>
inno cent</w>
di an</w>
demo bil
comm enced</w>
col li
19 49</w>
首 日
首日 封</w>
重 新
路 撒
让 步</w>
耶 路撒
生 意</w>
滋 扰</w>
报 复</w>
平 方
孤 立</w>
婚 姻</w>
外 出</w>
之 行</w>
为 例</w>
wat ched</w>
trans forming</w>
sec t</w>
or g</w>
n i</w>
instruc ted</w>
h at
comm ented</w>
as suming</w>
acc us
1 70</w>
遣 返</w>
远 流长</w>
视 野</w>
耶路撒 冷</w>
水 利
技术 人员</w>
得 知</w>
工业 贸易</w>
小 组
固定 资产</w>
受 雇</w>
内 在</w>
venezu ela</w>
re views</w>
li tig
encour ages</w>
en sured</w>
defend ants</w>
cli que</w>
centr alized</w>
a be
须 于</w>
财政 收入</w>
调 低</w>
被 扣</w>
自 豪</w>
美 中</w>
第三 步</w>
沈国 放</w>
执 照</w>
情 形</w>
克罗 地
un authorized</w>
pol ish</w>
j am
fac tion</w>
enthusias tically</w>
engine er</w>
el ines</w>
drin king</w>
ceas ingly</w>
ar ded</w>
4 3
联 手</w>
社会 科学</w>
案 中</w>
暴 力
投票 站</w>
我 要</w>
始终 保持</w>
分 化</w>
where abouts</w>
un ceasingly</w>
trans literated</w>
recei pt</w>
qa eda</w>
nomin ations</w>
jec tion</w>
information ization</w>
i ent</w>
cong estion</w>
commemor ative</w>
负 有</w>
第一 期</w>
立 足</w>
税 人</w>
相 若</w>
疑 犯</w>
有 用</w>
最 具</w>
各 大</w>
十一 月份</w>
促 成</w>
传统 产业</w>
传 出</w>
会议 展览</w>
reim bur
legisl ators</w>
il ian</w>
gn p</w>
dic t
dal ian</w>
0 25</w>
蔬 菜</w>
故 意</w>
引 人
z ambi
stabil ize</w>
roc k</w>
h en</w>
gre ek</w>
e e</w>
dr astic</w>
christ mas</w>
cant onese</w>
ben ch
al lied</w>
5. 5</w>
路 子</w>
职 人员</w>
纳 税人</w>
福 祉</w>
百分之 九十</w>
特 别
法律 责任</w>
天 津
外 经贸</w>
备 受</w>
士 学位</w>
图 片</w>
些 年来</w>
与 时
soph is
pollu t
p u</w>
or bit</w>
oc k</w>
moun t</w>
mea sured</w>
in jury</w>
fron ts</w>
fe et</w>
3. 8</w>
金融 风暴</w>
藉 以</w>
管理 工作</w>
源 远流长</w>
姜 春
夺 取</w>
基 说</w>
减 税</w>
仲 裁</w>
不 上</w>
一 手</w>
su ited</w>
speak ers</w>
ser v</w>
ro p
rel s</w>
poss esses</w>
per tin
offici ating</w>
equ ally</w>
deplo ying</w>
ber lin</w>
黑 色</w>
首 批</w>
跨 世纪</w>
短 片</w>
直 航</w>
沙 士</w>
永 强</w>
最 低
既 然</w>
姜春 云</w>
医 护</w>
八十 年代</w>
supple ment</w>
sophis tic
quick en</w>
proce eds</w>
painst aking</w>
hero ic</w>
fai th
embo died</w>
ell ation</w>
destro ying</w>
attr active</w>
高 峰会</w>
轿 车</w>
签 字
界 定</w>
生产 者</w>
此 时</w>
斯特 罗</w>
导 演</w>
大 堂</w>
受 贿</w>
发展 趋势</w>
区 别</w>
劫 案</w>
创新 能力</w>
党的 基本</w>
一 笔</w>
tre ating</w>
trag edy</w>
rac ial</w>
obstac le</w>
mor ale</w>
ken ne
k ni
fran k
ex pose</w>
do gs</w>
defic its</w>
b arg
退 税</w>
进 军</w>
路 政</w>
设 法</w>
设 定</w>
活 动
极 端
政 坛</w>
很 强</w>
奥 委会</w>
大 肆</w>
多种 形式</w>
军 控</w>
事 国</w>
一 期</w>
victor ies</w>
th k</w>
sabot age</w>
lun ch</w>
j ung</w>
incen tive</w>
i red</w>
i on
dispat ch</w>
del ayed</w>
coun selling</w>
amb ul
频 道</w>
锦 标
锦标 赛</w>
邮 政
过 后</w>
过 于</w>
财 物</w>
调查 报告</w>
行政 区</w>
荣 誉</w>
管理 制度</w>
竭 力</w>
信 赖</w>
争 论</w>
un necessary</w>
t ful</w>
slog an</w>
sh eng
m h</w>
le g</w>
he at</w>
defe ated</w>
de vice</w>
construc t</w>
ba g</w>
高 层次</w>
难 得</w>
纪 律
竟 然</w>
稳 固</w>
根 源</w>
政协 委员</w>
恢 复
建 议书</w>
奉 献</w>
国 企
公 司
不 行</w>
str o</w>
shi el
mar ty
es cape</w>
do g</w>
辽 宁
访 客</w>
海 运</w>
波 动</w>
最 初</w>
时 作</w>
新 纪元</w>
推 迟</w>
拯 救</w>
抢 劫</w>
弹 药</w>
开幕 典礼</w>
国企 改革</w>
克 斯</w>
中 纪委</w>
techn icians</w>
senti ments</w>
mo bility</w>
ji e
investig ators</w>
her self</w>
hand ic
edit or</w>
dr ag
cy cl
con not
brief ings</w>
be au
appro ving</w>
advant ageous</w>
9 ,
2 9.
马 克</w>
资 金
行 车
肩 负</w>
绝 不能</w>
爱 好
正 视</w>
撤 军</w>
承 受</w>
必 需</w>
律 师
妄 图</w>
全 日制</w>
义 务
unil ateral</w>
u red</w>
tic ket</w>
ti e
south west</w>
scienti fically</w>
proce eded</w>
pei yan</w>
l ectures</w>
je well
eth ical</w>
egyp tian</w>
dis missed</w>
arre ars</w>
a e</w>
铁 映</w>
道 德
考 察
真 相</w>
版 本</w>
民 营</w>
李 铁映</w>
掩 盖</w>
干 事</w>
工商 局</w>
发表 意见</w>
兑 换</w>
介 绍
yi p</w>
sof t
man ship</w>
j ong</w>
im posing</w>
consult ants</w>
avoi ding</w>
7. 5</w>
马 斯</w>
酒 会</w>
踊 跃</w>
热 线
深圳 市</w>
消 灭</w>
曲 折</w>
国有 经济</w>
卫生 部</w>
先 前</w>
作 家</w>
互 不
uni form</w>
travel lers</w>
sustain ing</w>
patter ns</w>
jurisdic tions</w>
intellec tu
in door</w>
g m
el ect</w>
consolid ation</w>
carni val</w>
b arre
践 踏</w>
群 岛</w>
秀 冬</w>
水 利</w>
氛 围</w>
民 事</w>
毫 米</w>
每 名</w>
收 支
广播 局</w>
宿 舍</w>
四 二</w>
囚 犯</w>
前 沿</w>
凡 是</w>
入 学</w>
亚欧 会议</w>
五 角
五 次</w>
中 级</w>
中 山</w>
x ili
vangu ard</w>
pru dent</w>
post ers</w>
pen sion</w>
p s
or e</w>
mor oc
head way</w>
foodstu ffs</w>
fi res</w>
cali for
adverti sing</w>
198 3</w>
行 动
第五 次</w>
真 是</w>
排 放
所 述</w>
廖 秀冬</w>
后 者</w>
八 五</w>
之 处</w>
v enti
r at
priv il
privil eg
priv acy</w>
ome tric</w>
endang ered</w>
dr ills</w>
dilig ently</w>
da o
critici ze</w>
av a</w>
analy ses</w>
3 4
立法 院</w>
消 防</w>
海 军
心 里</w>
午 餐会</w>
保 卫
佛 教</w>
万 个</w>
一 股</w>
y land</w>
window s</w>
symbo l</w>
sust ain</w>
succ essive</w>
star ts</w>
pu dong</w>
preser vation</w>
ordin ation</w>
obstruc ted</w>
honor ary</w>
g ro
bac ter
ap p
较 长</w>
董 事会</w>
离 婚</w>
有所 改善</w>
成 都</w>
妇 女
原 理</w>
华 府</w>
中 介
we t
suff rage</w>
share holders</w>
readju sting</w>
post master</w>
port foli
persist ent</w>
ori um</w>
ne pal
man ila</w>
licen sees</w>
heav en</w>
h ome
fish er
es cor
educ ating</w>
cor ner
acquis ition</w>
3 g</w>
行 事</w>
脱 离</w>
联 大</w>
统 战
租 用</w>
票 价</w>
数 列</w>
授 予</w>
天 下</w>
在 实践
困 扰</w>
伊斯 兰</w>
toler ate</w>
secon ds</w>
sacri fic
pr h</w>
doc tr
diplom ats</w>
dang ers</w>
bann ing</w>
bab y</w>
面向 未来</w>
肩 负
求 助</w>
有利 条件</w>
早 就</w>
据 此</w>
抗 旱</w>
局部 战争</w>
外交 官</w>
四 国</w>
协 同</w>
公 民
光 辉</w>
也 好</w>
vigil ant</w>
vic ious</w>
un likely</w>
sin dex</w>
set backs</w>
recru it</w>
peace time</w>
part ly</w>
m or</w>
lu k</w>
in mates</w>
go d</w>
dead lock</w>
confisc ated</w>
broad band</w>
at tered</w>
assess ing</w>
ag ue</w>
aff ili
预 售</w>
迷 信</w>
身 为</w>
签字 仪式</w>
百分之 一</w>
热 带</w>
深 感</w>
民 警</w>
接 见</w>
忠 实</w>
弃 置</w>
同 年</w>
司法 机关</w>
农业 部</w>
养 老
信息 战</w>
传 送</w>
人 质</w>
两 家</w>
yuan hua</w>
utili ze</w>
neighb or</w>
heigh ts</w>
gen e
fire arms</w>
end er</w>
constitu ency</w>
clari fy</w>
8 246</w>
驶 入</w>
马 场</w>
进 行
购 物</w>
蓬勃 发展</w>
色 彩</w>
澳门特别行政 区</w>
毕 竟</w>
此 机会</w>
根本 性</w>
政 客</w>
承 包</w>
得 不到</w>
南 区</w>
动 工</w>
举 动</w>
中 药</w>
不 惜</w>
intercep tion</w>
indic ation</w>
il i</w>
expres s
e asi
construc ted</w>
congratul ated</w>
骗 取</w>
赖 昌
贯彻 执行</w>
简 报</w>
油 站</w>
指挥 官</w>
性 别</w>
心 中</w>
实 习</w>
安哥 拉</w>
多 来</w>
坠 毁</w>
一 致
trans mitted</w>
s ongs</w>
pe ter</w>
mer it</w>
heigh ten</w>
fl our
execu tives</w>
country side</w>
al ger
aggreg ate</w>
3. 4</w>
重 庆
邮 报</w>
进 攻</w>
软 件
据 称</w>
志 平</w>
卓 有成效</w>
分 之
先进 武器</w>
从 严
main land
ir respective</w>
ic ian</w>
de vis
confid ential</w>
ad ds</w>
accoun table</w>
示 威
有 线
戒 毒</w>
干部 群众</w>
失 误</w>
决 战</w>
优秀 人才</w>
中华人民共和 国政府</w>
win dow</w>
view ers</w>
t esti
ran ked</w>
pass ports</w>
n p
form sindex</w>
eng land</w>
en tion</w>
预防 措施</w>
门 诊</w>
逾 期</w>
走 廊</w>
详细 资料</w>
税 款</w>
灭 蚊</w>
海 水</w>
流 行</w>
核 心
普通 话</w>
扭 转</w>
年 会</w>
安 生</w>
大力 加强</w>
四十 八</w>
典 范</w>
交 代</w>
wal king</w>
t ap
sil ver
metho do
jewell ery</w>
ip r</w>
ge ological</w>
au xili
ati zation</w>
appro aches</w>
3. 6</w>
首 席
阶 段
阶段 性</w>
长 清</w>
胡 长清</w>
答 应</w>
渔 民</w>
形 容</w>
密 度</w>
实 处</w>
定 居</w>
媒 体
奖 学金</w>
处 处长</w>
四 至</w>
哲 学</w>
双 程</w>
troub les</w>
sub jec
optim ize</w>
nu is
got ten</w>
c nn</w>
avoi ded</w>
都 市</w>
运 载
百分之 八点</w>
登 上</w>
总 共</w>
平方 公里</w>
大 学
咸 道</w>
厦 门
内 政
人 流</w>
交 汇
世界 大战</w>
tr icks</w>
ti d</w>
s ely</w>
s and</w>
pharm acy</w>
per ci
perci val</w>
less ly</w>
join s</w>
forec asts</w>
el iz
el ing</w>
di versity</w>
co c
chi efs</w>
16 87</w>
餐 厅</w>
议 席</w>
渐 进</w>
校 舍</w>
有 点</w>
晚 上
晚上 十</w>
放 松</w>
在实践 中</w>
一百 零
swit ch</w>
sh atin</w>
retail ers</w>
q u</w>
pe ti
n igh
intellectu als</w>
hard ware</w>
gu ese</w>
engine ers</w>
emb race</w>
dom s</w>
diver sion</w>
dis h
col in</w>
cha tham</w>
ca stro</w>
b urg
间 谍</w>
这 类</w>
证 人</w>
监督 管理</w>
盈 利</w>
民意 调查</w>
教 会</w>
常 驻</w>
富 街</w>
夺 得</w>
增 收</w>
判 刑</w>
军 民</w>
串 谋</w>
stic ks</w>
portu guese</w>
ot ech
m er</w>
hor iz
gu arding</w>
exp ense</w>
en counter</w>
con firm</w>
califor nia</w>
3 6
陈 方</w>
诸 如</w>
西 岸</w>
股 份
相 撞</w>
特 使</w>
沿海 地区</w>
未 获</w>
快速 增长</w>
奋 斗
大 队</w>
发 给</w>
再 次
两 千</w>
不 住</w>
一百 八十</w>
unde remp
underemp lo
tion aries</w>
t ted</w>
s pur</w>
respon ses</w>
re medi
person alities</w>
laun ches</w>
int ent</w>
impres sed</w>
ic ing</w>
hand ful</w>
emancip ate</w>
comfor table</w>
author ization</w>
addres ses</w>
ad minister</w>
2 20</w>
金融 业</w>
赖昌 星</w>
负面 影响</w>
言 行</w>
荣 毅
荣毅 仁</w>
稳 定
梳 士</w>
所 在
巡 航
吉尔吉 斯
决 不能</w>
任 用</w>
介绍 所</w>
之 旅</w>
主 礼</w>
一九 五
win d
v ati
vati can</w>
t ness</w>
ref uses</w>
p ays</w>
non governmental</w>
je op
j ava</w>
infer ior</w>
hinter land</w>
g u</w>
fe wer</w>
f en
don ations</w>
distinc t</w>
con junction</w>
ap pre
骗 案</w>
马 尼
面 目</w>
长 江</w>
盟 友</w>
斯洛 伐
文 艺
小 康
国 土
副 省长</w>
亦 须</w>
不 良</w>
一百 二十</w>
ten sions</w>
ta c</w>
rob ust</w>
re bel
par alle
paralle l</w>
man ual</w>
in vigor
end less</w>
dur ation</w>
depend ent</w>
consci ous</w>
cam er
avail ability</w>
an ov</w>
铁 站</w>
街 及</w>
虐 待</w>
统计 资料</w>
王 忠
湖 北</w>
极 少数</w>
散 布</w>
挪 威</w>
抉 择</w>
地 段</w>
二 四</w>
事 物</w>
中 心
re tained</w>
re acti
par ade</w>
marri ed</w>
langu ages</w>
in coming</w>
gu am</w>
gn ant</w>
dis satisfaction</w>
ce l</w>
braz ilian</w>
an e</w>
3 3
部 委</w>
通 信
路 面</w>
贬 值</w>
行 列</w>
河 南</w>
档 位</w>
核 查</w>
服 用</w>
提 早</w>
愤 怒</w>
愈 来
快 捷</w>
开幕 礼</w>
多 层次</w>
内 战</w>
克罗地 亚</w>
充 足</w>
保 费</w>
保 加
传 输</w>
不 起</w>
一 共</w>
ver se</w>
uni fying</w>
stor ies</w>
sp an</w>
po t</w>
pat rick</w>
k ash
insti g
h rs</w>
ful ness</w>
exclu sively</w>
em ail</w>
easi er</w>
di ag
demobil ized</w>
counter measures</w>
cont acted</w>
conscienti ous</w>
comfor t</w>
20 20</w>
雷 斯</w>
长 达</w>
赖 斯</w>
老 朋友</w>
王 光
惩 处</w>
好 象</w>
受 托人</w>
农 牧
军 火</w>
从严 治党</w>
人 生
不 错</w>
yosh iro</w>
vern ight</w>
standardi zing</w>
sophistic ated</w>
rec over
re moving</w>
pr its</w>
o vernight</w>
med al</w>
le ase</w>
in discrimin
he rent</w>
feat uring</w>
f ans</w>
exerc ised</w>
dest inations</w>
cul prits</w>
banglad esh</w>
逻 辑</w>
退 休
节 水</w>
私 烟</w>
杨 永强</w>
摩 托
拟 议</w>
担 负</w>
心 情</w>
实 用</w>
四 条</w>
商务 部</w>
吸 纳</w>
发 局</w>
利 比亚</w>
分 散</w>
何 志平</w>
仓 库</w>
三 位</w>
understand ings</w>
sta ke
sig nat
s cr
ru mors</w>
potenti als</w>
ok ay</w>
noti fied</w>
hu ai</w>
hi v</w>
behavi ors</w>
begin s</w>
陈 述</w>
问 卷</w>
造 就</w>
路 上</w>
绝 不会</w>
珍 视</w>
扑 灭</w>
愿 同</w>
官僚 主义</w>
外 国人</w>
四 号</w>
受 阻</w>
受 益</w>
取得 成功</w>
关 岛</w>
全力 支持</w>
事 后</w>
un fortun
truc k</w>
sh in
pu rely</w>
our ing</w>
int end
he ung</w>
harb or</w>
enter s</w>
east ward</w>
a x
阳 市</w>
过 剩</w>
牢 牢</w>
款 待</w>
欺 诈</w>
放 置</w>
总 之</w>
必 然
密 集
宏 伟
坦 诚</w>
受 损</w>
五 天</w>
中 医药</w>
不 适</w>
一百 四十</w>
一 中
sist er</w>
secu red</w>
s port</w>
out flow</w>
mou th</w>
mak er</w>
indefin itely</w>
in o</w>
hk ce
confu sion</w>
cap tured</w>
b is
as em</w>
afgh an</w>
19 60</w>
边 界
表 一</w>
缺 少</w>
筹 划</w>
番 话</w>
注 目</w>
最 新
收 受</w>
排 名</w>
响 应</w>
升 高</w>
信息 安全</w>
五 分</w>
一中 一台</w>
shel ters</w>
ref rain</w>
pres ti
expec ting</w>
elem entary</w>
divis ional</w>
deteri oration</w>
contr actual</w>
误 解</w>
美 丽</w>
热 情
演 员</w>
沈 阳</w>
扶 贫
塔 尔</w>
可 谓</w>
发挥 作用</w>
不 见</w>
un fol
ul ter
reason ably</w>
r acks</w>
presti ge</w>
pertin ent</w>
pas sive</w>
mor ality</w>
intermedi ary</w>
fan ling</w>
di am
cris es</w>
b lows</w>
ab sur
20 %</w>
高 龄</w>
进 出</w>
署 方</w>
妈 妈</w>
均 衡</w>
嘉 年
呈 交</w>
双边 合作</w>
几 何</w>
全 区</w>
上 面</w>
三 地</w>
vir tually</w>
t all</w>
radi ation</w>
pul se</w>
pollu ted</w>
l acks</w>
ko o</w>
infring ement</w>
fif ty</w>
choo sing</w>
che ong</w>
b ou
astron au
arri vals</w>
an th
自 我
盗 窃</w>
柴 湾</w>
掀 起</w>
广 州
宗教 界</w>
双边 贸易</w>
十 万元</w>
党 委书记</w>
克 尔</w>
九 广</w>
一九 六
一 贯
tend ers</w>
so e</w>
slov ak
sal is
salis bury</w>
jour nal</w>
hard copies</w>
h 5</w>
fil ed</w>
exclu ding</w>
encour agement</w>
coun ted</w>
contribu ting</w>
bel ie
auxili ary</w>
重 任</w>
落 到
落到 实处</w>
美国 国防部</w>
水 浸</w>
毫 不
未 必</w>
广 管局</w>
常 会</w>
市场 需求</w>
太平 洋
地 方
台 币</w>
到 处</w>
创 下</w>
保加 利亚</w>
以 南</w>
之 急</w>
举世 瞩目</w>
yu k</w>
where by</w>
te ach</w>
t ours</w>
reve al</w>
n as
la ke</w>
i a
hard ships</w>
gener ating</w>
fav ored</w>
den y</w>
deli vering</w>
黑 恶势力</w>
钦 佩</w>
秘 鲁</w>
百分之十 点</w>
申 奥</w>
某 种</w>
抢 救</w>
当 场</w>
尼 亚
对华 关系</w>
团 伙</w>
四 千
参 照</w>
会 员国</w>
交 谘</w>
中华人民共和 国
u ps</w>
tun n
to x
sub head</w>
s k</w>
rich ard</w>
r aids</w>
p y
oun ce</w>
intere sting</w>
im minent</w>
cr ashed</w>
chen ey</w>
ch air</w>
鞍 山</w>
革 新</w>
装 甲
自 卫队</w>
科 目</w>
留 在</w>
极 力</w>
杨 洁
是 非</w>
拟 定</w>
征 状</w>
居 民
印度 尼
出 示</w>
余 额</w>
中国 香港</w>
中 小</w>
与 否</w>
z en</w>
w alls</w>
utili zed</w>
super intend
re ject</w>
re feren
om ic</w>
meticul ous</w>
legisl ature</w>
f est</w>
ec our
descri ptions</w>
cust ody</w>
chun yun</w>
amoun ting</w>
锻 炼</w>
选 举
第三 届</w>
立 足
社会 科学院</w>
研究 生</w>
看 望</w>
王忠 禹</w>
消 极</w>
攻 关</w>
抑 制</w>
库 务</w>
夜 间</w>
号 召</w>
六 六</w>
侵 权</w>
train s</w>
su its</w>
qu o</w>
pro min
multi polarization</w>
ma ster
g a</w>
ex ag
cla use</w>
chi p</w>
ch in</w>
28 6
迎 来</w>
跨 部门</w>
百分之 九点</w>
火 车</w>
海洛 英</w>
格 式</w>
杨洁 篪</w>
无 数</w>
掌 声</w>
大会 常务委员会</w>
地 铁站</w>
回 落</w>
哪 个</w>
古 迹</w>
俄 方</w>
体 验</w>
代表 大会常务委员会</w>
人民 代表大会常务委员会</w>
we t</w>
sympa thy</w>
st ret
st .</w>
shen zhou</w>
sar ah</w>
prof ile</w>
par ag
p av
mis si
log ical</w>
junc tions</w>
happ ens</w>
explor ations</w>
eag er</w>
conclu ding</w>
a partment</w>
野 战</w>
知 名
相互 理解</w>
民 调</w>
残 疾
武 汉</w>
晚 间</w>
布希 总统</w>
外 债</w>
国家 统计局</w>
务 署</w>
八 号</w>
保持 稳定</w>
体育 馆</w>
从 此</w>
交汇 处</w>
万 多</w>
一 枚</w>
win ner</w>
tra de
t se</w>
sam pling</w>
s ening</w>
rac ecour
quot as</w>
plate au</w>
health care</w>
fu k</w>
f ing
c n</w>
bur g</w>
altern ate</w>
10 5</w>
阳 光</w>
遏 止</w>
车 臣</w>
红 十字
研究 会</w>
海 南
最高 法院</w>
早 时</w>
复 核</w>
园 区</w>
周边 国家</w>
半 个</w>
分 阶段</w>
保 守
争 夺</w>
之 初</w>
vac ancy</w>
to ys</w>
ro bert</w>
plac ement</w>
ordin arily</w>
min ed</w>
h su</w>
grati fying</w>
en ligh
2. 9</w>
附加 费</w>
遗 留
讲 解</w>
荣 幸</w>
服 从</w>
更 多
斯 里
撤 离</w>
巡航 导弹</w>
在 野
十 八个</w>
分 项</w>
休 息</w>
亲 王</w>
亚洲 地区</w>
二十 世纪</w>
中央 纪委</w>
专家 学者</w>
un expected</w>
sud an</w>
shel ter</w>
prohibi tion</w>
out let</w>
mani pul
lands cape</w>
gu of
enti ties</w>
eng ine</w>
con dol
chil ean</w>
cc p</w>
bu yers</w>
beau ty</w>
abe th</w>
黑 龙
马尼 拉</w>
那 时</w>
运输 业</w>
贪 污
繁 重</w>
病 征</w>
法 人</w>
无 人</w>
换 证</w>
按 期</w>
惠 国</w>
开放 日</w>
并 不
学 费</w>
国有 资产</w>
五 万</w>
ti en</w>
stabil izing</w>
reinfor cing</w>
pic ked</w>
exist ed</w>
every day</w>
concentr ation</w>
commem orate</w>
celebr ations</w>
饮食 业</w>
顺 应</w>
难 者</w>
过 度</w>
第六 次</w>
知识 分子</w>
眼 睛</w>
查 办</w>
教 徒</w>
支 部</w>
家 园</w>
太 平</w>
图 案</w>
兼 并</w>
修 读</w>
五十 万</w>
y ung</w>
wal ked</w>
ti ll</w>
su l</w>
ste red</w>
sol ely</w>
ref using</w>
n ish</w>
dis cover</w>
co ach</w>
apolog ize</w>
4 0,000</w>
首 届</w>
送 达</w>
轰 炸
轰炸 机</w>
身 高</w>
讲 述</w>
统 会</w>
管理 层</w>
核 电站</w>
本 年度</w>
有 望</w>
我 会</w>
应 变</w>
将 近</w>
单 纯</w>
剩 余</w>
供 给</w>
二 千年</w>
不 仅仅</w>
一 轮</w>
一 律</w>
wo o</w>
w i</w>
ve tting</w>
trans formed</w>
s light</w>
row se</w>
p w</w>
out sour
j as
in tru
hom eland</w>
gu ine
dispens able</w>
bound aries</w>
bar rels</w>
appl ause</w>
而 出</w>
正 义
核 能</w>
朝 美</w>
拉 夫
反 省</w>
冷 静</w>
兰 卡</w>
份 额</w>
严格 执行</w>
业 及</w>
xi u
re version</w>
pres ently</w>
ph r
pe t</w>
now ad
fav ourable</w>
den mark</w>
chang qing</w>
boo king</w>
258 23
25823 025</w>
频 频</w>
该 些</w>
纪念 封</w>
第十 个</w>
省 份</w>
水 库</w>
无线 电</w>
提出 申请</w>
垃 圾
半 个世纪</w>
办 公</w>
中 止</w>
vul ner
ver t</w>
us a</w>
tur bul
t el
stan ts</w>
st ag
sear ching</w>
ret ali
reser ving</w>
paren tly</w>
ou fl
nowad ays</w>
inspec ting</w>
he i</w>
ent ment</w>
dong shan</w>
bulgar ia</w>
benef ited</w>
ba o
重 播</w>
路 向</w>
缔 约
清 华
杀 案</w>
日 来</w>
接 轨</w>
国 宾馆</w>
华盛 顿
买 提</w>
不 如</w>
丈 夫</w>
一 倍</w>
verdic t</w>
ro t
m b
exc ess</w>
defin ite</w>
ap parently</w>
ali enable</w>
途 中</w>
经济 特区</w>
百分 之</w>
生命 力</w>
灾 民</w>
新闻 自由</w>
少 将</w>
国 集团</w>
四 大</w>
四 万</w>
儿 女</w>
侦 破</w>
人民 军队</w>
with stand</w>
roc kets</w>
pro jected</w>
pr on
p ain</w>
key note</w>
har v
ge ometric</w>
feed back</w>
fac tions</w>
def lation</w>
dec lining</w>
compar able</w>
clou dy</w>
cam oufl
bur ning</w>
bir th
ad vers
abo de</w>
4 000</w>
28 69</w>
驻 美</w>
青 人</w>
阿 扁</w>
门 票</w>
警 报</w>
老 道</w>
榜 样</w>
收支 平衡</w>
擅 自</w>
当 务
当务 之急</w>
年 青人</w>
局 部</w>
密切 合作</w>
多 媒体</w>
充分 考虑</w>
值得 注意</w>
七 五</w>
xu e
suppor ters</w>
prep are
prepare dness</w>
loy al</w>
invest or</w>
institu ted</w>
el der</w>
col or
chec k
5. 6</w>
邮 寄</w>
通 车</w>
热线 电话</w>
深 受</w>
敢 于</w>
接 驳</w>
学术 界</w>
去 世</w>
光 明</w>
信 件</w>
传 递</w>
五 二</w>
zh an</w>
w on
uti lis
ta ke
su gar</w>
seri ousness</w>
sal t</w>
promot es</w>
in adequate</w>
hosti lity</w>
ha b</w>
gri m</w>
dedic ation</w>
corner stone</w>
clin ic</w>
cl er
cham p
bri dges</w>
advis ers</w>
艺术 家</w>
科学 馆</w>
申 诉</w>
率 团</w>
河 北</w>
汲 取</w>
果 说</w>
对 面</w>
如 果说</w>
夫 斯基</w>
军 兵种</w>
停 车</w>
之 风</w>
tan z
spec tr
re stored</w>
photograph s</w>
p a</w>
np csc</w>
mon d</w>
med als</w>
lt d.</w>
ir rig
gr am
contro versi
bu n</w>
14 80</w>
阴 谋</w>
联 军</w>
眼 光</w>
珠 海</w>
沿 岸</w>
河 内</w>
核 裁军</w>
本报 讯</w>
本 社</w>
推 展</w>
意 向</w>
将 有助</w>
地 质
团 队</w>
切 身
军事 战略</w>
佛 州</w>
亲 人</w>
virtu e</w>
si m
rup tion</w>
methodo logy</w>
li vest
dis playing</w>
conclu de</w>
celebr ating</w>
am ending</w>
6. 8</w>
高速 公路</w>
露 出</w>
金 牌</w>
逐 年</w>
财政 部长</w>
财 力</w>
试 射</w>
规范 化</w>
行 之
盖 印</w>
男 性</w>
温 和</w>
欢迎 仪式</w>
无 限</w>
教育 部</w>
指挥 部</w>
幼 儿</w>
常任理 事国</w>
工 委</w>
山 顶</w>
安理 会
安理会 常任理事国</w>
到 场</w>
八 名</w>
八 八</w>
人 防</w>
五 是</w>
不 法</w>
不 必要</w>
varie ties</w>
sur g
super sti
po stage</w>
m tr
incorpor ating</w>
in appropriate</w>
explan ations</w>
deteri or
belie vers</w>
at omic</w>
ann um</w>
am at</w>
6. 5</w>
黄大 仙</w>
金 门</w>
资 历</w>
误 导</w>
蓝 色</w>
繁 荣
篇 章</w>
竣 工</w>
空 域</w>
理 据</w>
猖 獗</w>
惩 罚</w>
少 于</w>
四 十五</w>
历 时</w>
上 次</w>
x ing
vo iced</w>
under mined</w>
rel and</w>
profic iency</w>
negoti ate</w>
min ded</w>
aff ects</w>
0 5
转 介</w>
质 询</w>
说 话</w>
深 层次</w>
新闻 媒体</w>
很 少</w>
存 放</w>
四十 四</w>
商 户</w>
商 定</w>
保持 良好</w>
优 势
un certain
targ eting</w>
simul ated</w>
sco res</w>
ri ding</w>
me tal
ke l</w>
i op
explo sions</w>
eliz abeth</w>
elim ination</w>
arab ia</w>
13 2</w>
马 鞍山</w>
预 备
问 责
视 线</w>
礼 宾
电子 邮件</w>
曾 多次</w>
施 压</w>
斯洛伐 克</w>
所 用</w>
战 犯</w>
总 工会</w>
倘 若</w>
倒 退</w>
代表 性</w>
一 看</w>
livest ock</w>
kee ps</w>
explo it</w>
do ors</w>
dis ne
connec tions</w>
bol dly</w>
as ser
answ ers</w>
ann ing</w>
a j
进 驻</w>
稳 步
盛 会</w>
特 殊
打 电话</w>
作 物</w>
shutt le</w>
secre tly</w>
proc ession</w>
on es
licen see</w>
l aser</w>
isol ation</w>
gi ft</w>
disne yland</w>
cl ashes</w>
ap plies</w>
走 势</w>
观 其
私 隐</w>
点 二</w>
清 单</w>
混 合</w>
方 同意</w>
数 字
救生 员</w>
捐 款</w>
扶贫 开发</w>
广播 电台</w>
常 常</w>
外 国
复 本</w>
叶 澍</w>
双 方同意</w>
十五 分钟</w>
内 蒙古</w>
克 制</w>
代理 商</w>
丝 毫</w>
三 至</w>
三 种</w>
一 并</w>
wat ches</w>
ro oted</w>
o ke</w>
is tically</w>
fin ish</w>
fast est</w>
emper or</w>
d ma</w>
budg etary</w>
atta ching</w>
adop ts</w>
4. 3</w>
这 部</w>
边境 地区</w>
身 穿</w>
财政 赤字</w>
而 定</w>
武 警</w>
正确 认识</w>
楚 瑜</w>
构 筑</w>
扣 押</w>
巴 布
尚 有</w>
宋 楚瑜</w>
好 事</w>
大 法</w>
双 向</w>
初级 阶段</w>
全 文
不 单</w>
uzbe kistan</w>
travel ing</w>
sugg est</w>
stub bor
slog ans</w>
regul ated</w>
ordin ances</w>
essenti ally</w>
en larg
datab ase</w>
crow ds</w>
champ ion</w>
cam ps</w>
administ ered</w>
长 治
趋 向</w>
诉 求</w>
行 使
毫 无</w>
已 获</w>
同 行</w>
刻 意</w>
保 健</w>
东 盟
thre sh
sur render</w>
sing ing</w>
port al</w>
ong jiang</w>
mat ches</w>
infra structural</w>
impro per</w>
expec tation</w>
es sible</w>
competi tors</w>
c u</w>
bel ongs</w>
aus tin</w>
ac cred
a ment</w>
表 彰</w>
租 住</w>
电 路</w>
无 辜</w>
拘 留</w>
或 许</w>
年轻 人</w>
将 要</w>
天 然</w>
在野 党</w>
先 行</w>
先 到</w>
struc k</w>
slow ly</w>
rain storm</w>
pro let
ore mentioned</w>
new s
low ering</w>
hand over</w>
fi l</w>
down ward</w>
cen tering</w>
al istic</w>
al a</w>
af orementioned</w>
acc essible</w>
这 番话</w>
行之 有效</w>
百分之十 七</w>
点 六</w>
每 周</w>
普通 法</w>
明确 规定</w>
搁 置</w>
惩 教</w>
市场 准入</w>
完 毕</w>
奋斗 目标</w>
失 望</w>
国 与
呈 现出</w>
受 助</w>
动 向</w>
久 安</w>
主 动
zhong yu</w>
wh il
whil st</w>
vlad im
under stands</w>
un ve
ter y</w>
mag ic</w>
lo dged</w>
fat f</w>
explic it</w>
en tic
emphasi zing</w>
embo dies</w>
divor ce</w>
cur e</w>
c iting</w>
c it
andre w</w>
0 2
隐 患</w>
短 暂</w>
杜 马</w>
朝 野</w>
拉 克
差 不多</w>
对 峙</w>
密切 联系</w>
分 工</w>
公 正
volunte er</w>
tru th
to u</w>
ti m</w>
ter ror</w>
stake holders</w>
s ne
re training</w>
re di
pra ise</w>
plat forms</w>
monu ment</w>
m ir</w>
loc khar
lockhar t</w>
journ alist</w>
i reland</w>
hor se</w>
dr ama</w>
dis closure</w>
dial ec
4. 2</w>
3. 7</w>
长治 久安</w>
转 机</w>
警 示</w>
观察 员</w>
裁 减</w>
美 俄</w>
经济 损失</w>
精 英</w>
社会 秩序</w>
正 当
校 园</w>
指 令</w>
战略 伙伴</w>
年 率</w>
屠 宰</w>
威 慑</w>
四川 省</w>
十五 个</w>
t ze</w>
spectr um</w>
slovak ia</w>
shu ff
reg ret
is o
in dispensable</w>
in alienable</w>
hang zhou</w>
free doms</w>
fe els</w>
experi ment</w>
du p</w>
d an
cr af
ath ens</w>
7 ,000</w>
谎 言</w>
结 盟</w>
筹 办</w>
第 一步</w>
无 产阶级</w>
教 主</w>
捐 赠</w>
工作 作风</w>
姆 斯</w>
大 城市</w>
国与 国</w>
全球 性</w>
侵 害</w>
wi den</w>
tou ched</w>
tie ying</w>
sh ine</w>
re strict</w>
pro stitu
hu mil
he il
fisher men</w>
divi de</w>
contin ental</w>
bom b
announc ements</w>
重 返</w>
进行 谈判</w>
轻 重</w>
转 交</w>
考 生</w>
罪 恶</w>
精 心
界 限</w>
深 度</w>
更 佳</w>
所 得税</w>
妥善 解决</w>
女 童</w>
协 会
力 求</w>
决 策
侨 胞</w>
ten ure</w>
tax payers</w>
superintend ent</w>
sar g</w>
mongoli an</w>
meticul ously</w>
li sts</w>
k el
gre ening</w>
fish ery</w>
barre l</w>
198 1</w>
骨 干
阿拉 伯
阿 布
遵 照</w>
装 修</w>
蓄 意</w>
经济 运行</w>
经济 区</w>
管 辖
礼宾 府</w>
熊 猫</w>
测 绘</w>
新一 届</w>
工 伤</w>
学 额</w>
好 像</w>
奥林匹 克</w>
咖 啡</w>
反 响</w>
参 与
全国 人民代表大会常务委员会</w>
以 供</w>
二 至</w>
东 至</w>
一千 五百</w>
s killed</w>
rigor ous</w>
discipl ines</w>
develop er</w>
constitu encies</w>
azerbai jan</w>
as sured</w>
钻 石</w>
走 进</w>
组 长</w>
红十字 会</w>
种 族</w>
生 动</w>
江 苏
果 断</w>
故 障</w>
排放 量</w>
拆 卸</w>
开 业</w>
广大 群众</w>
工 序</w>
就 读</w>
回 家</w>
tw el
toil et</w>
recru iting</w>
pu i</w>
me tro
marty rs</w>
log ic</w>
kindergar tens</w>
it ated</w>
interven e</w>
confron ted</w>
con sul</w>
arm aments</w>
analy zing</w>
青 年人</w>
酒 店
舆 论
细 菌</w>
管 辖</w>
灵活 性</w>
查 获</w>
工 艺</w>
宾 主</w>
吸引 外资</w>
制 度
乌 干
主 题
up loaded</w>
tin y</w>
t ar
referen dum</w>
re d
over coming</w>
main stay</w>
lo op
in er
fro zen</w>
facil itation</w>
ev olu
del hi</w>
croati a</w>
corrid or</w>
are ly</w>
acti v
18 2</w>
难 道</w>
难 点</w>
谈 判
细 致</w>
母 舰</w>
李少 光</w>
总 干事</w>
建 局</w>
工 会
封 建
国 军</w>
危 及</w>
午 夜</w>
借 助</w>
优 质
九届 全国人大常委会</w>
中国 银行</w>
vi an</w>
s mil
replac ing</w>
ig n</w>
exp iry</w>
ev acu
err ors</w>
diag no
conven tions</w>
concentr ating</w>
cigare tte</w>
are r</w>
alban ian</w>
a erial</w>
5 68</w>
1 12</w>
辽宁 省</w>
支 队</w>
拉 美
工 地</w>
密集 型</w>
勇 气</w>
佩 克</w>
主 任
世 行</w>
work force</w>
win ds</w>
us al</w>
te us</w>
spi red</w>
heil ongjiang</w>
genu in
dep ic
canc ellation</w>
c sd</w>
austri an</w>
air e</w>
邻 邦</w>
过 关</w>
爱国 者</w>
无 需</w>
增 添</w>
司法 部</w>
及 利亚</w>
勇 于</w>
公 升</w>
低 收入</w>
伟大 旗帜</w>
乌干 达</w>
两 场</w>
不 通</w>
witn esses</w>
ver bal</w>
ulter ior</w>
str and</w>
stimul ating</w>
reser ved</w>
re tr
prosecu tors</w>
ph ony</w>
pam ph
har der</w>
ge ts</w>
fre ight</w>
expec ts</w>
den sity</w>
bloo dy</w>
be ef</w>
b ars</w>
addic ts</w>
8 63</w>
食 用</w>
院 所</w>
陆 路</w>
通货 紧缩</w>
还 林</w>
蓬 勃</w>
自 称</w>
缩 减</w>
票 据</w>
深 深</w>
操 纵</w>
报 税</w>
布 拉
家 里</w>
在 发言
在发言 中</w>
国际 标准</w>
哈 马斯</w>
双边 协议</w>
办 案</w>
内部 事务</w>
关 根</w>
交通 运输</w>
丁 关根</w>
一百 六十</w>
一九 四
tunn els</w>
tor ial</w>
s plen
refl ection</w>
re patri
ration ally</w>
portfoli o</w>
out lined</w>
nepal ese</w>
meaning ful</w>
maneu ver</w>
ic ked</w>
hol dings</w>
excep tionally</w>
eth iop
deliber ate</w>
bi ao</w>
1. 0</w>
高 潮</w>
财 经
绕 道</w>
珍 贵</w>
环 球</w>
演 艺</w>
气 焰</w>
构成 威胁</w>
来 之
抵 销</w>
意见 书</w>
工 商业</w>
宏 观</w>
天主 教</w>
历史 潮流</w>
半 数</w>
勒 索</w>
伊 拉克
shoc k</w>
s on
re shuff
pass es</w>
open ness</w>
on ian</w>
kin men</w>
humil i
human ity</w>
h itting</w>
dis par
comm o
a ks</w>
金融 资产</w>
退 耕
退耕 还林</w>
这 批</w>
运载 火箭</w>
罕 见</w>
离 境</w>
民 心</w>
来之 不易</w>
曾 家
政 法</w>
承 包
强烈 不满</w>
巴 以</w>
射 程</w>
密 集</w>
外 事
国际 惯例</w>
国家 元首</w>
品 业</w>
受 理</w>
卡 斯特罗</w>
二 岁</w>
中 介</w>
y on
w n</w>
ton ghua</w>
precau tions</w>
law fully</w>
k ad
jo y</w>
highligh ted</w>
har a</w>
gran ville</w>
gif ts</w>
en ro
el even</w>
as certain</w>
af ford</w>
4. 7</w>
维 也
筹 款</w>
税 制</w>
省 区</w>
期 刊</w>
据 说</w>
投资 额</w>
总领 事</w>
开 会</w>
大 连</w>
国家 有关</w>
唯 物
内 人士</w>
六 条</w>
主任 委员</w>
上 班</w>
一千 六百</w>
wor sening</w>
w ol
unilater ally</w>
ukrain ian</w>
ten ancy</w>
st ern</w>
sig ni
professi ons</w>
obstruc t</w>
nur ses</w>
may be</w>
l g
el f</w>
cy ber</w>
con s
commissi oning</w>
c air
bas ket
b ally</w>
att le</w>
arm ing</w>
ab users</w>
香港 政府</w>
集 资</w>
课 目</w>
联络 小组</w>
组织 部</w>
称 赞</w>
看 好</w>
清 晨</w>
水 上</w>
欧 佩克</w>
李 长春</w>
志愿 军</w>
巨大 变化</w>
实 施
国防 建设</w>
喇 嘛</w>
制造 厂</w>
中 越</w>
东 涌</w>
w ishing</w>
volunt arily</w>
up surge</w>
see m</w>
seas onal</w>
p hu
p ages</w>
negoti ating</w>
mol do
modi fied</w>
lay out</w>
integr al</w>
form ity</w>
dimen sional</w>
continu al</w>
be tr
absur d</w>
3 8
马 列
音乐 会</w>
路 旁</w>
电影 节</w>
物 种</w>
煤 炭</w>
温 饱</w>
武装 力量</w>
检察 官</w>
梁 锦
曾家 丽</w>
改 划</w>
广大 党员</w>
尊 重
原 先</w>
千 万元</w>
农 户</w>
五 四</w>
三 七</w>
z ar
vac ant</w>
separ ating</w>
q at
pro ves</w>
popul arization</w>
parag rap
legisl ator</w>
jeop ardi
is co</w>
irrig ation</w>
import ation</w>
es hi
cho se</w>
c as</w>
b ow
ay an</w>
assi sted</w>
8 0%</w>
2 60</w>
2 40</w>
酒店 业</w>
维 港</w>
线 路</w>
相 龙</w>
病 例</w>
物 业
沉 重</w>
政 界</w>
攻 坚</w>
戴 相龙</w>
急 剧</w>
属 下</w>
周 刊</w>
变 为</w>
历史 使命</w>
加 勒
冰 岛</w>
之 日起</w>
临 时
上 岗</w>
ti s</w>
su nn
spir its</w>
republic ans</w>
postp oned</w>
monit ored</w>
mat ching</w>
in herent</w>
im pover
ge ared</w>
d ently</w>
cp v</w>
burea us</w>
马列 主义</w>
邦 交</w>
看 见</w>
来 电</w>
整体 素质</w>
怎 么
在 京
国防 大学</w>
周 期</w>
劳 资
例 外</w>
伪 装</w>
从业 员</w>
vladim ir</w>
shif ted</w>
sh aking</w>
r ated</w>
ple as
foc uses</w>
er red</w>
embe zz
co des</w>
c ra
belgi an</w>
basket ball</w>
anx ious</w>
3. 3</w>
19 45</w>
金融 服务</w>
重 整</w>
车 厢</w>
走 过</w>
欧 美</w>
支持 者</w>
审 判
多 样</w>
刚 果</w>
先 得</w>
二 人</w>
乌 兹
toler ance</w>
ten d</w>
t i</w>
sor ry</w>
slo ven
sist ence</w>
senti ment</w>
real m</w>
pen sions</w>
orchestr a</w>
l ot
jac ent</w>
deleg ate</w>
ash ing</w>
al er
4. 6</w>
风 格</w>
钓鱼 台
计 票</w>
航空 母舰</w>
自 行
紧紧 围绕</w>
第二 天</w>
注 明</w>
民 事
斯里 兰卡</w>
摩 洛
天气 情况</w>
十二 点</w>
分之 二</w>
充 份</w>
三十 一</w>
一 环</w>
y 2
vi br
un acceptable</w>
tend encies</w>
so es</w>
simil arly</w>
re suming</w>
p ang</w>
loc ked</w>
in ti
genuin ely</w>
g as
fre d
em sd</w>
deal ers</w>
chang xing</w>
bomb ings</w>
ann a</w>
3 60</w>
跟 随</w>
竞争 能力</w>
海 啸</w>
测 量</w>
水 量</w>
描 述</w>
开 工</w>
尽量 避免</w>
宣 部</w>
在 世界
在世界 上</w>
咸 水</w>
参 谋</w>
原 价</w>
即 可</w>
占 用</w>
区域 合作</w>
制 品业</w>
利 益
义务 教育</w>
不 必</w>
一 万元</w>
weak ened</w>
w k
te ars</w>
surve yed</w>
solic it</w>
shad ow</w>
s n
pr iced</w>
lor d</w>
le vi
jin an</w>
expl aining</w>
don ation</w>
cons ents</w>
commer ci
5. 2</w>
3. 9</w>
遵 从</w>
赚 取</w>
罗 马</w>
相互 信任</w>
登记 册</w>
清华 大学</w>
海 舰队</w>
水 管</w>
国 旗</w>
吉尔吉斯 斯坦</w>
十分 高兴</w>
努力 实现</w>
供 求</w>
会 谈
专 题
一 处</w>
y2 k</w>
willi am</w>
um es</w>
tu des</w>
th rown</w>
soci e
schol ar</w>
re es</w>
pul l</w>
pu tonghua</w>
peri ph
on ism</w>
j ack
honest y</w>
for ty</w>
excell ence</w>
ev asion</w>
cor p</w>
conduc ts</w>
cen tered</w>
bur st</w>
at lan
ad jacent</w>
ab u</w>
5. 3</w>
4. 8</w>
铲 除</w>
维也 纳</w>
精 彩</w>
特 惠</w>
激 发</w>
欠 款</w>
模 型</w>
机 组</w>
新 兴</w>
救 护</w>
救 助</w>
捣 破</w>
扬 言</w>
太 阳</w>
外贸 出口</w>
发 动机</w>
十 名</w>
关键 在于</w>
俄 美</w>
令人 鼓舞</w>
中小 学</w>
不 法
一 亿</w>
yiel ded</w>
v an
up ward</w>
toil ets</w>
t elling</w>
sc attered</w>
ref usal</w>
pri zes</w>
ko v</w>
kno c
it z</w>
endang er</w>
dig it</w>
compar e</w>
bar racks</w>
au d</w>
迫 切</w>
财政 预算</w>
蚊 子</w>
细 胞</w>
私人 机构</w>
枪 支</w>
林 瑞
最 惠国</w>
旅行 社</w>
型 号</w>
各项 事业</w>
各 党派</w>
印度尼 西亚</w>
十六 大</w>
令人 满意</w>
交 所</w>
不得 人心</w>
三 间</w>
underemplo yment</w>
the ast
sw iss</w>
st y</w>
scru pul
ones elf</w>
o dic
min orities</w>
milit ants</w>
iv anov</w>
fo ods</w>
fa res</w>
evalu ate</w>
demo lition</w>
de als</w>
c in
bur n</w>
ai ded</w>
5 0%</w>
15 0,000</w>
&apos; an</w>
银 线</w>
联 体</w>
维多 利亚</w>
纽约 时报</w>
民主 化</w>
毋 须</w>
挫 折</w>
地 理
加 连
剧 院</w>
五十 万元</w>
一 站
ug anda</w>
pollut ants</w>
pi en</w>
peri odic
out dated</w>
movi es</w>
k on
k au</w>
i er</w>
fabric ated</w>
e v</w>
du plic
diam ond</w>
batt al
骆 克
骆克 道</w>
阐 明</w>
趋 于</w>
表 二</w>
社 工</w>
由 此
演 变</w>
最 长</w>
无 权</w>
挖 掘</w>
房 间</w>
引 用</w>
建设 项目</w>
封 建</w>
客 运</w>
多 云</w>
十 万</w>
加连 威</w>
制 宜</w>
全面 提高</w>
中 宣部</w>
三十 年</w>
z im
un usual</w>
stubbor n
stubborn ly</w>
saf ely</w>
polic y
oppon ent</w>
metr e</w>
ga za</w>
eg gs</w>
dis regard</w>
def r
cu ts</w>
cor ro
b on</w>
absor b</w>
4 50</w>
黑 人</w>
长 洲</w>
贸易 区</w>
货 量</w>
菲 林</w>
第 三个</w>
电 动</w>
独 联体</w>
特 遣
小型 张</w>
四 次</w>
双 赢</w>
俱 乐
也 就是说</w>
thresh old</w>
t ong
splen did</w>
sil k</w>
sal v
s p</w>
r ound
pu s</w>
l acking</w>
jie chi</w>
ish an</w>
eric k</w>
chil d
b acked</w>
at ti
钓鱼台 国宾馆</w>
考 量</w>
海南 岛</w>
浙 江省</w>
流 行
洪 水</w>
林瑞 麟</w>
杀 伤
有 效率</w>
救 治</w>
延 伸</w>
四 天</w>
向 上</w>
占 据</w>
删 除</w>
五 至</w>
乌兹 别
临 床</w>
东 落</w>
不 允许</w>
vi en
tr acted</w>
thir ds</w>
sta un
silver strand</w>
recur rent</w>
recru ited</w>
recogn izing</w>
pl ate</w>
pig s</w>
p ap
inter cept</w>
in su
imm d</w>
im ages</w>
f y
evolu tion</w>
ev ade</w>
en act
co aches</w>
c l</w>
am ple</w>
6 4
高 中</w>
重大 意义</w>
贫困 地区</w>
请 问</w>
被 告人</w>
胀 率</w>
美 台</w>
留 学生</w>
海 滩</w>
构 思</w>
有线 电视</w>
挑 选</w>
如 期</w>
分 配
人 体</w>
ter ri
s ang</w>
promulg ation</w>
ju mped</w>
in sid
impover ished</w>
d or
commo date</w>
ar chi
admir ation</w>
ac commodate</w>
4. 4</w>
2. 30</w>
雅 典</w>
道 涵</w>
走私 案</w>
球 队</w>
梁锦 松</w>
普遍 认为</w>
昨 天
抢 修</w>
批 判</w>
打 着</w>
威 尔斯</w>
增 速</w>
基础 性</w>
嘉 许</w>
命 感</w>
发生 意外</w>
发展 潜力</w>
八 七</w>
使 命感</w>
互 联
中央 台</w>
中外 记者</w>
win s</w>
w aged</w>
sub stances</w>
stipul ate</w>
sing er</w>
shu t</w>
s m</w>
recor ding</w>
re y</w>
rac es</w>
play er</w>
om ed</w>
n ally</w>
ma c</w>
lear nt</w>
f ice</w>
f ed</w>
exc ited</w>
embar r
cs b</w>
barri er</w>
an tic
adjudic ation</w>
5. 8</w>
4. 1</w>
高 涨</w>
选 管会</w>
贵 宾</w>
西 南</w>
航 行</w>
自 觉性</w>
维 持
粉 岭</w>
硬 件</w>
瓦 解</w>
温 度</w>
派 位</w>
残疾 人</w>
央 行</w>
加 重</w>
刑事 责任</w>
六 项</w>
water front</w>
vo ices</w>
veri fied</w>
un iting</w>
suppor tive</w>
schol ar
pro tracted</w>
pres sures</w>
p .m</w>
objec tively</w>
log istic</w>
gr am</w>
gar dens</w>
fur thering</w>
formul a</w>
exemp ted</w>
am p</w>
accumul ation</w>
accompl ishments</w>
0 9
黄 菊</w>
颁奖 典礼</w>
议 会
纪 检
班 次</w>
烧 腊</w>
景 点</w>
放 开</w>
成 份</w>
总统 大选</w>
弥 补</w>
引 向</w>
市场 机制</w>
好 好</w>
填 补</w>
回 港</w>
十 八岁</w>
加 强
人生 观</w>
五角 大楼</w>
中国 社会科学院</w>
中华 全国
一 本</w>
wor ship</w>
st ors</w>
po c
indic ator</w>
ic a</w>
hon ored</w>
ho ward</w>
h armed</w>
gu ang</w>
gu an
ex positions</w>
er son</w>
distor ted</w>
c p</w>
be id
archit ectural</w>
accor ded</w>
逝 世</w>
通 社</w>
迄今 为止</w>
赫 尔
资料 库</w>
训练 局</w>
深 表</w>
泛 珠三角</w>
汪 道涵</w>
民 用</w>
得 益</w>
年轻 干部</w>
多 达</w>
培 训
原 产地</w>
人 工</w>
主义 者</w>
业 内人士</w>
世界 级</w>
一千 二百</w>
y at</w>
sigh ted</w>
ren ts</w>
posi tioning</w>
persi sted</w>
mo du
la u
ir responsible</w>
inst all</w>
infr inging</w>
ia ea</w>
go v
cere mon
c ents</w>
bro thers</w>
book order</w>
6. 3</w>
隆 重</w>
送 到</w>
诉 讼
英 语
自由 贸易</w>
积极 开展</w>
环境 影响</w>
明 智</w>
指 称</w>
执 意</w>
忠 诚</w>
布 尔</w>
四 五</w>
协 商
切身 利益</w>
交通 标志</w>
事 主</w>
下 场</w>
三十 六</w>
一 万</w>
veri fy</w>
se where</w>
re plied</w>
pip elines</w>
ob scene</w>
mp s</w>
mexic an</w>
in complete</w>
hegemon ic</w>
fr ame</w>
endor sement</w>
el sewhere</w>
dis close</w>
at taining</w>
air line</w>
防 疫</w>
观察 家</w>
热 爱</w>
期 盼</w>
明确 指出</w>
推 进
投 放</w>
就职 演说</w>
宣传 教育</w>
学 说</w>
列 载</w>
几 次</w>
减 幅</w>
共 和</w>
俱乐 部</w>
九 九</w>
专项 斗争</w>
不 用</w>
z er</w>
te dness</w>
syndic ates</w>
sub committee</w>
simp li
roman ian</w>
reli eve</w>
recy cling</w>
mar ching</w>
mar c
le f
law yer</w>
j et</w>
it ary</w>
imper ial</w>
ic ac</w>
h il
explo sive</w>
exp ensive</w>
enact ment</w>
du ma</w>
a bet
部 件</w>
较 量</w>
转 业
转业 干部</w>
点 票</w>
深入 研究</w>
柯 士
整 理</w>
往 返</w>
审 讯</w>
升 空</w>
加 以
储 蓄</w>
tab lets</w>
st ern
socie ties</w>
si r</w>
reacti onary</w>
re location</w>
out breaks</w>
mo u</w>
mainland ers</w>
la p</w>
inclu sion</w>
han oi</w>
fo rese
f b</w>
er able</w>
elig ibility</w>
condol ences</w>
complex ity</w>
colum n</w>
clean liness</w>
chao tic</w>
champion ships</w>
autom ation</w>
atlan tic</w>
锋 队</w>
重 点
遥 远</w>
透 明</w>
连 任</w>
车 主</w>
说 服</w>
补 助</w>
节 约</w>
第六 号</w>
点 八</w>
渴 望</w>
油 田</w>
沙 龙</w>
梦 想</w>
明确 提出</w>
新 高</w>
放 心</w>
