, 5171099
the 3502384
的 2017416
and 1726420
. 1705103
of 1693601
。 1236491
to 1166107
in 994838
a 707040
&quot; 610051
- 514868
在 494389
( 435538
) 430003
" 422058
和 421888
for 418968
on 404756
that 387881
&apos; 382357
is 375881
s 348298
: 288283
with 282871
是 282802
by 261827
了 259305
as 247094
will 246692
china 233445
at 230826
be 224136
; 204338
及 200902
、 198326
中国 192245
this 186676
has 185990
it 178315
are 178112
from 173829
have 170426
said 159399
为 158155
与 156720
对 156655
an 153523
发展 146351
was 145084
people 135245
将 133407
he 133096
有 132003
说 129254
we 123421
their 123101
not 122060
中 120051
/ 117238
new 117119
also 116414
上 114884
hong 114817
development 113317
kong 112759
他 112709
chinese 107497
two 107392
its 106038
all 104251
〇 103147
or 102723
government 102602
us 98548
香港 98442
我们 96000
taiwan 95510
year 94422
要 93516
以 92041
should 90342
于 89348
economic 89230
美国 89058
问题 87830
cooperation 86131
并 86098
经济 85749
政府 85625
which 85582
“ 84933
” 84456
they 84233
up 83225
也 82775
party 81862
一个 81391
one 81202
会 81158
between 79793
out 79380
等 77105
countries 76505
工作 76426
been 76400
were 76266
就 76215
年 75327
our 74753
his 73120
i 72422
more 72038
国家 71802
人 71679
月 71204
有关 70737
新 70578
other 69704
work 69213
进行 68449
can 66513
时 64839
而 64257
public 64239
market 63173
不 62840
3 62539
表示 62028
united 61741
today 61507
relations 61281
state 59794
到 58954
地 58870
world 58655
international 57195
after 56998
都 56323
后 56275
或 56199
向 56138
committee 55513
states 55237
department 55207
已 55169
three 54754
president 54683
first 54222
military 53828
national 53592
time 52806
日 52656
had 52481
about 52365
foreign 52231
trade 52016
over 51982
1 51822
road 51779
who 51385
台湾 51262
years 51076
system 50729
there 50199
这 50191
计划 50150
由 49933
made 49801
but 49651
would 49509
&#91; 49458
so 49429
under 49184
国际 48910
into 48712
such 48288
关系 48056
country 48040
some 47832
二 47742
2 47708
? 47571
下 47558
10 47392
[ 47161
&#93; 46244
central 45798
must 45789
meeting 45212
political 45091
一@@ 45077
建设 45041
no 45026
加强 44876
重要 44757
他们 44295
these 44037
only 43906
during 43893
会议 43804
从 43706
may 43616
] 43603
end 43462
至 43085
when 43009
council 42826
% 42624
important 42395
我 42315
4 42126
包括 42078
服务 41924
社会 41600
提供 41504
人民 41471
但 41376
不@@ 41137
把 40692
if 40498
可 40425
合作 39914
所 39872
well 39811
方面 39746
jiang 39605
被 39571
还 38984
以及 38432
5 38364
地区 38214
members 38103
than 37756
一 37729
make 37623
general 37483
law 37269
大@@ 37266
委员会 37243
re@@ 37096
further 36845
visit 36791
through 36498
$ 36329
li 36222
both 36091
其 35892
security 35769
世界 35584
今日 35467
information 35381
great 35303
services 34891
主席 34871
该 34728
mr 34656
活动 34496
中@@ 34380
这个 34367
进一步 34224
人士 34207
亦 34167
last 34059
情况 34056
long 33951
6 33894
high 33867
道 33848
secretary 33772
要求 33665
situation 33539
education 33497
s@@ 33450
’ 33432
since 33416
来 33351
beijing 33240
教育 33083
性 33042
social 33039
没有 32932
‘ 32905
various 32829
issue 32595
内 32585
更 32533
企业 32466
大 32401
building 32315
举行 32281
7 32256
policy 32035
安全 31978
them 31896
指出 31799
police 31455
technology 31227
公司 31150
使 31144
cadres 31070
e 30937
interests 30913
economy 30849
ing 30782
hk 30647
according 30367
必须 30314
8 30291
support 30208
held 29959
century 29933
主要 29728
! 29704
in@@ 29654
region 29613
政策 29586
k@@ 29570
继续 29552
mainland 29526
认为 29482
政治 29373
any 29372
20 29321
minister 29092
take 29077
good 28953
while 28890
un@@ 28881
江泽民 28834
order 28803
major 28778
enterprises 28721
双方 28719
今天 28600
areas 28586
市民 28565
er 28562
many 28559
发言人 28530
efforts 28514
9 28421
do 28402
use 28366
report 28320
o 28319
c 28216
september 28193
including 28189
多 28118
number 28075
前 27963
against 27897
可以 27814
组织 27807
这些 27732
sides 27675
reform 27623
日本 27448
12 27358
代表 27296
spokesman 27236
北京 27236
国 27209
特别 27187
service 27066
11 26950
需要 26946
very 26935
通过 26900
level 26786
b@@ 26602
role 26590
提出 26551
five 26518
今年 26265
2000 26238
percent 26222
japan 26186
zemin 26182
defense 26095
forces 26051
construction 25965
news 25946
day 25846
following 25757
研究 25752
希望 25718
着 25687
financial 25639
30 25559
副 25541
still 25540
一些 25534
稳定 25525
党 25496
ed 25353
strategic 25320
则 25264
strait 25250
office 25190
billion 25117
set 25092
issued 25071
影响 25041
legislative 25017
个 24971
记者 24961
million 24955
being 24839
能 24821
p@@ 24803
however 24793
根据 24729
建立 24645
total 24628
affairs 24614
now 24584
activities 24583
d@@ 24445
新华社 24445
支持 24442
wednesday 24398
special 24368
same 24366
developing 24345
应 24302
management 24270
措施 24229
history 24209
chairman 24168
15 24134
同时 24125
者 24112
xinhua 24073
th 24044
机构 24013
其他 23984
@ 23982
industry 23976
period 23967
august 23920
市场 23851
those 23821
完二 23809
提高 23783
可能 23719
改革 23665
管理 23609
又 23570
中心 23565
most 23511
t 23475
领导 23403
es 23382
和平 23368
you 23344
实现 23247
目前 23211
peace 23182
rights 23090
business 23083
各 22989
t@@ 22896
b 22894
投资 22656
区 22641
-- 22566
人员 22538
作为 22492
访问 22481
able 22392
系统 22363
continue 22355
measures 22340
war 22309
way 22283
就是 22095
even 22081
pointed 22057
issues 22019
作出 22014
已经 21988
before 21950
文化 21942
警方 21930
部门 21834
16 21815
促进 21755
past 21750
www 21734
y@@ 21714
force 21710
1999 21672
我国 21655
o@@ 21620
training 21616
vice 21578
日电 21423
sino 21416
each 21380
取得 21361
约 21328
成为 21327
21 21308
两国 21279
local 21273
同 21216
gov 21157
large 21151
ation 21140
march 21134
group 21038
e@@ 20977
m@@ 20972
cross 20963
条例 20875
时间 20872
建议 20869
c@@ 20806
plan 20802
署 20753
june 20745
实施 20744
增加 20653
解决 20644
3@@ 20643
原则 20626
second 20612
名 20597
become 20542
n@@ 20527
环境 20527
necessary 20492
human 20491
技术 20459
what 20365
三 20346
cpc 20336
坚持 20334
april 20318
起 20310
基础 20285
i@@ 20270
处 20266
好 20250
13 20226
increase 20222
promote 20222
air 20151
积极 20144
2001 20099
制度 20079
among 20075
control 19990
任何 19964
g@@ 19956
power 19910
because 19895
health 19846
water 19825
wto 19781
part 19696
用 19668
leading 19667
三@@ 19602
relevant 19600
city 19569
思想 19498
@-@ 19464
行动 19453
贸易 19402
july 19401
y 19391
principle 19384
社会主义 19370
missile 19321
departments 19299
traffic 19268
operation 19260
authorities 19247
investment 19245
多@@ 19218
会见 19101
future 19062
自己 19054
quality 19047
stability 18959
出 18935
去年 18920
由于 18896
present 18851
advanced 18824
ated 18810
r@@ 18803
决定 18725
开始 18705
h@@ 18680
发生 18647
agency 18644
其中 18619
高@@ 18592
期间 18582
不断 18538
让 18482
administration 18480
fund 18468
新@@ 18458
强调 18436
exchange 18422
推动 18418
officials 18400
develop 18336
工程 18308
opening 18293
规定 18290
bush 18260
最 18181
之间 18168
japanese 18158
problems 18104
l@@ 18099
asia 18042
ate 17976
provide 17968
basic 17952
four 17943
报告 17912
study 17908
给 17868
v@@ 17852
参加 17850
ers 17846
strengthen 17828
science 17816
community 17807
south 17801
making 17800
总理 17800
whether 17762
n 17685
号 17673
无@@ 17669
how 17667
western 17661
增长 17658
al@@ 17653
bilateral 17636
化 17619
4@@ 17614
down 17566
f@@ 17564
here 17552
d 17492
joint 17487
leaders 17426
area 17403
分别 17398
有@@ 17394
conditions 17375
officers 17334
side 17325
使用 17294
局 17262
内地 17251
question 17230
al 17206
共同 17205
所有 17192
意见 17190
chen 17175
如 17174
较 17173
could 17134
总统 17107
14 17101
growth 17087
conference 17084
w@@ 17074
法轮功 17070
put 17067
east 17044
ting 16997
很 16995
一年 16948
current 16947
january 16944
director 16932
调查 16915
dis@@ 16902
member 16896
falungong 16847
talks 16833
科技 16830
领域 16757
处理 16682
分 16644
forward 16590
人@@ 16576
18 16571
作 16565
chief 16555
两@@ 16546
k 16512
old 16502
改善 16498
水平 16495
安排 16461
两岸 16458
美 16433
历史 16414
以来 16403
army 16385
own 16379
land 16357
领导人 16323
两 16322
19 16254
全国 16247
维护 16204
采取 16195
independence 16128
an@@ 16123
zhu 16109
资料 16036
common 16030
yuan 16020
russia 16006
products 15990
help 15987
rural 15967
research 15965
de@@ 15963
努力 15935
wang 15901
commission 15883
2002 15873
a@@ 15858
anti 15855
17 15810
november 15807
man 15765
october 15755
improve 15740
she 15722
environment 15707
expressed 15705
2005 15702
法 15681
speech 15672
全面 15653
点 15616
部 15602
交通 15551
它 15545
another 15512
den 15507
m 15494
basis 15473
ating 15464
法律 15430
regional 15428
friendly 15407
company 15371
上@@ 15345
25 15309
ted 15301
bureau 15232
保持 15230
iraq 15206
目标 15206
possible 15197
different 15161
comrade 15137
地方 15118
case 15112
right 15109
接受 15094
出现 15085
within 15071
scientific 15061
ar@@ 15038
wan 15032
open 14993
2004 14982
ch@@ 14946
then 14928
third 14928
27 14918
line 14910
交流 14868
地@@ 14858
军事 14856
发表 14852
am 14838
need 14813
views 14793
事件 14791
hospital 14788
december 14787
systems 14785
市 14780
u 14769
http 14758
关于 14758
mechanism 14744
ties 14737
公布 14736
en@@ 14733
国@@ 14725
statistics 14710
2003 14673
district 14672
5@@ 14668
p 14658
之@@ 14648
联合国 14627
promoting 14623
full 14615
之 14605
不同 14602
february 14598
personnel 14578
cases 14562
曾 14561
u@@ 14540
因此 14537
立法会 14504
ministry 14498
process 14491
50 14457
呢 14456
6@@ 14446
presi@@ 14418
这次 14397
legal 14389
like 14387
议员 14383
产品 14374
单位 14289
days 14285
progress 14269
群众 14261
均 14237
production 14152
projects 14142
where 14137
life 14132
results 14126
如果 14119
whole 14116
24 14112
practice 14104
成立 14102
能力 14098
term 14072
ab@@ 14071
申请 14057
north 14052
food 14043
间 14037
domestic 14020
society 14002
开发 13996
cultural 13994
这是 13988
》 13985
《 13974
just 13969
always 13952
比 13948
reply 13942
长 13899
street 13883
部队 13873
ensure 13864
staff 13841
统计 13840
taken 13831
小@@ 13824
added 13813
j@@ 13810
safety 13810
得到 13796
used 13787
understanding 13783
recent 13781
deputy 13776
达 13773
point 13756
去 13745
条件 13733
democratic 13710
她 13693
公众 13690
成员 13683
上升 13676
nations 13669
外 13666
据 13659
中央 13649
严重 13637
完成 13621
socialist 13617
early 13604
strong 13602
enhance 13568
过 13545
不能 13542
based 13539
加入 13514
levels 13499
rate 13486
next 13482
related 13473
called 13472
planning 13469
自@@ 13452
23 13433
2006 13428
fully 13424
项目 13422
精神 13419
一项 13415
concerned 13405
过去 13379
万@@ 13358
led 13341
working 13314
ends 13308
你 13293
东@@ 13290
正 13270
official 13264
resources 13253
organization 13252
因 13247
did 13233
per 13226
standing 13207
重大 13203
量 13200
具有 13190
参与 13190
这种 13146
nation 13140
现在 13137
7@@ 13133
means 13125
业 13110
生活 13095
project 13094
正在 13060
her 13051
units 13039
学习 13039
9@@ 13032
exchanges 13031
mutual 13014
carry 12994
人权 12971
六月 12966
companies 12962
attention 12954
ro@@ 12948
完 12933
22 12931
place 12929
masses 12926
未来 12926
作用 12906
29 12876
以下 12870
co@@ 12847
far 12838
三月 12837
部长 12826
因为 12825
reunification 12822
congress 12801
统一 12789
车辆 12776
为了 12772
nuclear 12746
give 12739
school 12735
capital 12729
四@@ 12727
premier 12715
developed 12697
shanghai 12686
key 12683
任务 12675
俄罗斯 12661
li@@ 12650
成 12620
本 12618
仍 12616
without 12611
调整 12610
方式 12596
importance 12590
斯 12581
海@@ 12578
西@@ 12569
view 12561
十@@ 12518
五@@ 12513
此外 12497
不会 12494
ti@@ 12491
value 12488
高 12483
it@@ 12478
两个 12465
overall 12452
了解 12437
see 12420
四月 12389
出席 12383
consensus 12378
保障 12377
当局 12365
protection 12364
play 12361
一名 12350
以@@ 12349
利益 12340
战略 12270
反对 12265
进入 12264
中国政府 12258
文@@ 12251
increased 12246
executive 12241
am@@ 12239
sovereignty 12224
大陆 12224
确保 12206
战争 12197
健康 12183
ts 12167
四 12164
position 12162
加@@ 12152
npc 12144
事务 12139
李@@ 12139
already 12119
red 12117
亿元 12116
家 12116
受 12113
下@@ 12107
做 12101
sh@@ 12089
西部 12085
里 12074
19@@ 12069
together 12063
taking 12049
线 12047
non 12029
200 12027
宣布 12014
ordinance 11999
six 11992
国务院 11984
布什 11981
pm 11938
centre 11922
尔 11921
policies 11911
industrial 11909
三年 11902
him 11893
months 11882
f 11880
发现 11877
delegation 11875
parties 11873
friendship 11859
meet 11848
出口 11846
五月 11842
main 11835
水@@ 11830
结果 11824
28 11803
二@@ 11793
st@@ 11787
考虑 11768
亚洲 11749
再 11745
下午 11737
leadership 11731
经 11723
马@@ 11714
分@@ 11708
选举 11693
26 11687
发@@ 11681
changes 11674
every 11646
organizations 11641
农业 11631
found 11625
normal 11608
得 11592
board 11588
元 11585
represents 11579
1@@ 11568
次 11567
court 11556
di@@ 11549
站 11546
六 11545
电 11535
established 11518
hkt 11516
如何 11514
existing 11497
bank 11492
pay 11491
russian 11479
province 11474
开展 11463
但是 11455
这样 11452
反@@ 11440
serious 11439
委员 11436
将会 11431
不是 11418
自 11405
九 11404
符合 11392
而且 11383
scheme 11381
home 11351
外@@ 11348
addition 11340
agreement 11337
上述 11332
利用 11331
发挥 11326
given 11323
对于 11307
post 11305
基本 11302
8@@ 11293
生产 11293
能够 11283
thus 11265
七 11265
一定 11264
authority 11261
及其 11259
media 11254
workers 11244
goods 11233
times 11229
come 11214
off 11206
er@@ 11203
当 11202
部分 11195
se@@ 11192
队 11192
亿美元 11189
扩大 11188
开@@ 11174
on@@ 11171
section 11167
reached 11159
比较 11159
met 11155
step 11137
干部 11135
change 11119
拉@@ 11116
力 11111
军队 11093
election 11088
co 11077
again 11071
王@@ 11063
implementation 11062
机 11058
z@@ 11051
特@@ 11049
一月 11034
available 11027
above 11024
hope 11020
德 11020
六@@ 11011
un 10996
better 10984
course 10944
spirit 10942
修订 10939
hand 10933
土地 10929
zhang 10925
一九九九年 10915
造成 10898
成功 10894
行 10892
ad@@ 10878
students 10864
therefore 10864
technological 10858
出@@ 10834
组 10830
事 10824
推进 10797
才 10796
重@@ 10789
新世纪 10784
讨论 10783
七月 10780
有效 10779
减少 10774
标准 10768
interest 10764
dollars 10759
as@@ 10751
保护 10744
共 10744
demand 10740
美@@ 10731
weapons 10723
子 10720
银行 10717
应该 10714
month 10707
age 10663
小组 10662
新闻 10654
各国 10652
bring 10641
上海 10641
国内 10639
conducted 10635
small 10630
administrative 10629
theory 10627
armed 10622
asian 10621
men 10621
资源 10619
fields 10617
certain 10616
打击 10613
占 10601
十二月 10598
获 10590
南@@ 10579
什么 10571
十一月 10569
transport 10568
shui 10564
须 10560
regulations 10552
总@@ 10548
es@@ 10547
显示 10547
经验 10516
effective 10510
报道 10505
李鹏 10505
台 10499
l 10495
noted 10486
加快 10478
ideological 10477
可@@ 10477
announced 10476
fact 10473
日@@ 10471
前往 10468
重点 10462
天 10452
全球 10451
许多 10449
is@@ 10432
go 10429
八 10426
outside 10400
ah 10397
environmental 10394
friday 10391
recently 10389
欢迎 10387
toward 10384
con@@ 10382
存在 10364
stage 10363
这一 10359
代表团 10356
学生 10342
谈判 10340
开放 10334
相信 10333
这@@ 10324
structure 10321
本港 10274
内容 10272
treaty 10265
maintain 10264
lee 10260
学校 10259
十月 10250
街 10232
100 10231
works 10231
few 10230
fundamental 10230
科学 10229
nmd 10228
2@@ 10227
cause 10226
needs 10225
台独 10221
civil 10207
直接 10207
problem 10191
at@@ 10189
latest 10183
competition 10178
创新 10174
期 10147
一直 10145
strengthening 10143
turn 10119
1998 10103
中国@@ 10094
目的 10086
hard 10085
良好 10085
g 10081
decision 10077
along 10075
持续 10073
prime 10071
31 10069
re 10068
不仅 10067
requirements 10064
overseas 10063
persons 10055
是否 10051
received 10032
按 10032
男子 10024
form 10023
时@@ 10018
张@@ 10015
took 10012
华 9995
受到 9995
korea 9990
ago 9985
culture 9978
employment 9974
中共 9960
private 9954
due 9939
权 9939
several 9928
avoid 9922
peaceful 9905
en 9902
非常 9902
对@@ 9901
令 9899
地位 9890
hu 9882
stressed 9880
scale 9879
equipment 9875
close 9870
comprehensive 9868
achievements 9862
sector 9860
hours 9855
le@@ 9855
motherland 9854
现代化 9853
press 9851
peng 9848
west 9847
action 9834
person 9827
协助 9822
们 9819
exports 9818
does 9810
result 9803
implement 9790
hold 9778
公@@ 9775
laws 9764
制定 9738
呼吁 9736
tibet 9733
实际 9733
第 9733
strategy 9729
el@@ 9719
即 9712
task 9710
结束 9710
my 9707
space 9701
水 9691
中方 9684
同@@ 9684
称 9673
位 9666
德@@ 9647
按照 9646
二月 9634
provided 9624
challenges 9622
schools 9621
一次 9615
positive 9614
ve 9606
三个代表 9604
industries 9603
五 9603
establishment 9602
back 9600
十分 9593
介绍 9591
民族 9590
协议 9584
获得 9579
accordance 9576
各种 9553
军 9546
食物 9539
方 9525
工业 9524
科 9522
明@@ 9521
higher 9519
超过 9517
wu 9512
天@@ 9511
带来 9510
ic 9502
设施 9490
conduct 9489
专家 9486
using 9483
导弹 9480
发 9466
级 9456
训练 9455
supervision 9454
tr@@ 9453
employees 9451
尔@@ 9433
所@@ 9429
电话 9425
investigation 9424
historical 9423
武器 9412
especially 9406
session 9405
八@@ 9403
housing 9398
design 9393
40 9392
路 9388
sales 9385
oil 9384
exercise 9383
points 9376
groups 9371
ar 9370
车 9368
只有 9363
light 9344
执行 9344
welfare 9326
港 9322
机制 9319
rules 9312
clinton 9308
former 9304
chai 9300
ding 9299
correct 9294
self 9294
准备 9279
global 9271
agricultural 9254
incident 9254
si@@ 9240
形势 9236
bo@@ 9235
soon 9235
respectively 9225
范围 9224
近 9217
案 9215
成果 9213
团 9212
or@@ 9204
carried 9187
关注 9177
员 9162
h 9158
im@@ 9156
markets 9152
最大 9151
university 9149
operations 9141
更加 9137
条 9137
morning 9130
五年 9126
sunday 9123
po@@ 9120
本地 9110
article 9108
透过 9106
城市 9101
build 9099
陈@@ 9097
阿@@ 9094
二十@@ 9082
形成 9081
事业 9078
around 9075
ly 9074
万 9072
unit 9070
涉及 9069
三个 9068
头 9068
clear 9065
foundation 9061
leader 9059
be@@ 9056
请 9051
price 9049
只 9042
长期 9036
thinking 9034
安@@ 9034
达到 9031
运输 9024
terms 9008
泳滩 9005
establish 8999
最近 8991
来自 8989
th@@ 8983
行@@ 8973
once 8966
签署 8958
diplomatic 8947
tion 8946
立场 8943
cannot 8937
direct 8937
军@@ 8924
完全 8918
入 8917
regions 8910
制 8903
率 8902
主@@ 8896
include 8894
troops 8893
ations 8890
28@@ 8889
bill 8878
落实 8875
该@@ 8873
sea 8868
友好合作 8865
ma 8862
打@@ 8857
publications 8853
experience 8847
西藏 8846
respect 8844
facilities 8839
opportunities 8839
规划 8838
ant 8831
inspection 8826
arrangements 8808
0@@ 8807
心@@ 8805
意义 8802
内@@ 8798
vehicles 8790
responsible 8786
当前 8775
金@@ 8767
正式 8763
customs 8762
本@@ 8762
啊 8759
attitude 8758
association 8753
ac@@ 8750
hui 8746
website 8746
前@@ 8744
主任 8737
四年 8733
proposed 8730
产业 8730
各@@ 8729
series 8726
principles 8719
forum 8717
长@@ 8715
业务 8707
european 8706
两国关系 8691
原因 8685
介乎 8683
这项 8673
ability 8671
集团 8671
全@@ 8670
利@@ 8665
quarter 8660
volume 8652
生 8649
明 8645
funds 8640
factors 8636
regard 8635
republic 8624
index 8613
job 8611
强 8606
俄 8603
成@@ 8599
money 8594
数字 8593
middle 8584
prosperity 8578
刘@@ 8578
二年 8574
house 8565
pre@@ 8565
globalization 8562
基金 8555
medical 8553
过程 8551
看 8547
责任 8545
bian 8542
export 8524
signed 8517
dr 8493
行为 8493
非法 8488
act 8481
plans 8481
负责 8479
big 8474
道路 8467
会谈 8464
监督 8457
less 8454
巴@@ 8444
arms 8441
而@@ 8435
官员 8427
rongji 8419
80 8408
ds 8386
reduce 8382
illegal 8371
草案 8366
以上 8362
round 8356
offices 8350
时期 8349
pacific 8344
shall 8342
上午 8341
查询 8341
half 8339
monday 8335
beach 8334
推行 8334
价格 8330
增强 8329
ceremony 8327
dprk 8326
reported 8321
总 8312
克 8306
省 8306
虽然 8302
居民 8295
earlier 8291
指数 8285
although 8277
responsibility 8253
九@@ 8252
派 8239
crisis 8232
华@@ 8229
chung 8226
大会 8220
现时 8206
老@@ 8192
人口 8183
improving 8175
局长 8170
实行 8169
克@@ 8167
党@@ 8166
face 8165
斗争 8160
个案 8159
欧盟 8158
认识 8157
举办 8142
答复 8140
万元 8136
themselves 8130
democracy 8129
statement 8129
非 8129
france 8128
时候 8118
之后 8117
ia 8105
struggle 8105
threat 8099
一种 8095
完善 8095
应@@ 8094
却 8088
体系 8085
星期五 8082
生@@ 8081
ang@@ 8078
法@@ 8073
宗 8070
面 8064
最后 8057
plane 8054
nature 8053
carrying 8045
review 8043
ity 8042
wei 8038
actively 8037
案件 8032
advised 8026
thursday 8021
1997 8015
那 8011
度 8004
tax 7998
greater 7989
为@@ 7984
信息 7981
regarding 7979
much 7977
ri@@ 7976
经营 7973
转@@ 7951
children 7943
going 7939
相关 7929
relationship 7921
upon 7916
下跌 7916
reports 7911
展开 7908
同志 7907
let 7906
东 7906
利 7905
面临 7904
strength 7899
ag@@ 7897
station 7896
优势 7896
想 7891
所以 7891
achieve 7889
free 7888
prc 7888
邀请 7886
believe 7884
ying 7880
ha@@ 7874
lu@@ 7872
界 7866
show 7859
保证 7852
senior 7850
tuesday 7850
一般 7846
standards 7845
residents 7840
ic@@ 7838
任 7835
进程 7834
survey 7831
modernization 7829
大学 7827
understand 7821
正@@ 7821
公开 7815
create 7805
nnnn 7800
places 7791
st 7786
family 7784
mainly 7784
起来 7765
center 7763
此 7762
impact 7761
分析 7757
commercial 7747
变化 7746
ings 7742
七@@ 7734
商 7733
low 7715
联合 7709
program 7708
young 7708
九月 7707
行政 7706
pressure 7702
方法 7697
专@@ 7694
斯@@ 7692
心 7689
年@@ 7688
amount 7665
手 7661
matter 7658
ms 7655
防御 7651
particular 7650
民@@ 7646
机会 7645
required 7644
场 7638
驻 7635
prices 7633
representatives 7621
ap@@ 7612
internet 7611
island 7598
有利于 7596
ates 7592
u.s. 7587
海 7587
real 7582
之一 7582
wong 7579
om@@ 7578
台湾当局 7574
provincial 7568
property 7567
机场 7566
实@@ 7561
attended 7559
式 7558
发出 7557
相@@ 7554
经过 7554
say 7553
那么 7553
专业 7545
ur@@ 7536
1.@@ 7535
广大 7535
00 7532
结构 7527
population 7524
arrested 7523
鼓励 7516
卫生 7511
purpose 7510
team 7508
购买 7505
欧洲 7499
tang 7479
application 7476
criminal 7476
summit 7476
还是 7473
对话 7467
选择 7466
阶段 7465
人才 7459
assistance 7457
星期三 7455
周@@ 7450
kowloon 7444
hon 7437
per@@ 7430
讲话 7428
力量 7417
贡献 7407
走 7405
部署 7400
行政长官 7399
风@@ 7399
approved 7396
及@@ 7386
两岸关系 7384
eu 7383
交@@ 7380
india 7375
combat 7373
went 7372
having 7371
产生 7371
left 7370
网页 7369
山@@ 7368
文件 7368
三十@@ 7363
行业 7363
各项 7362
整体 7355
adopted 7354
首先 7353
zhou 7351
expected 7350
收@@ 7343
currently 7340
institutions 7337
才能 7336
stand 7335
pro@@ 7334
reporter 7333
women 7330
朝鲜 7328
入@@ 7327
bu@@ 7325
伊拉克 7324
网络 7322
北@@ 7321
infrastructure 7320
ling 7315
英国 7310
世纪 7306
ent 7304
over@@ 7298
印度 7297
best 7292
达成 7288
宣传 7282
productive 7277
effect 7274
广泛 7259
ma@@ 7253
友好 7248
学@@ 7246
祖国 7242
cities 7240
山 7240
批准 7239
owned 7236
分裂 7232
陈水扁 7230
召开 7227
除 7217
told 7216
written 7212
人们 7209
还有 7207
car@@ 7205
le 7205
培训 7202
致电 7201
opportunity 7196
em@@ 7195
others 7194
network 7192
published 7192
国际@@ 7182
chi 7180
亚@@ 7180
接@@ 7180
korean 7177
head 7172
limited 7169
su@@ 7169
需 7168
项 7155
程序 7153
experts 7152
care 7149
union 7147
罗@@ 7135
防@@ 7128
later 7127
completed 7122
定 7122
saying 7120
trend 7118
团体 7118
r 7115
资金 7111
jintao 7110
最高 7104
macao 7103
其@@ 7102
fourth 7099
afternoon 7098
american 7096
de 7094
位于 7094
核@@ 7093
改革开放 7089
liu 7088
yet 7084
百@@ 7084
annual 7080
60 7072
involved 7072
think 7070
agriculture 7064
teachers 7057
increasing 7056
像 7056
战 7049
characteristics 7043
programme 7043
后@@ 7041
网站 7041
先生 7038
als 7037
concern 7034
州 7028
return 7023
给予 7022
released 7021
类 7019
受@@ 7017
综合 7015
实践 7014
合@@ 7001
势力 6995
inter@@ 6994
过@@ 6992
经济@@ 6989
个人 6977
seven 6951
drug 6947
检讨 6946
提问 6942
supply 6940
金 6936
aircraft 6929
continued 6926
看到 6926
sha 6925
territorial 6925
get 6924
ir@@ 6924
knowledge 6924
一日 6921
europe 6920
面对 6920
enquiries 6917
一切 6916
方向 6915
account 6910
brought 6897
理论 6895
甚至 6895
efficiency 6891
enforcement 6887
asked 6885
楼 6879
decided 6876
enterprise 6874
电@@ 6862
tasks 6856
call 6853
revolution 6853
在@@ 6853
建@@ 6843
设立 6843
控制 6839
lead 6834
海关 6827
各级 6826
keep 6824
会@@ 6823
emergency 6822
ming 6821
届 6820
深入 6818
communist 6813
never 6810
front 6808
表现 6804
需求 6800
insurance 6799
sale 6797
另外 6796
putin 6793
things 6789
重视 6785
首次 6785
improvement 6779
家@@ 6779
改变 6779
重 6774
across 6772
me 6763
市场经济 6760
25@@ 6754
handling 6751
yesterday 6750
帮助 6750
eight 6748
organs 6747
卫生署 6733
corruption 6731
承认 6729
就业 6725
今后 6716
所谓 6716
field 6711
living 6705
status 6705
独立 6704
qian 6703
报 6703
prevent 6702
stable 6701
info 6698
sub@@ 6698
guangdong 6689
通@@ 6684
x 6680
黄@@ 6679
labour 6675
maintaining 6674
商品 6671
对外 6671
反映 6670
data 6668
八月 6665
理@@ 6664
体 6663
教@@ 6659
closed 6650
caused 6647
ground 6647
jointly 6646
旅游 6645
mo@@ 6641
院 6633
第一@@ 6629
ru@@ 6626
十五 6625
ho@@ 6624
class 6617
move 6605
territories 6604
医院 6604
internal 6598
ors 6588
charge 6582
作战 6581
共@@ 6581
湾 6578
机关 6577
困难 6574
得@@ 6569
governments 6563
fire 6561
your 6553
launched 6551
employers 6535
expand 6535
hu@@ 6533
金融 6526
um 6522
particularly 6519
呃 6517
回@@ 6513
进展 6513
光@@ 6509
中美关系 6508
marxism 6507
对此 6501
town 6497
actions 6496
用@@ 6496
hotline 6492
implementing 6485
挑战 6484
名@@ 6483
课程 6483
ul@@ 6482
飞机 6482
seriously 6481
头@@ 6478
因素 6475
ous 6470
表明 6470
反 6469
创造 6466
entire 6460
personal 6459
du@@ 6455
cult 6452
外交部 6451
tions 6449
份 6447
consultation 6446
he@@ 6445
heavy 6445
sent 6442
income 6438
会晤 6438
sectors 6431
巴士 6430
强@@ 6428
standard 6422
德国 6419
yang 6417
再次 6407
x@@ 6404
treatment 6403
ji@@ 6398
energy 6397
真正 6394
卡@@ 6387
ment 6386
framework 6380
数@@ 6380
费 6380
specific 6367
贷款 6363
意 6362
很多 6360
法院 6359
crime 6354
警察 6351
家庭 6348
运作 6348
推广 6345
ii 6344
主张 6339
属 6339
科@@ 6336
urban 6334
沙@@ 6334
形式 6327
se 6325
每@@ 6322
不过 6316
配合 6311
applications 6310
came 6309
success 6305
ies 6303
address 6302
000 6301
speed 6296
文 6294
ine 6290
park 6289
拥有 6289
李登辉 6286
providing 6284
里@@ 6281
民主 6279
technical 6270
highly 6269
米 6262
ong 6255
sp@@ 6251
师 6249
随着 6246
closely 6245
visited 6241
constitution 6238
深@@ 6234
compared 6233
ter 6233
effort 6229
协会 6229
林 6228
base 6227
hopes 6226
seek 6223
资助 6223
空@@ 6219
know 6215
品 6214
岁 6214
手@@ 6212
ways 6210
ha 6202
加 6202
performance 6200
每年 6198
immigration 6194
人类 6187
做好 6185
airport 6178
机@@ 6175
weather 6172
trust 6167
successful 6165
搞 6165
明确 6165
拉 6163
型 6161
坚决 6160
电子 6160
林@@ 6159
king 6154
welcome 6153
美军 6153
医生 6151
千@@ 6150
modern 6149
electronic 6148
professional 6148
学 6148
test 6146
ang 6143
physical 6142
bay 6136
deng 6135
il@@ 6131
hk@@ 6129
承诺 6127
提交 6126
urged 6122
agreed 6121
iran 6121
w 6118
节 6116
同意 6115
一系列 6114
est 6113
difficult 6109
房屋 6107
site 6097
共识 6092
评估 6087
价 6085
&amp; 6080
bus 6078
外交 6076
so@@ 6075
response 6073
发展中国家 6072
forms 6068
average 6066
missiles 6065
pe@@ 6062
teng 6058
cent 6056
achieved 6049
消息 6048
尤其 6046
cppcc 6045
stock 6045
多年 6043
example 6038
territory 6038
此次 6032
哈@@ 6030
doing 6028
传统 6028
details 6027
这里 6027
邪教 6025
significance 6024
cooperative 6023
dangerous 6020
tai 6019
clearly 6015
complete 6013
发行 6011
no@@ 6010
lo@@ 6008
largest 6006
socialism 6001
世贸组织 5998
网 5995
exhibition 5994
价值 5992
shenzhen 5989
具体 5986
difficulties 5984
注意 5983
&apos;t 5982
aged 5981
18@@ 5980
implemented 5980
确定 5977
started 5975
谘询 5975
speaking 5973
healthy 5972
恢复 5971
traditional 5969
style 5968
公务员 5967
台@@ 5967
首@@ 5965
reason 5964
管制 5958
特 5957
例如 5956
收入 5953
如@@ 5952
报@@ 5951
竞争 5950
gu@@ 5948
date 5939
willing 5938
short 5937
违反 5936
kind 5935
进口 5935
week 5934
论坛 5934
远@@ 5933
southbound 5931
beginning 5929
drive 5922
设计 5914
0 5912
theoretical 5906
连@@ 5905
stay 5903
物 5903
协调 5895
大家 5893
la@@ 5887
仍然 5886
visiting 5885
focus 5883
车@@ 5882
7.@@ 5877
0.@@ 5875
shows 5870
entry 5862
figures 5859
小 5857
韩国 5854
meanwhile 5853
fine 5851
既 5848
外国 5847
最新 5842
paid 5841
星期四 5839
pl@@ 5838
extremely 5832
程度 5830
pla 5829
星期一 5829
lies 5828
itself 5827
美国@@ 5824
讲 5824
英@@ 5823
以色列 5815
contributions 5812
农民 5811
核心 5810
ments 5804
ping 5804
8.@@ 5803
愿 5799
ai@@ 5794
美方 5794
census 5792
natural 5790
import 5788
时代 5787
innovation 5785
根本 5781
维持 5781
尽快 5780
非@@ 5778
balance 5776
gradually 5773
秩序 5770
ak@@ 5767
core 5766
至于 5766
联系 5765
议会 5761
manner 5756
维@@ 5755
布@@ 5754
针对 5754
active 5742
供 5742
ex@@ 5738
peasants 5738
资产 5737
未 5728
两国人民 5724
几@@ 5724
当时 5724
1996 5722
benefit 5721
工@@ 5713
有限公司 5710
10@@ 5709
改@@ 5708
经@@ 5707
inc@@ 5701
taxi 5699
range 5698
作@@ 5697
ded 5696
campaign 5693
objective 5693
运@@ 5690
committees 5688
气 5686
immediately 5684
qu@@ 5681
区域 5681
用途 5681
cheng 5677
自由 5675
attack 5674
方针 5673
消费 5671
光 5668
联络 5667
若 5667
大量 5665
contact 5662
deal 5662
affected 5659
intelligence 5656
peoples 5655
制@@ 5655
态度 5652
更@@ 5652
70 5651
信 5649
computer 5645
proposal 5645
临时 5645
达@@ 5642
关心 5635
individual 5632
sense 5630
当地 5628
prevention 5627
capacity 5623
见 5620
tung 5617
follow 5616
基地 5615
command 5611
定@@ 5611
name 5607
装备 5606
negotiations 5603
reiterated 5602
证 5600
retail 5594
不少 5592
传@@ 5578
ec@@ 5574
战@@ 5569
share 5566
saturday 5564
办法 5562
under@@ 5561
下降 5561
西方 5559
中国共产党 5558
2007 5557
te@@ 5556
xiaoping 5556
于@@ 5556
意外 5552
45 5551
联@@ 5548
1,@@ 5547
apec 5545
检查 5544
约@@ 5536
近年来 5535
start 5531
整个 5530
政@@ 5527
火@@ 5525
办 5524
draft 5521
访华 5521
资讯科技 5521
高度 5520
materials 5518
税 5518
tin 5516
先进 5514
手段 5514
便 5510
朝 5509
assistant 5506
ke@@ 5503
身@@ 5502
statutory 5500
— 5500
consider 5497
运动 5497
directly 5496
署长 5496
pakistan 5493
top 5492
institute 5491
限制 5483
宜 5481
methods 5476
监察 5476
海外 5475
主义 5472
来说 5472
书 5471
6.@@ 5467
concerning 5460
gave 5459
亦可 5454
知识 5453
方案 5445
arrived 5443
制造 5437
很大 5434
strive 5433
to@@ 5430
stresses 5429
防止 5429
伊@@ 5424
进 5422
一点 5421
经贸 5421
facing 5418
状况 5418
避免 5418
9.@@ 5417
引起 5417
表 5414
ence 5407
之前 5400
已@@ 5399
星期二 5398
links 5396
z 5396
facts 5389
面@@ 5382
israel 5376
visits 5373
advance 5370
sports 5369
知道 5368
protect 5365
晚上 5365
体制 5360
四十@@ 5358
floor 5357
labor 5357
关@@ 5353
小时 5351
2.@@ 5345
ch 5343
基@@ 5343
sun 5342
holding 5338
mar@@ 5338
duty 5334
额 5334
除了 5333
全部 5332
现有 5332
primary 5327
look 5326
接触 5326
钱其琛 5325
路线 5324
facilitate 5321
方@@ 5319
ol@@ 5318
registered 5311
discipline 5310
son 5310
hkma 5309
起@@ 5309
indicated 5308
巨大 5307
generation 5305
流@@ 5301
proposals 5300
reporters 5299
值 5297
why 5296
指导 5294
周年 5291
practical 5289
for@@ 5288
outstanding 5288
冲突 5287
enhancing 5282
integrity 5281
maintained 5279
broad 5276
poultry 5275
始终 5275
dialogue 5273
stop 5273
dec@@ 5270
effectively 5270
op@@ 5265
goal 5263
unity 5259
张 5259
find 5258
parents 5256
特色 5256
comrades 5255
tech 5250
比@@ 5250
先@@ 5249
法国 5248
until 5246
支援 5239
外长 5236
无 5236
汽车 5236
commerce 5234
种 5234
+ 5233
television 5233
external 5231
compatriots 5228
马 5228
wen 5220
ne@@ 5218
南 5217
规范 5215
质量 5213
入境 5209
一致 5208
finance 5205
5.@@ 5204
500 5203
图 5202
带 5202
opinion 5201
away 5199
注册 5197
一段 5193
po 5190
ans 5187
动 5187
firmly 5186
事@@ 5185
升 5183
谈 5182
犯罪 5171
民政 5168
此间 5167
ty 5157
开 5157
coming 5156
正常 5153
promotion 5151
war@@ 5148
cost 5146
harbour 5146
县 5146
逐步 5144
access 5141
quite 5141
日前 5140
权利 5140
援助 5139
germany 5137
导致 5134
修改 5133
included 5132
join 5131
near 5129
fighting 5128
明显 5128
run 5127
一百@@ 5127
适当 5126
fo@@ 5123
信@@ 5123
13@@ 5122
religious 5122
serve 5121
live 5119
me@@ 5117
古@@ 5117
meetings 5116
多个 5110
procedures 5108
再@@ 5108
approval 5107
encourage 5104
rapid 5104
攻击 5098
罚款 5097
当@@ 5096
媒体 5092
儿童 5091
死亡 5088
seeking 5085
负责人 5085
副@@ 5084
应当 5084
设备 5077
adopt 5075
何@@ 5075
thailand 5074
器 5073
研讨会 5072
want 5071
澳门 5071
市@@ 5070
加大 5068
stations 5061
复@@ 5061
局局长 5061
公共 5060
res 5059
appropriate 5056
demands 5055
愿意 5055
circles 5054
数 5054
商业 5053
另 5052
立@@ 5048
设 5048
tic 5046
q@@ 5045
平@@ 5044
清@@ 5042
第一 5042
意识 5041
比赛 5041
previous 5040
从而 5039
保@@ 5036
ance 5030
table 5030
yi 5030
medium 5027
数量 5027
近@@ 5023
consumer 5020
破坏 5017
reforms 5016
雇员 5015
警@@ 5013
event 5012
拘捕 5012
discussion 5011
telecommunications 5011
教 5011
趋势 5010
国家@@ 5009
力@@ 5008
感到 5007
农村 5002
热@@ 5002
动@@ 5000
sur@@ 4996
五十@@ 4992
适应 4992
具 4991
共同努力 4990
discuss 4989
情 4987
当中 4986
连 4986
充分 4980
eastern 4978
予 4977
平均 4977
1995 4976
lower 4976
benefits 4975
county 4974
launch 4974
迅速 4974
推出 4973
认真 4973
太@@ 4971
mis@@ 4969
ambassador 4968
往 4966
参@@ 4959
too 4957
组成 4955
人数 4954
财政 4953
公园 4952
potential 4951
办事处 4951
封闭 4951
职 4949
via 4948
africa 4947
进步 4947
切实 4946
提升 4946
低@@ 4938
选@@ 4938
务 4936
经贸合作 4936
打 4935
采用 4934
法例 4933
结合 4932
done 4931
tive 4929
提@@ 4929
attend 4927
throughout 4927
体现 4925
每 4925
15@@ 4922
指 4921
justice 4920
assets 4917
事实 4917
预计 4915
hall 4913
raise 4902
四个 4902
condition 4896
格@@ 4896
要@@ 4896
wide 4895
aimed 4894
ism 4893
mrs 4890
款 4890
1992 4889
放@@ 4889
deep 4886
actual 4885
regular 4885
35 4884
type 4883
现@@ 4880
safeguard 4874
washington 4873
票 4872
气@@ 4868
river 4866
好@@ 4864
分子 4862
审议 4862
情@@ 4861
contacts 4859
基 4858
民众 4858
党中央 4855
v 4851
教授 4850
regulation 4849
similar 4845
reach 4840
opened 4839
14@@ 4838
behalf 4838
tourism 4838
根本利益 4838
说明 4837
90 4834
par@@ 4833
开支 4833
ally 4830
final 4827
非洲 4827
aid 4825
crimes 4823
direction 4822
16@@ 4821
connection 4821
registration 4817
majority 4816
夫 4816
banks 4813
书面 4811
室 4807
最终 4807
seen 4806
提醒 4806
社区 4806
us@@ 4805
低 4805
sts 4803
tsuen 4803
residential 4801
亚 4801
刊物 4796
british 4791
might 4790
投@@ 4790
ninth 4789
门 4789
单@@ 4788
developments 4787
合约 4787
政 4787
· 4786
hoped 4781
规模 4780
mi@@ 4779
successfully 4779
confidence 4778
300 4775
competitiveness 4775
enter 4775
资 4775
man@@ 4774
partnership 4771
外汇 4770
章 4770
allowed 4769
independent 4769
士 4768
showed 4766
建 4764
事务处 4762
主权 4760
border 4759
white 4759
科技@@ 4758
住宅 4752
reasons 4751
air@@ 4748
干@@ 4747
条约 4746
death 4744
一起 4744
获@@ 4744
ni@@ 4742
年度 4742
管理局 4742
influence 4741
兴@@ 4741
交往 4739
buildings 4738
商@@ 4733
ministers 4730
ons 4730
paper 4725
出售 4725
在内 4725
apply 4722
examination 4720
min@@ 4719
机遇 4719
village 4718
ahead 4714
ized 4713
believed 4710
tunnel 4710
ph@@ 4706
执法 4705
乐@@ 4704
lu 4702
警告 4700
stated 4697
ks 4693
mission 4692
ship 4690
即将 4690
然而 4690
won 4687
handle 4686
电脑 4685
body 4682
mobile 4682
出版 4681
completely 4679
out@@ 4679
地点 4679
一国两制 4677
safeguarding 4675
言 4675
参观 4669
rise 4668
subject 4668
秘书长 4666
yu 4664
fair 4659
fi@@ 4658
allow 4657
指挥 4657
录得 4653
透露 4652
resolve 4650
ot@@ 4643
division 4641
really 4640
source 4640
york 4638
waste 4635
african 4634
资讯 4628
zone 4625
accident 4622
马克思主义 4617
hi@@ 4613
载 4613
力度 4612
进@@ 4612
strictly 4607
担任 4607
事故 4601
played 4600
病 4600
ical 4597
管 4597
团结 4593
民 4593
精@@ 4590
顺利 4589
daily 4581
基本法 4580
anniversary 4578
uses 4578
improved 4577
politics 4577
representative 4576
司长 4575
and@@ 4574
shi 4574
补充 4574
win 4571
费用 4571
involving 4569
青少年 4569
guidance 4567
introduced 4564
九龙 4563
attending 4561
巴 4559
says 4555
cheung 4552
actually 4551
件 4551
并@@ 4549
educational 4547
产@@ 4545
reasonable 4544
总部 4544
第@@ 4542
成绩 4539
bodies 4538
starting 4536
政治@@ 4536
relatively 4534
words 4533
accession 4530
permanent 4530
为期 4530
友谊 4530
amendment 4529
eng 4527
hectares 4525
reality 4523
第二@@ 4520
业界 4519
establishing 4518
一行 4517
abroad 4516
或者 4516
degree 4515
交换 4513
全 4512
矛盾 4512
来@@ 4511
do@@ 4510
che@@ 4509
software 4509
收费 4509
mao 4505
product 4501
mayor 4500
空间 4500
道@@ 4500
capability 4499
please 4496
um@@ 4495
setting 4493
并且 4493
白@@ 4492
富@@ 4490
continuously 4489
significant 4489
正确 4488
人民币 4484
网址 4484
胡锦涛 4483
楼宇 4482
tu@@ 4481
投入 4480
kinds 4474
以后 4472
大使 4471
海军 4470
lcq@@ 4469
突出 4469
moreover 4467
passed 4466
花@@ 4465
运用 4463
ethnic 4460
te 4460
民主@@ 4460
有着 4458
以便 4456
从@@ 4453
rather 4452
威胁 4451
厅 4448
总额 4444
星期六 4441
mu@@ 4440
尼@@ 4439
ves 4438
第二 4438
雇主 4435
密切 4433
至今 4433
imports 4430
ver@@ 4429
sd 4428
securities 4428
vehicle 4428
两年 4428
poor 4427
bi@@ 4425
转变 4425
legislation 4424
女士 4423
立法 4423
suspected 4422
志@@ 4422
guarantee 4420
invitation 4418
greatly 4417
石@@ 4417
games 4415
先后 4415
兵 4415
展览 4415
operating 4411
ci@@ 4407
登记 4406
零 4403
ver 4402
另一方面 4402
数目 4400
从事 4396
aspects 4395
尽管 4395
队伍 4395
gas 4390
多次 4389
模式 4389
增@@ 4388
rule 4387
同期 4387
合 4386
问 4386
17@@ 4385
口 4385
强烈 4382
能@@ 4382
wish 4379
深化 4376
ten 4375
lin 4372
停@@ 4368
functions 4363
全国人大常委会 4363
任@@ 4362
办公室 4362
原@@ 4362
害 4362
大型 4361
port 4357
ed@@ 4356
高层 4356
平 4355
considered 4353
opposition 4350
chan 4343
english 4342
built 4341
尊重 4341
无法 4341
巩固 4340
详情 4337
平等 4336
square 4335
consideration 4334
adding 4333
军事@@ 4333
只要 4332
parts 4330
城 4329
委员长 4329
奖 4328
越来越 4328
立即 4327
inv@@ 4324
宗教 4324
known 4323
giving 4321
concept 4320
shan 4319
康乐 4313
代 4311
河 4310
网上 4308
依法 4306
策略 4304
铁路 4300
acting 4299
亿 4298
预@@ 4297
corporation 4292
选 4292
phase 4291
未@@ 4291
为何 4289
pa@@ 4285
presidential 4285
意@@ 4285
rates 4284
贯彻 4283
永@@ 4282
话 4281
抗@@ 4280
超@@ 4280
rok 4279
题 4278
onto 4277
列@@ 4277
此@@ 4277
版 4277
货币 4277
通知 4277
investigations 4276
room 4273
文章 4272
remain 4268
成就 4267
查@@ 4265
职@@ 4265
解释 4265
风 4265
村 4260
remarks 4259
它们 4259
表格 4259
一部分 4258
统计调查 4258
做法 4257
resolution 4255
季 4251
maintenance 4250
旨在 4246
牌 4246
tuen 4245
hongzhi 4244
localities 4244
participate 4244
properly 4244
初步 4243
provisions 4242
tomorrow 4241
证明 4233
青@@ 4231
做出 4230
卫星 4228
autonomous 4227
professor 4227
员工 4227
数据 4227
劳工处 4226
必要 4226
波@@ 4226
ing@@ 4225
决策 4225
岛 4225
工 4225
李洪志 4223
罪行 4217
转 4217
constantly 4215
communications 4214
爱@@ 4214
逗留 4213
势 4212
繁忙 4209
list 4208
began 4207
studies 4206
两名 4206
中华民族 4204
cold 4200
thought 4199
woman 4197
民进党 4197
只是 4196
questions 4195
changed 4193
书记 4193
各地 4192
officer 4191
sound 4191
iraqi 4190
推@@ 4190
ay@@ 4183
nearly 4182
ho 4181
les 4181
beneficial 4180
声明 4180
atmosphere 4178
xiamen 4178
交易 4178
信心 4178
towards 4177
formed 4173
培养 4168
失@@ 4168
judicial 4166
感谢 4166
假 4165
增进 4165
关键 4164
土@@ 4164
资格 4162
深圳 4161
fight 4160
出来 4160
provides 4159
体@@ 4157
色 4157
集中 4157
三十日 4155
realize 4154
回答 4154
heads 4152
vigorously 4151
西 4151
国防 4150
广@@ 4150
论 4148
discussed 4147
求@@ 4145
firm 4143
共有 4143
20@@ 4141
那个 4141
mon@@ 4140
难@@ 4139
gh@@ 4134
治@@ 4134
变@@ 4133
beaches 4129
支付 4129
互联网 4128
budget 4127
顾问 4125
res@@ 4123
港@@ 4122
satellite 4121
时说 4121
馆 4118
地带 4117
comp@@ 4116
laid 4115
circumstances 4111
总书记 4111
learned 4109
ever 4108
内部 4108
美国政府 4107
合理 4106
难 4105
我军 4103
matters 4102
路@@ 4102
跟 4100
cl@@ 4098
ary 4097
studying 4097
push 4093
uh 4091
approach 4090
三十分 4087
aim 4086
depth 4085
elements 4085
指引 4085
differences 4084
grain 4084
travel 4084
recorded 4079
不要 4079
shi@@ 4077
appointed 4076
亿@@ 4076
试验 4076
4.@@ 4075
看@@ 4075
减@@ 4074
27@@ 4073
磋商 4071
取 4065
货物 4065
附近 4065
purchase 4064
secondary 4064
国有企业 4064
complicated 4063
br@@ 4062
risks 4058
learning 4056
水质 4052
conducting 4050
material 4050
建交 4049
空 4049
语 4045
anti@@ 4043
hksar 4041
越@@ 4039
点@@ 4038
基层 4037
大楼 4037
嗯 4034
late 4033
opinions 4033
agreements 4031
fu 4031
中美 4030
抵达 4030
end@@ 4028
estate 4028
ter@@ 4028
trans@@ 4028
invited 4026
青年 4023
常@@ 4022
tsang 4020
中央@@ 4018
image 4016
guidelines 4014
organized 4014
receipts 4013
meets 4012
emphasized 4010
特殊 4009
事宜 4008
car 4007
离@@ 4002
monitoring 4001
cover 4000
evidence 3999
experiences 3999
解@@ 3999
advantages 3998
sources 3996
驻@@ 3995
inside 3991
apart 3990
ke 3990
evening 3989
极@@ 3989
物@@ 3989
通 3988
原 3986
extensive 3985
总署 3985
回 3983
面积 3980
tor 3977
贸易@@ 3977
municipal 3976
fe@@ 3974
iting 3974
丰富 3974
立 3974
monetary 3973
scope 3973
现 3972
ber@@ 3970
邮政 3970
kim 3969
重申 3969
loans 3967
一批 3967
analysis 3966
然后 3966
禁止 3966
化@@ 3965
3.@@ 3964
苏@@ 3964
ig@@ 3963
mass 3963
revealed 3963
initiative 3962
素质 3961
分区 3960
qichen 3958
真@@ 3958
领@@ 3958
became 3957
provinces 3957
双@@ 3957
国民经济 3957
湾仔 3955
零@@ 3954
ku@@ 3951
looking 3951
bs 3950
当然 3950
raised 3949
sar 3948
participation 3943
和平统一 3942
规例 3942
深刻 3941
appeal 3940
身 3940
国会 3939
一样 3936
sanctions 3934
福@@ 3934
headquarters 3930
lot 3930
协定 3930
处于 3930
和@@ 3928
grade 3927
tv 3927
documents 3926
assessment 3925
deputies 3923
石油 3918
expanding 3917
相当 3916
看法 3915
nine 3913
云@@ 3913
fu@@ 3912
掌握 3912
油@@ 3911
国防部长 3910
ste@@ 3909
权@@ 3909
江@@ 3909
target 3908
operators 3907
adjustment 3906
大厦 3906
solve 3905
谈到 3903
职位 3902
威@@ 3901
局势 3901
投诉 3901
truth 3900
职业 3900
01 3898
产 3898
liberation 3896
provision 3896
stamps 3895
ad 3894
guiding 3894
britain 3893
调@@ 3892
安全@@ 3891
尼 3891
代@@ 3890
拨款 3890
ren@@ 3889
而是 3889
language 3888
night 3888
企图 3888
processing 3887
technologies 3886
赴 3886
maximum 3883
联盟 3882
落@@ 3881
飞@@ 3881
ach@@ 3878
学院 3875
vast 3873
普遍 3871
病人 3870
enable 3869
ra@@ 3869
principal 3867
中东 3867
演习 3867
heart 3866
distribution 3865
created 3864
mind 3864
重新 3864
least 3863
era 3861
兰@@ 3859
文明 3858
ps 3857
一位 3857
明年 3855
吴@@ 3854
萨@@ 3852
amendments 3851
committed 3849
仪式 3849
version 3848
应用 3848
股 3848
余@@ 3846
向@@ 3846
香港@@ 3846
年代 3840
那些 3840
structural 3839
船 3837
结@@ 3833
昨日 3832
快 3831
advantage 3830
et 3830
药物 3830
radio 3829
江主席 3829
计算 3828
visitors 3827
currency 3825
ai 3824
mail 3824
located 3823
guide 3822
ist 3822
mid 3821
普@@ 3821
zedong 3820
federation 3818
numbers 3818
spiritual 3817
现场 3817
一条 3816
第三@@ 3816
铁@@ 3816
bookstore 3812
hygiene 3812
观 3812
respective 3811
mentioned 3809
电讯 3808
peninsula 3807
worth 3807
技术@@ 3806
预算 3806
planes 3804
十日 3804
大部分 3803
怀疑 3802
ked 3801
requirement 3800
保险 3800
因@@ 3799
additional 3798
freedom 3797
二十日 3797
采访 3796
investors 3794
mun 3794
rich 3794
涉嫌 3794
har@@ 3793
ruling 3791
自身 3790
陆@@ 3790
den@@ 3788
payment 3788
uphold 3787
大国 3787
十五日 3786
司法 3786
一贯 3784
留@@ 3784
gen@@ 3780
warning 3779
吉@@ 3779
ao 3776
navy 3776
克林顿 3776
然 3775
resolutely 3774
关 3772
ving 3771
ses 3770
相互 3768
enemy 3767
delivered 3766
升@@ 3766
enjoy 3765
trading 3763
hill 3762
资本 3761
追@@ 3761
bur@@ 3757
履行 3757
能源 3757
drugs 3753
ise 3753
局面 3752
不可 3751
区内 3750
diplomacy 3749
毒品 3749
官兵 3746
festival 3745
更好 3745
招@@ 3743
销 3743
ce@@ 3742
听 3742
致@@ 3740
types 3739
clean 3738
各个领域 3737
建筑 3737
国民党 3736
排@@ 3735
israeli 3734
革命 3734
queen 3733
主持 3733
印@@ 3733
清 3732
风险 3732
韩@@ 3731
直@@ 3730
演@@ 3726
监管 3726
23@@ 3724
alism 3724
french 3724
charges 3722
content 3722
thing 3722
happy 3720
装@@ 3720
huge 3719
美元 3719
1994 3718
assembly 3717
evil 3716
entered 3715
现实 3715
sites 3714
兼 3712
ching 3711
go@@ 3711
digital 3709
str@@ 3709
效益 3709
服务@@ 3709
southern 3707
统计数字 3706
vi@@ 3704
口@@ 3704
户 3704
xu 3703
火 3703
自然 3702
观念 3702
id@@ 3701
争取 3701
最@@ 3701
favorable 3699
participants 3699
纳@@ 3698
bringing 3697
passengers 3697
一份 3693
流 3692
lands 3690
besides 3689
局@@ 3688
唐家璇 3687
决心 3686
constructive 3685
主题 3685
ants 3683
increasingly 3683
mark 3683
rest 3682
女 3682
如此 3680
patients 3679
instead 3678
centres 3677
为此 3677
ideas 3675
伟大 3675
有人 3675
赛 3675
早 3674
二百@@ 3673
观@@ 3671
seized 3670
强大 3670
方便 3668
obtained 3667
今天下午 3666
planned 3665
ta@@ 3662
事情 3662
前景 3662
驾驶 3662
平衡 3659
粮食 3659
soldiers 3658
权力 3658
程 3657
film 3656
死 3656
5% 3655
yan 3655
修@@ 3654
标@@ 3653
himself 3652
learn 3652
tor@@ 3651
targets 3649
圣@@ 3649
远 3648
加拿大 3647
广东 3647
成本 3647
持 3646
繁荣 3646
经常 3644
落 3643
duties 3642
strengthened 3639
个别 3638
chang 3637
engaged 3636
operational 3636
lives 3635
transportation 3635
官 3635
ically 3634
医疗 3634
损害 3631
ca@@ 3629
hands 3629
运 3629
hua 3628
瓦@@ 3628
letter 3627
attempt 3625
击@@ 3623
视 3623
convention 3622
longer 3621
generally 3620
ended 3619
shown 3616
对抗 3616
idea 3615
singapore 3615
三十一日 3614
女子 3613
behind 3612
certainly 3612
处@@ 3612
haotian 3611
manufacturing 3611
record 3611
au@@ 3609
respiratory 3608
values 3608
七日 3608
业@@ 3606
途径 3606
enhanced 3605
palestinian 3605
的话 3605
华盛顿 3604
由@@ 3604
tel 3602
公共关系 3602
质素 3602
' 3598
牌照 3598
回应 3597
ten@@ 3595
awareness 3594
shrine 3594
net 3591
朋友 3589
列 3588
取@@ 3588
现代 3588
某些 3585
钱 3585
link 3584
organisations 3584
农@@ 3584
imprisonment 3582
trip 3580
规则 3577
首 3576
共和国 3575
method 3573
ko@@ 3572
说@@ 3572
今 3571
反应 3570
听取 3567
yuen 3566
az@@ 3565
exchanged 3564
理解 3563
elections 3561
inform 3557
联 3557
取消 3556
声 3556
ry 3555
supported 3554
清楚 3554
olympic 3551
神@@ 3551
河@@ 3550
civilization 3548
contract 3547
risk 3547
aff@@ 3546
55 3545
ou@@ 3544
trial 3544
双边 3543
送 3543
practices 3540
组@@ 3540
feel 3534
底 3534
sen@@ 3532
管理@@ 3532
missing 3531
杨@@ 3527
owners 3526
youth 3526
逾 3526
koizumi 3525
though 3525
优@@ 3524
submitted 3523
二十八日 3523
ative 3522
consolidate 3522
住 3522
offer 3521
工资 3520
现正 3520
二零零四年 3519
十二日 3519
selected 3517
治 3517
门@@ 3517
equal 3516
社 3515
销售 3515
comprehensively 3513
users 3512
编@@ 3512
hotel 3510
tests 3510
十四日 3509
考察 3508
el 3507
regards 3506
driving 3504
乱 3504
先 3503
边 3503
supporting 3502
估计 3501
创@@ 3501
ering 3500
见@@ 3500
集@@ 3500
亲@@ 3499
示 3499
视@@ 3498
citizens 3497
purchased 3496
旅客 3495
bid 3492
priority 3491
briefed 3490
xinjiang 3490
发放 3489
38 3487
民族@@ 3487
纳 3487
事务局 3484
smuggling 3483
百分之@@ 3480
ators 3479
emb@@ 3479
ian 3479
occurred 3479
sed 3477
大力 3477
危险 3475
24@@ 3473
virus 3473
区@@ 3473
班 3473
胜利 3472
发言 3471
展 3471
清洁 3470
growing 3469
已有 3468
性质 3467
月@@ 3467
中央军委 3466
子@@ 3466
accept 3465
arrangement 3465
半@@ 3465
环保 3465
层 3464
主 3463
其实 3463
突破 3463
attacks 3462
变 3462
indian 3461
总结 3460
discussions 3459
供应 3458
国有 3454
card 3452
北约 3452
改进 3452
人民@@ 3450
powers 3449
yu@@ 3448
现行 3448
二零零零年 3447
写 3447
一千@@ 3445
公里 3445
雷@@ 3445
ass@@ 3443
mal@@ 3443
try 3443
ys 3442
we@@ 3441
免@@ 3441
利率 3441
高级 3439
特点 3438
觉得 3438
互@@ 3437
积金 3435
预防 3435
乘客 3433
communication 3432
nato 3432
导@@ 3431
赞赏 3431
随@@ 3429
26@@ 3427
arab 3427
ents 3427
ju@@ 3426
leave 3426
证实 3426
america 3425
国外 3424
flyover 3423
founding 3423
十九日 3423
更大 3423
powerful 3422
rec@@ 3422
elected 3420
治疗 3420
chemical 3419
制订 3419
性@@ 3419
普京 3419
tong 3418
mechanisms 3416
programmes 3416
tokyo 3415
塞@@ 3415
病@@ 3415
output 3414
省@@ 3414
stance 3413
conscientiously 3411
近日 3411
日益 3410
黑@@ 3410
ning 3409
二十五日 3409
田@@ 3409
节目 3407
星 3406
战略@@ 3405
keeping 3404
orders 3404
expenditure 3402
二十四日 3402
revolutionary 3400
调 3400
那@@ 3400
prospects 3398
conducive 3396
二十三日 3396
二十六日 3396
仅 3396
卢@@ 3395
义 3394
全球化 3393
cut 3392
determined 3392
killed 3391
一套 3388
dpp 3387
german 3387
成效 3387
这位 3386
pollution 3385
告知 3385
三日 3382
供@@ 3380
老 3378
items 3377
中华人民共和国 3377
检控 3376
测试 3374
特区政府 3374
pr@@ 3373
离开 3371
expansion 3369
bound 3367
scholars 3367
停止 3367
年底 3367
图@@ 3366
statistical 3364
telephone 3364
未能 3364
hainan 3363
有些 3362
法新社 3362
中日 3361
新加坡 3361
谁 3361
集 3361
channels 3360
二十一日 3360
抓好 3358
despite 3357
司机 3356
结构调整 3356
fin@@ 3355
worked 3355
世@@ 3355
独@@ 3355
friends 3353
talk 3351
民主党 3350
试@@ 3350
selling 3349
cr@@ 3348
严格 3346
express 3345
marked 3345
rel@@ 3345
归@@ 3345
十八日 3344
33 3343
受伤 3343
妇女 3343
railway 3342
fujian 3341
multi 3341
坚定 3338
extended 3337
ev@@ 3335
gr@@ 3331
五日 3331
rose 3330
consumption 3328
sc@@ 3328
faced 3327
organised 3327
走向 3327
engineering 3325
calls 3324
true 3323
solid 3322
wife 3322
备 3322
致力 3322
屋 3321
感染 3321
执政 3321
亚太地区 3318
压力 3318
收到 3318
高兴 3318
ones 3317
二零零一年 3315
original 3313
tly 3313
huang 3308
展@@ 3308
32 3305
premises 3305
官方 3304
截至 3304
warm 3303
二十二日 3302
fees 3301
空军 3301
han 3300
浏览 3299
被捕 3297
credit 3295
会上 3294
来访 3292
某 3292
标志 3292
02 3291
changing 3291
ve@@ 3291
teaching 3290
胡@@ 3290
green 3289
干涉 3289
新闻@@ 3289
publication 3288
营 3288
大规模 3287
居@@ 3287
罗 3286
飞行 3285
except 3284
posts 3282
scheduled 3282
允许 3282
reaching 3281
dollar 3280
roadside 3279
备@@ 3279
lam 3278
restructuring 3277
法庭 3275
advisory 3274
告诉 3274
左右 3274
protecting 3271
book 3270
ser@@ 3270
becoming 3269
二零零五年 3269
段 3268
统筹 3268
terrorism 3263
抓 3263
私@@ 3263
appointment 3261
二日 3261
初 3260
纽约 3260
必将 3259
电视 3259
basically 3258
协商 3258
一九九八年 3257
女@@ 3257
queensway 3256
鲁@@ 3256
复杂 3255
有否 3255
com@@ 3254
私人 3254
commissioner 3253
ba@@ 3252
九日 3252
罪 3252
听@@ 3250
社会@@ 3250
藏@@ 3250
australia 3249
越 3249
guangzhou 3248
hy@@ 3248
ists 3247
安 3247
cuba 3246
warfare 3245
启@@ 3245
动力 3244
北 3244
出发 3243
指@@ 3243
ge@@ 3242
ze 3241
检获 3240
双边关系 3238
asean 3237
detailed 3237
explore 3236
follows 3236
republican 3233
批评 3231
投资者 3231
本会 3229
economies 3227
families 3227
六日 3226
figure 3224
presented 3224
promoted 3221
居 3221
领土 3221
十年 3217
不足 3215
访@@ 3215
05 3214
ited 3213
rapidly 3213
生产力 3213
diesel 3211
profound 3211
书@@ 3210
只@@ 3210
super@@ 3208
招待会 3207
越南 3207
moment 3206
businesses 3204
六十@@ 3204
各自 3204
正是 3204
理 3204
listed 3203
skills 3202
kok 3201
座谈会 3201
探索 3198
现象 3195
zh@@ 3194
bed 3193
library 3193
通讯 3192
def@@ 3190
af@@ 3189
commander 3189
decreased 3189
raising 3189
either 3188
integration 3188
防 3188
ness 3187
表@@ 3187
党的建设 3186
accounts 3185
ful 3184
厂 3184
zealand 3183
disease 3182
死@@ 3181
世界贸易组织 3180
英 3180
fifth 3179
nor 3177
secretariat 3177
元@@ 3177
感@@ 3176
查 3175
网@@ 3174
不得 3173
prior 3172
initial 3171
revenue 3170
探讨 3170
政党 3170
期@@ 3170
izing 3169
微@@ 3169
coordination 3166
os 3166
据悉 3166
消耗 3166
预期 3166
37 3165
mr. 3165
participating 3165
十七日 3165
宣@@ 3165
源 3165
advice 3164
produced 3164
sign 3164
music 3163
saw 3162
wing 3161
smooth 3160
document 3159
谘 3159
choice 3158
被判 3156
详细 3155
cordial 3154
produce 3154
奥@@ 3154
案@@ 3154
hospitals 3153
canada 3152
vacancies 3152
实质 3152
zhao 3151
2,@@ 3150
offered 3149
危机 3149
遭到 3149
char@@ 3148
lines 3148
至@@ 3148
101 3146
banking 3146
cargo 3146
race 3144
tur@@ 3144
sustained 3143
guang@@ 3142
快速 3142
维修 3142
seminar 3141
遵守 3140
1993 3138
sion 3138
职务 3137
claimed 3136
互利 3136
发射 3136
系 3136
exceeds 3135
gain 3135
turned 3135
公正 3135
电影 3135
ously 3134
院校 3134
教师 3131
path 3128
传媒 3128
400 3127
ator 3124
parliament 3124
二十一 3124
下载 3122
航@@ 3122
66 3120
model 3120
曾经 3120
pilot 3117
而言 3117
带@@ 3114
及时 3113
升幅 3110
上台 3109
当选 3109
塔@@ 3108
属于 3108
走私 3108
各方 3107
canal 3106
委任 3106
2% 3104
movement 3104
十一日 3104
ready 3103
言@@ 3103
lanqing 3102
切@@ 3102
存 3102
筹@@ 3102
营@@ 3102
食环署 3101
一是 3099
构成 3099
靠 3099
online 3098
年来 3096
ya 3095
每个 3095
活 3094
battle 3093
环境保护 3092
球 3092
,@@ 3090
格 3090
轮 3090
thanks 3089
拒绝 3089
辖下 3089
wor@@ 3088
江 3088
群 3088
tremendous 3087
寻求 3087
月底 3087
访 3084
forth 3083
proper 3083
tri@@ 3083
可否 3082
collection 3081
creating 3081
有利 3081
relating 3080
领袖 3079
fied 3078
measure 3078
次@@ 3078
ages 3077
承担 3077
伊 3076
住@@ 3076
吸引 3076
引@@ 3076
欧@@ 3076
二零零三年 3075
初@@ 3075
征@@ 3075
轻@@ 3075
周 3074
货品 3074
俄@@ 3070
jiaxuan 3069
madam 3068
艺术 3068
spread 3067
epd 3066
其后 3066
年龄 3065
紧密 3065
reserve 3064
sing 3064
日期 3064
playing 3061
声@@ 3061
全国政协 3060
consultations 3058
首相 3058
aggression 3055
attached 3055
角 3055
increases 3054
实力 3054
supreme 3053
guests 3052
interview 3052
scene 3052
管@@ 3052
likely 3049
样本 3048
mat@@ 3047
你们 3047
jun 3046
经贸关系 3046
repeatedly 3045
na@@ 3043
用于 3042
namely 3041
各位 3041
academic 3040
aviation 3040
propaganda 3040
29@@ 3036
dead 3036
变动 3036
投票 3036
continuing 3035
ality 3033
launching 3032
架 3032
计 3032
舰 3031
纪录 3030
知 3025
dealing 3024
little 3024
des@@ 3023
同样 3022
etc 3020
思@@ 3020
论@@ 3020
chi@@ 3019
谢@@ 3019
annette 3018
serving 3018
single 3018
伤 3018
situations 3017
六年 3017
各类 3017
吗 3017
四日 3017
邪教组织 3016
bal@@ 3014
lack 3014
meat 3014
卡 3014
早日 3014
ministerial 3013
mean 3012
生产总值 3012
av@@ 3011
暂停 3011
essential 3010
der 3008
友好关系 3008
有所 3007
龙@@ 3007
roads 3006
护@@ 3006
lai 3005
cre@@ 3004
强化 3004
pprb 3003
血@@ 3003
速度 3003
reduction 3002
notes 3001
leung 3000
伊朗 2997
03 2996
激@@ 2996
禽流感 2996
finally 2993
tour 2993
新界 2993
believes 2992
韩 2992
首都 2989
只能 2988
display 2987
et@@ 2987
七年 2987
pi@@ 2986
truly 2985
cap@@ 2984
manpower 2983
flight 2982
reduced 2982
还要 2982
provisional 2981
transfer 2980
non@@ 2979
湾泳滩 2979
反华 2977
官@@ 2975
bl@@ 2973
fiscal 2973
1% 2971
concrete 2968
lan@@ 2968
qing 2967
课题 2967
实际上 2964
功能 2963
search 2962
泰国 2961
转入 2961
highest 2960
medicine 2960
放弃 2960
42 2959
予以 2958
gdp 2957
禁毒 2956
signing 2955
前进 2955
0% 2954
ce 2953
lo 2952
接获 2952
chongqing 2951
预测 2951
决议 2949
候选人 2948
朱@@ 2948
36 2946
boundary 2946
millennium 2946
旧 2946
木@@ 2946
receive 2945
up@@ 2943
批 2943
指定 2943
族 2943
用户 2943
marine 2942
就此 2942
confirmed 2940
something 2940
自治区 2940
昨天 2939
preparations 2938
popular 2937
publicity 2937
whose 2936
尽@@ 2936
ent@@ 2934
急@@ 2933
角色 2931
returned 2930
养@@ 2930
长远 2930
优惠 2929
这方面 2927
ensuring 2926
ved 2926
工作@@ 2926
entertainment 2925
iz@@ 2924
如下 2924
effectiveness 2923
spoke 2923
准则 2923
博士 2923
complaints 2922
环保署 2922
governor 2921
victory 2921
经济体制 2921
vietnam 2920
发达国家 2920
suspended 2919
福利 2919
一间 2918
武@@ 2918
embassy 2917
club 2916
estimated 2914
kmt 2914
上年 2913
委会 2913
diverted 2911
exertion 2911
店 2911
劳@@ 2910
often 2908
全港 2908
朱熔基 2907
ant@@ 2906
二零零二年 2906
毒@@ 2906
渠道 2906
明日 2905
步 2905
红@@ 2904
食品 2904
希@@ 2903
施@@ 2903
务@@ 2902
游@@ 2902
步伐 2901
strict 2900
notice 2898
pu@@ 2898
做到 2896
全军 2895
相对 2895
fixed 2892
某@@ 2891
连续 2891
accepted 2890
污染 2890
进出口 2890
邓小平 2889
ish 2888
ye@@ 2888
八日 2888
目@@ 2887
grand 2884
ious 2884
击 2884
achieving 2882
儿 2882
academy 2880
rescue 2879
temporary 2879
显著 2879
郑@@ 2878
ji 2877
博@@ 2877
菲律宾 2877
三通 2876
巴勒斯坦 2873
收 2872
效率 2872
gre@@ 2871
内政 2870
declaration 2869
证券 2869
600 2868
报导 2868
一场 2867
obtain 2866
reference 2866
展示 2865
indeed 2864
热线 2864
目 2864
revised 2863
客@@ 2863
jiabao 2862
求 2862
船@@ 2861
几个 2860
我@@ 2860
穆@@ 2859
negative 2858
审@@ 2857
affect 2856
wa@@ 2856
法案 2856
第一次 2856
籍 2855
类别 2855
套 2854
军区 2851
该名 2849
deeply 2848
电子@@ 2847
议案 2847
邮票 2847
businessmen 2845
ure 2845
春@@ 2845
guo 2844
jin@@ 2844
relief 2844
全体 2843
整@@ 2843
致辞 2842
士@@ 2841
波 2841
fall 2840
theme 2840
夏@@ 2840
除@@ 2840
newly 2839
想@@ 2838
costs 2837
practitioners 2837
五国 2837
contents 2836
杜@@ 2836
危害 2834
integrated 2833
冷战 2833
分歧 2832
adhere 2831
mutually 2830
panel 2829
基本@@ 2829
有力 2829
三百 2828
承@@ 2828
把握 2828
药 2827
wars 2826
流动 2826
社@@ 2826
守 2825
ta 2824
train 2824
库@@ 2824
running 2823
印 2823
arts 2822
stress 2822
ite 2821
steps 2821
金额 2821
倍 2820
公约 2820
台湾同胞 2820
exercises 2819
wishes 2818
观点 2818
followed 2817
activity 2815
award 2815
度@@ 2815
nationalities 2814
搞好 2814
disaster 2813
座 2811
intellectual 2810
invest 2809
董建华 2809
亿港元 2808
夫人 2808
往来 2807
65 2804
losses 2804
sold 2804
舆论 2804
bearing 2803
海峡两岸 2803
the@@ 2802
blood 2801
failed 2801
朱閒基 2800
米@@ 2799
规@@ 2799
mexico 2798
月份 2797
grasp 2796
ily 2796
降@@ 2795
34 2793
anyone 2793
deepen 2792
meters 2792
bar@@ 2791
grass 2790
italy 2788
实 2788
历史@@ 2787
died 2786
hit 2785
representing 2785
pace 2784
placed 2784
片 2783
safe 2781
助理 2781
多项 2779
submit 2777
人大 2777
第三 2777
赵@@ 2774
extent 2773
ip 2773
victims 2773
severe 2771
医管局 2770
海上 2770
印尼 2767
委 2767
绝对 2767
广播 2765
弱 2765
编制 2765
fl@@ 2764
poverty 2764
二是 2764
去年同期 2764
introduce 2762
公民 2761
entrepreneurs 2760
体育 2759
货柜 2759
ard 2758
hour 2758
sub 2758
大道 2758
charged 2757
logistics 2757
testing 2757
充分发挥 2757
entitled 2756
governing 2756
positions 2756
sure 2756
东盟 2756
货@@ 2756
gross 2755
提名 2755
allies 2754
offence 2754
schemes 2754
completion 2752
10.@@ 2751
北京@@ 2751
彻底 2750
感 2750
deployment 2749
他@@ 2748
重建 2748
il 2747
消除 2745
规管 2745
44 2743
全国人大 2743
ble 2741
communists 2740
roots 2740
del@@ 2739
strongly 2739
应付 2739
社会保障 2739
沟通 2738
迟浩田 2738
needed 2737
亚太经合组织 2737
兴建 2736
新政府 2736
takes 2735
朝鲜半岛 2735
1990 2734
joining 2734
powell 2734
消费者 2734
田 2734
职工 2734
accidents 2733
release 2733
理由 2733
史@@ 2732
延@@ 2732
earth 2731
享有 2731
ters 2730
两地 2730
leisure 2727
劳工 2727
顿 2726
律师 2725
continuous 2724
lcsd 2724
nai 2724
wen@@ 2724
对外开放 2724
攻@@ 2724
太 2723
fell 2722
五个 2722
大幅 2722
思想@@ 2722
motion 2721
包@@ 2721
工人 2721
少 2719
待 2719
新型 2719
智@@ 2718
即时 2717
码头 2717
被@@ 2717
cor@@ 2716
individuals 2715
尼亚 2715
换@@ 2715
ization 2714
干 2714
选民 2714
branch 2713
房 2713
aims 2712
两会 2712
instance 2711
星期日 2711
coastal 2710
manager 2710
堂 2710
矿@@ 2710
11.@@ 2709
oc@@ 2709
军方 2709
相应 2709
jo@@ 2707
winning 2707
enti@@ 2706
知识产权 2705
fy 2704
sk@@ 2704
油 2704
briefing 2703
everyone 2703
ki@@ 2703
治理 2703
75 2701
challenge 2699
identity 2698
即@@ 2698
鉴于 2698
oppose 2697
侵犯 2697
8% 2696
events 2696
monthly 2696
现已 2696
莫@@ 2696
研制 2693
科学@@ 2693
gi@@ 2692
检@@ 2692
museum 2691
outdoor 2691
id 2690
汉@@ 2689
议题 2689
差距 2688
校@@ 2688
定期 2687
改造 2687
equality 2686
ities 2686
48 2685
前提 2685
步@@ 2684
elderly 2683
holds 2683
潜力 2683
censtatd 2682
发布 2682
严@@ 2681
位置 2681
分配 2681
cur@@ 2680
thoroughly 2680
部@@ 2680
covering 2679
超 2679
邓小平理论 2679
陪同 2679
grassroots 2678
52 2677
courts 2675
plant 2675
发售 2675
ire 2673
com 2672
double 2672
高度重视 2672
3% 2671
sincerity 2671
必@@ 2670
ess 2669
政府部门 2668
沿@@ 2666
简@@ 2666
designed 2665
职责 2665
suggestions 2664
弹 2664
龙 2664
acts 2663
contradictions 2663
礼@@ 2663
跟进 2662
aries 2661
ched 2661
compensation 2661
engage 2661
业主 2661
无论 2661
港口 2661
错误 2660
extend 2659
ize 2659
reducing 2659
ay 2658
ban 2658
乐 2658
ars 2657
爱 2657
pntr 2656
remains 2656
相 2656
算 2656
紧急 2656
decisions 2655
ie@@ 2655
资@@ 2655
装 2653
遗@@ 2653
pan@@ 2652
6% 2651
字 2651
本身 2651
remaining 2650
4% 2649
山道 2649
accounting 2648
injured 2648
exist 2646
许@@ 2646
通信 2646
7% 2645
spring 2645
贝@@ 2644
短@@ 2643
collision 2642
sets 2642
市场@@ 2642
break 2641
指示 2641
范@@ 2641
大纲 2639
客人 2639
竞争力 2639
所作 2637
ob@@ 2636
条文 2634
足够 2634
unification 2633
宝@@ 2633
当天 2633
讲@@ 2633
债券 2632
工具 2632
早@@ 2631
税@@ 2631
phone 2630
unified 2630
刚 2630
存@@ 2630
主办 2629
courses 2628
紧张 2627
host 2626
und@@ 2626
核 2626
explained 2625
有助 2625
agencies 2624
dr@@ 2624
moving 2623
spending 2623
石 2623
fast 2620
在于 2620
奋斗 2620
状态 2620
问候 2620
cpi 2619
ill@@ 2619
43 2617
ecological 2617
极大 2617
袭击 2617
kept 2615
loss 2615
cambodia 2614
draw 2614
职员 2614
世界@@ 2613
精神@@ 2612
getting 2610
00@@ 2609
disputes 2609
quarterly 2609
补@@ 2609
pat@@ 2608
盛@@ 2608
21st 2606
almost 2606
tsui 2605
种@@ 2605
评论 2604
quickly 2603
conclusion 2602
turning 2601
candidates 2600
resolved 2599
生命 2599
紧@@ 2599
articles 2598
failure 2598
国务卿 2598
art 2597
occasions 2597
团@@ 2597
fehd 2596
land@@ 2595
zhejiang 2595
服务业 2594
物品 2594
社会福利 2594
重要讲话 2594
aging 2593
includes 2593
皇后 2593
到@@ 2592
lau 2591
少@@ 2591
间@@ 2590
党员 2589
致力于 2589
ideology 2588
兵@@ 2588
requires 2586
表达 2586
tower 2584
fr@@ 2583
paris 2583
sell 2583
法规 2582
眼@@ 2582
祖国大陆 2582
党委 2581
can@@ 2578
密@@ 2578
入世 2577
边@@ 2577
遭 2577
visa 2576
树立 2576
购@@ 2576
揭@@ 2575
职能 2575
des 2574
surveillance 2573
今天上午 2573
da 2572
偏@@ 2572
决@@ 2572
造 2572
造@@ 2572
宗旨 2571
vo@@ 2570
议@@ 2569
ann@@ 2566
strike 2566
39 2565
competitive 2565
heading 2565
newspaper 2565
dh 2563
settlement 2563
funding 2562
假@@ 2560
灾 2560
生效 2560
讯 2560
bad 2559
child 2559
为主 2559
diseases 2558
responsibilities 2558
buses 2557
qi 2557
incidents 2556
send 2556
transparency 2556
纪念 2556
入境处 2555
财产 2554
,000 2552
ong@@ 2552
港币 2552
accelerate 2551
chau 2551
高新技术 2550
订 2549
comm@@ 2548
capable 2547
缺乏 2547
licence 2544
康 2544
作风 2543
卫@@ 2543
场所 2543
lost 2542
五十 2542
contribution 2541
ably 2539
applied 2539
澳 2539
养 2538
bas@@ 2537
架构 2537
病毒 2537
objectives 2536
消@@ 2536
swimming 2535
收集 2535
行政@@ 2535
senate 2534
协作 2533
地下 2533
drawn 2532
恶@@ 2532
齐@@ 2532
concluded 2531
eng@@ 2531
excellent 2531
七十@@ 2531
收益 2531
fee 2530
sheng 2530
ships 2530
信任 2529
该署 2528
putting 2527
recovery 2527
consistent 2526
争@@ 2524
一方面 2523
closer 2522
mankind 2521
master 2521
加工 2521
lin@@ 2520
刑事 2520
睦邻友好 2520
loc@@ 2519
northern 2519
街道 2519
tmd 2518
例 2518
近期 2518
多少 2517
新疆 2517
reconnaissance 2515
tibetan 2515
幕 2515
alliance 2514
cadre 2513
定罪 2512
您 2512
investments 2511
谋@@ 2511
earnestly 2510
feng 2510
shu@@ 2510
唯一 2510
梁@@ 2510
第十@@ 2510
禁@@ 2508
离 2508
花 2508
吧 2507
reminded 2506
不可@@ 2506
议长 2506
陈 2506
万美元 2505
inf@@ 2504
有助于 2504
&apos;@@ 2503
chang@@ 2503
immediate 2503
welcomed 2503
云 2503
ferry 2502
investigating 2502
legco 2502
工作者 2501
法官 2501
涌道 2499
jobs 2498
解放军 2498
backward 2497
vessels 2497
医@@ 2497
determination 2496
gang 2496
stri@@ 2496
trying 2496
下去 2496
航 2496
brazil 2495
pursue 2494
vote 2493
ches 2492
cards 2491
col@@ 2491
免 2490
武装 2490
conflicts 2487
di 2487
高技术 2487
李岚清 2486
hung 2485
主动 2485
兴趣 2485
校 2485
everything 2484
plenary 2484
三名 2484
违法 2484
conflict 2483
require 2483
哈 2483
康@@ 2482
belief 2481
孙@@ 2481
supports 2480
破@@ 2479
smoothly 2478
望 2478
荣@@ 2478
疾病 2477
nothing 2476
引导 2475
沙田 2475
类似 2475
金融@@ 2475
庆祝 2474
historic 2473
师@@ 2470
检验 2470
guard 2469
realizing 2469
小巴 2469
广阔 2469
ised 2468
vis@@ 2468
必然 2468
毒 2468
二零零六年 2467
景@@ 2467
嘉@@ 2465
absolutely 2464
爆发 2464
一宗 2462
满意 2462
note 2461
covered 2460
federal 2460
尚未 2460
votes 2459
走@@ 2459
upholding 2458
办理 2458
肯定 2458
xi 2457
能否 2457
臣 2457
人民大会堂 2455
的士 2455
行人 2455
deepening 2454
false 2454
solution 2454
振@@ 2452
ening 2451
yau 2451
或@@ 2451
afp 2450
全文 2449
统计数据 2449
黄泥 2448
电视台 2447
退@@ 2447
unemployment 2446
满足 2446
长者 2446
合署 2445
汇@@ 2445
gloucester 2444
认可 2444
our@@ 2443
reception 2442
公路 2442
patient 2441
教育@@ 2441
统@@ 2441
ok 2439
reflect 2439
别 2438
背景 2438
损失 2436
41 2434
ka 2434
parking 2434
声称 2434
que 2433
二十七日 2430
collective 2429
成长 2429
兰 2427
ati@@ 2425
客 2425
12.@@ 2424
xiang 2423
签订 2423
observatory 2422
preventing 2422
ring 2422
以前 2422
比例 2422
represent 2421
shares 2421
核武器 2421
词 2421
费@@ 2421
99 2420
helping 2420
thereby 2420
政权 2420
库 2419
星@@ 2419
da@@ 2416
momentum 2416
高科技 2416
fication 2415
使@@ 2415
ol 2414
prepared 2414
soviet 2414
联邦 2414
藏 2414
拓展 2413
胜 2413
bri@@ 2412
passenger 2412
paying 2412
copyright 2411
gl@@ 2411
kai 2411
rely 2411
wants 2411
劳动 2410
metres 2409
dalai 2408
支@@ 2408
具备 2407
expert 2406
bridge 2405
理想 2405
纪@@ 2405
经历 2405
remained 2404
wai 2404
perfect 2403
香港特别行政区 2403
没 2402
correctly 2401
regarded 2400
makes 2399
尽 2399
曾@@ 2399
读 2399
作品 2398
随后 2398
共同@@ 2397
诺@@ 2397
features 2396
华人 2396
felt 2395
stands 2395
救@@ 2394
corresponding 2393
entering 2393
飞 2393
agenda 2392
物价指数 2392
绝@@ 2392
eastbound 2389
朝@@ 2389
腐败 2389
足@@ 2388
aberdeen 2385
adjusted 2385
satisfied 2385
legitimate 2384
qualified 2384
满 2384
06 2383
drop 2383
上半年 2383
武力 2383
bul@@ 2382
ess@@ 2382
factor 2382
压@@ 2382
货 2382
举@@ 2381
debt 2380
专门 2379
46 2378
served 2378
black 2377
damage 2377
加上 2377
解放 2377
household 2376
networks 2376
operate 2376
星期 2376
突@@ 2376
评@@ 2376
dly 2375
broadcasting 2374
学员 2374
transformation 2373
翻@@ 2373
坚@@ 2372
航空 2372
causing 2371
义务 2371
04 2370
check 2370
zeng 2370
潮 2370
assist 2369
designated 2369
期望 2369
助@@ 2367
gap 2366
ice 2366
转达 2366
成员国 2365
甘@@ 2365
2008 2364
headed 2363
沿 2363
伯@@ 2362
talent 2361
tian 2361
活力 2361
派@@ 2361
扩散 2360
胜@@ 2360
跌幅 2360
cy@@ 2359
宽@@ 2359
wage 2358
esd 2357
中学 2357
料 2357
attaches 2356
penalty 2356
增 2356
并非 2356
0,000 2355
证@@ 2355
障碍 2355
ben@@ 2354
recommendations 2354
.@@ 2353
多名 2352
因应 2349
multilateral 2348
京 2348
农产品 2348
侵略 2346
sel@@ 2343
electrical 2342
message 2342
即使 2342
快@@ 2342
constitutional 2341
fying 2341
progressive 2341
法定 2341
违例 2341
续 2340
biggest 2339
激烈 2339
saddam 2338
箱 2338
decrease 2337
suitable 2337
事实上 2336
金融危机 2335
monitor 2333
十六日 2333
审 2333
建造 2333
来源 2333
request 2332
comments 2331
joined 2331
os@@ 2331
对华 2331
outline 2330
rational 2330
材料 2330
谈话 2330
一旦 2329
富 2329
八年 2328
总裁 2327
为什么 2326
评 2326
marks 2325
交通@@ 2325
敌 2325
权益 2325
fresh 2324
记@@ 2322
continually 2321
来看 2321
规律 2321
covers 2320
负@@ 2320
引发 2319
greatest 2318
侦察 2318
端 2318
率领 2317
contracts 2316
身份 2316
降低 2316
存款 2315
her@@ 2313
pass 2313
straits 2313
单 2313
seize 2312
pen@@ 2311
徐@@ 2311
concerns 2309
宁@@ 2309
gore 2308
基础设施 2307
索@@ 2307
个@@ 2306
之际 2306
同胞 2306
opposed 2305
专题 2304
国际事务 2304
56 2303
文化@@ 2303
难以 2303
managing 2302
9% 2301
对台 2301
思 2301
节@@ 2301
食 2301
森 2300
sustainable 2298
regulatory 2297
依据 2296
cu@@ 2295
intention 2295
朱邦造 2295
至少 2294
野@@ 2294
ingly 2293
场@@ 2293
cal@@ 2292
drawing 2292
drivers 2292
waters 2291
功@@ 2290
多种 2290
大局 2290
800 2288
另@@ 2288
northbound 2287
shipping 2287
广场 2287
广州 2287
sized 2286
将@@ 2286
gold 2285
interested 2285
minutes 2284
peak 2284
sted 2284
下列 2284
审批 2284
影@@ 2284
bel@@ 2283
制造业 2283
告@@ 2282
劳动@@ 2281
泰@@ 2281
财@@ 2281
sentenced 2280
taipei 2280
resolving 2279
tried 2279
complex 2278
得以 2277
announcement 2276
profits 2276
息 2276
设有 2276
wimax 2275
剧 2274
莱@@ 2274
开幕 2273
登@@ 2273
appreciation 2272
雨@@ 2271
contribute 2270
ick 2270
园 2270
纳入 2270
配@@ 2270
jiangsu 2269
确立 2269
oriented 2268
ber 2267
侦察机 2267
tors 2266
frequent 2264
二千 2264
容易 2264
直至 2264
索取 2264
朱 2263
遇到 2263
1,000 2262
录@@ 2262
ery 2259
hel@@ 2259
股市 2259
lab@@ 2258
二十九日 2258
国家主权 2258
58 2257
ics 2257
terrorist 2256
zheng 2255
districts 2254
报告书 2254
愿望 2252
二八 2251
物业 2251
iii 2249
本月 2249
hence 2248
ton 2248
会面 2248
反导 2248
本质 2248
influenza 2247
sars 2247
tonnes 2247
ently 2245
feelings 2245
艘 2245
宪法 2244
时刻 2244
温@@ 2244
径 2243
sin@@ 2242
heard 2241
sufficient 2241
earthquake 2240
pres@@ 2240
永远 2240
records 2239
sum 2239
布 2239
forced 2238
距离 2238
07 2237
below 2237
以外 2237
板 2237
pri@@ 2236
一天 2236
松 2236
jian 2234
薪酬 2234
与此同时 2233
引进 2233
枚 2233
college 2232
expanded 2231
少数 2231
degrees 2230
broadcast 2229
保护@@ 2228
幅 2228
整顿 2228
港元 2228
mil@@ 2227
xi@@ 2227
handled 2226
ns 2226
disarmament 2225
theater 2225
港湾 2225
述 2225
crucial 2223
distance 2223
prerequisite 2223
发动 2223
submarines 2222
中小企业 2222
爆炸 2221
情报 2220
购 2220
observe 2219
perform 2219
timetable 2219
面向 2219
purposes 2218
yugoslavia 2218
长时间 2218
encouraging 2217
改为 2217
funded 2216
命 2216
私营 2216
cc@@ 2215
pol@@ 2215
冲击 2215
cooperate 2214
separate 2214
南行 2214
白 2214
重大@@ 2214
生产@@ 2213
负 2213
财务 2212
不但 2210
因而 2210
web 2208
wrong 2207
布希 2207
jockey 2206
十 2206
效果 2206
counter 2205
enough 2205
marxist 2205
住户 2205
集体 2205
一家 2203
房@@ 2203
台北 2202
commodities 2201
gone 2201
professionals 2201
历@@ 2201
伦敦 2200
杀 2200
公顷 2199
城市规划 2199
更为 2199
每月 2199
重要性 2199
abuse 2198
枪 2198
赢得 2198
deeds 2196
specified 2195
保 2194
are@@ 2192
speci@@ 2192
一九九七年 2192
沙 2192
51 2191
ask 2191
guided 2191
intensify 2191
友 2191
担心 2191
alone 2190
reading 2190
外资 2190
weak 2189
举 2189
其它 2189
第一个 2189
设置 2189
humanitarian 2188
十二@@ 2188
按揭 2188
游 2188
南北 2187
student 2186
元朗 2186
巴基斯坦 2186
kung 2185
行驶 2185
洋 2183
演练 2183
阐述 2183
reporting 2182
pier 2181
佩@@ 2181
关键@@ 2181
字@@ 2181
flow 2180
organisation 2180
ture 2180
zones 2180
commitment 2179
consistently 2179
ep@@ 2179
伙伴 2179
申请人 2179
这么 2179
境外 2178
限 2177
本人 2175
decline 2174
zoned 2174
向前 2174
止 2174
steady 2173
vehicular 2173
wanted 2173
批@@ 2173
85 2172
优秀 2172
围 2172
先进性 2171
基于 2171
london 2170
song 2170
极 2170
effects 2169
东西 2169
坚拿道 2169
applicants 2168
pre 2168
两党 2168
harm 2167
两军 2167
五时 2167
减 2167
zhong@@ 2166
form@@ 2165
查阅 2165
断 2164
197@@ 2163
达赖 2163
licensing 2162
nor@@ 2162
wisdom 2162
广东省 2162
脱@@ 2162
继 2161
较大 2161
症 2159
ordered 2158
结 2158
迎接 2158
迪 2158
opposing 2157
地址 2157
该处 2157
范畴 2156
ast@@ 2155
afghanistan 2154
bing 2154
blue 2154
深 2153
本国 2152
李 2151
sciences 2150
showing 2150
treasury 2150
卖@@ 2150
广 2150
澳洲 2150
药@@ 2150
警 2150
openly 2149
红 2149
置 2149
tion@@ 2148
战略性 2148
informed 2147
画 2147
盘 2147
nanjing 2146
ming@@ 2144
statisticalbookstore 2144
公平 2144
indonesia 2143
兼@@ 2143
numerous 2142
路边 2142
依@@ 2141
fish 2140
47 2137
acy 2137
directed 2137
got 2137
profit 2137
巨@@ 2137
解 2137
background 2136
introduction 2136
topics 2136
食肆 2136
unable 2135
男@@ 2135
等级 2135
multi@@ 2134
民间 2134
nam@@ 2133
港岛 2133
零售 2133
ownership 2132
轮@@ 2132
cabinet 2131
问@@ 2131
南非 2130
否则 2129
犯 2129
鲍威尔 2129
confrontation 2128
squ@@ 2128
下来 2128
开拓 2128
根 2127
留意 2127
admitted 2126
egypt 2126
ens 2126
resource 2126
参考 2126
dong@@ 2125
fuel 2125
之外 2124
相同 2124
sai 2123
程@@ 2123
ish@@ 2121
奥运会 2121
电台 2121
tsim 2120
prison 2119
王伟 2119
southeast 2118
参拜 2118
150 2117
comparison 2117
各界 2117
大选 2117
太空 2117
拜@@ 2117
提 2117
restrictions 2116
伤@@ 2116
回到 2116
汇报 2116
置@@ 2116
hearing 2115
蒙@@ 2115
cars 2114
essence 2113
illnesses 2113
tradition 2113
延长 2113
ef@@ 2112
jian@@ 2112
雄@@ 2112
10,000 2111
ep 2111
lay 2111
名单 2111
杀@@ 2111
definitely 2110
route 2110
会长 2110
su 2109
钱@@ 2109
ko 2108
moved 2108
recognize 2108
显@@ 2108
十三日 2107
offences 2106
总值 2106
救 2106
暴力 2106
领 2106
53 2102
sichuan 2102
block 2101
palestine 2101
suggested 2101
700 2100
advancing 2100
bases 2100
township 2100
奖@@ 2100
英语 2100
洪@@ 2099
liable 2098
控 2098
良 2098
易@@ 2097
毛@@ 2097
interference 2096
readjustment 2096
wi@@ 2096
告 2096
cepa 2095
philippines 2095
制品 2095
扫@@ 2095
雇佣 2095
克服 2094
早上 2094
infection 2093
proceed 2093
加速 2093
consultative 2092
orientation 2092
丰@@ 2091
旅@@ 2091
59 2090
encouraged 2090
会否 2090
奇 2090
完@@ 2090
营运 2090
严重@@ 2089
终@@ 2089
适用 2089
grow 2088
tide 2088
进口货 2088
中共中央 2087
执@@ 2087
financing 2086
革命@@ 2086
军售 2085
记 2085
贯彻落实 2085
signs 2084
claims 2082
criteria 2082
goals 2082
入狱 2082
喜@@ 2082
od@@ 2080
乡 2080
学者 2080
工作人员 2080
answer 2079
boost 2079
factory 2078
更是 2078
雅@@ 2078
ain@@ 2077
belarus 2077
bonds 2077
conviction 2077
westbound 2077
史 2077
wireless 2076
善@@ 2076
当年 2076
音@@ 2076
反腐败 2075
武器装备 2075
collected 2074
jing@@ 2074
等等 2074
character 2073
declared 2073
discovered 2073
hosted 2073
liber@@ 2073
出任 2073
启动 2073
事务署 2072
八十@@ 2072
纲领 2072
ade 2071
efficient 2071
不再 2071
倒@@ 2071
bo 2069
atic 2068
yun@@ 2068
各个 2068
抽@@ 2068
良@@ 2068
评价 2068
质 2068
雷 2068
东亚 2067
信息@@ 2067
word 2066
景 2066
洛@@ 2066
surplus 2065
处长 2065
叶@@ 2064
埃@@ 2064
本报 2064
球@@ 2064
quan 2063
percentage 2062
总体 2062
做@@ 2061
全年 2061
抗议 2061
谴责 2061
首脑会议 2061
prosecution 2060
不到 2060
乌@@ 2060
办@@ 2060
纪念@@ 2060
attach 2058
判@@ 2058
差 2058
杰 2058
ordinary 2057
就@@ 2057
abm 2056
stamp 2056
建筑物 2056
islands 2055
确实 2055
罪名 2055
sions 2054
ga@@ 2053
土耳其 2052
道德 2052
mother 2051
甲 2051
财政司 2051
围绕 2050
triad 2049
liaison 2048
totally 2048
yunnan 2047
食@@ 2047
托@@ 2046
3,@@ 2045
ot 2045
pattern 2045
vol@@ 2045
保安 2045
借@@ 2045
李瑞环 2045
considering 2044
san 2044
降 2044
ion 2043
yong@@ 2043
金管局 2043
syria 2042
universities 2042
售价 2042
速 2042
institution 2041
wo@@ 2041
减轻 2041
两国论 2040
tons 2039
考验 2039
塔 2038
arduous 2037
conf@@ 2037
timely 2037
一道 2037
两次 2037
便@@ 2037
bangzao 2036
prolonged 2036
逐渐 2036
comes 2035
por@@ 2035
交换意见 2035
对象 2035
最佳 2035
署@@ 2035
thorough 2033
工业@@ 2033
条款 2033
conservation 2032
topic 2032
之中 2032
测@@ 2032
缓 2031
kilograms 2030
trafficking 2030
uni@@ 2030
百分之二十 2030
selection 2029
滥用 2029
ately 2028
vitality 2028
逃@@ 2028
htm 2027
ov 2027
全面@@ 2027
一支 2026
卫 2026
专责 2024
音 2024
今@@ 2023
civilian 2022
size 2022
sky 2022
核准 2022
歌@@ 2022
68 2021
schedule 2021
记录 2021
organize 2020
房委会 2020
掉 2020
防空 2020
back@@ 2019
calling 2019
世 2019
子女 2019
law@@ 2018
全世界 2018
种种 2018
ash@@ 2017
critical 2017
以往 2017
指标 2017
阿 2017
admission 2016
shing 2016
ous@@ 2015
制作 2015
chee 2014
pe 2014
三是 2014
值得 2014
怎么 2014
涉@@ 2014
制裁 2012
并未 2012
纵@@ 2012
function 2011
kwai 2011
platform 2011
suicide 2011
余 2011
司法@@ 2011
allocation 2010
yes 2010
护理 2009
possibility 2008
urgent 2008
致 2008
鱼@@ 2008
carefully 2007
曾荫权 2007
表演 2007
warned 2006
二十 2005
形 2005
恩@@ 2005
敌@@ 2005
活@@ 2005
charter 2004
helped 2003
hon@@ 2003
ourselves 2003
overcome 2003
sacred 2003
moscow 2002
wanchai 2002
几年 2002
售@@ 2002
选拔 2002
receiving 2001
resulting 2001
10th 2000
farmers 2000
maritime 2000
安理会 2000
yun 1999
照@@ 1999
exp@@ 1997
returning 1997
几乎 1997
容 1997
形象 1997
invested 1996
不准 1996
十一@@ 1996
日本政府 1996
涵盖 1995
称@@ 1995
载@@ 1994
待遇 1992
素 1992
请@@ 1992
mental 1991
track 1991
事项 1991
众@@ 1991
contingent 1990
满@@ 1990
ocean 1989
unique 1989
境内 1989
born 1988
partners 1988
teams 1988
身份证 1988
aware 1987
小学 1987
resume 1986
两天 1986
抓住 1986
fore@@ 1985
就要 1985
尽早 1984
扩展 1984
est@@ 1983
female 1983
补偿 1983
ana 1982
quantity 1982
sessions 1982
任期 1982
发展@@ 1982
对待 1982
酒@@ 1982
fa@@ 1981
formulated 1981
loan 1981
minority 1981
weapon 1981
根@@ 1981
中新社 1980
北韩 1980
底@@ 1980
益@@ 1980
还@@ 1980
reli@@ 1979
gained 1978
illegally 1978
latter 1978
优先 1978
适@@ 1978
industrialization 1977
按@@ 1977
村@@ 1977
mainstream 1976
wah 1976
洲 1976
鱼 1976
mer@@ 1975
加深 1975
aspect 1974
rain 1974
trends 1974
总数 1974
ger@@ 1973
motorists 1973
stationed 1973
援@@ 1973
确@@ 1973
若@@ 1973
ki 1971
57 1970
outlook 1970
政局 1970
innovations 1969
performing 1968
家长 1968
牵@@ 1968
channel 1967
thanked 1967
品@@ 1967
软件 1967
love 1966
ltd 1966
programs 1966
marketing 1965
pleased 1965
纯@@ 1965
bon@@ 1964
期待 1964
shandong 1963
元首 1963
被告 1963
其余 1962
提案 1962
with@@ 1961
旁 1961
goes 1960
优质 1960
hi 1959
sin 1959
contractors 1958
固@@ 1957
工程@@ 1957
带动 1957
并会 1957
accompanied 1956
nevertheless 1956
yasukuni 1956
上市 1956
接近 1956
initiatives 1955
尚 1955
hundred 1954
加以 1954
服 1954
战机 1953
白宫 1953
组成部分 1953
eliminate 1952
narcotics 1952
支出 1952
百分之十@@ 1952
辆 1952
塞 1951
一步 1950
天气 1950
奋@@ 1950
gambling 1949
inter 1949
steel 1949
血 1949
54 1948
温家宝 1948
自觉 1948
tw@@ 1947
undertakings 1947
ye 1947
亚太 1947
大约 1947
市长 1947
日后 1947
该项 1947
liaoning 1946
倒 1946
审查 1946
工商 1946
叶 1945
测 1945
领土完整 1945
junction 1943
凌晨 1943
占@@ 1943
导 1943
暂时 1943
服@@ 1943
ballistic 1942
hai 1942
更新 1942
是因为 1941
delivery 1940
naval 1940
转移 1940
forecast 1939
战斗力 1939
mit@@ 1938
公斤 1938
怎样 1938
mei 1937
miss 1937
tianjin 1937
册 1937
排放 1936
holders 1935
registry 1935
显 1935
coal 1934
realized 1934
且 1934
邮购 1934
combined 1933
授权 1933
全国@@ 1932
台海 1932
航天 1932
ending 1931
礼 1931
hwa 1930
ts@@ 1930
商界 1930
支 1930
dy 1929
wh@@ 1929
潜@@ 1929
祝贺 1929
copy 1928
formation 1928
教科书 1928
easy 1926
fur@@ 1926
ward 1926
移@@ 1926
蒂@@ 1926
imported 1925
信息化 1925
95 1924
speeches 1924
送@@ 1924
appeared 1923
dong 1923
九五 1923
变成 1923
探@@ 1923
炮 1923
联合国@@ 1923
acc@@ 1922
agree 1922
bor@@ 1922
grounds 1922
shop 1922
yan@@ 1922
他人 1922
残@@ 1922
西行 1922
依靠 1921
等@@ 1921
公报 1920
减低 1919
households 1918
条@@ 1918
firepower 1917
text 1917
唐@@ 1916
奇@@ 1916
alized 1914
moral 1914
ner 1914
关闭 1914
科索沃 1914
邮@@ 1914
1991 1913
原来 1913
ancient 1912
crack 1912
仁 1912
荣 1912
linked 1911
proved 1910
拿 1910
桑@@ 1910
移民 1910
corporate 1909
失败 1908
莫斯科 1908
著名 1907
ash 1906
别@@ 1906
自主 1906
containing 1905
george 1905
其次 1904
特区 1904
送往 1904
stepped 1903
亲切 1903
县@@ 1903
shortly 1902
倾@@ 1902
姆 1902
将来 1902
ster 1901
houses 1900
经理 1900
追求 1900
enhancement 1899
任命 1899
赶@@ 1899
雨 1899
refused 1898
合法 1898
练 1898
丽@@ 1897
找到 1897
ened 1896
附件 1896
乃至 1895
ass 1894
sup@@ 1894
充分@@ 1894
游泳 1894
纷纷 1894
邮政局 1894
hot 1893
位@@ 1893
地盘 1893
询 1893
宣言 1892
ls 1891
participated 1891
团长 1891
津贴 1891
electoral 1890
holidays 1890
演 1889
省委 1889
2,000 1888
baghdad 1887
冲@@ 1887
飞行员 1887
off@@ 1886
abide 1885
岛内 1885
ozp 1884
吸@@ 1884
遏制 1884
arrest 1883
begin 1883
带领 1883
annan 1882
bro@@ 1882
avian 1881
班@@ 1881
vietnamese 1880
三百@@ 1880
应对 1879
blair 1878
qiao 1877
欧 1877
rising 1876
she@@ 1876
国内外 1876
客观 1876
dropped 1875
的@@ 1875
秘书处 1875
相比 1874
taiwanese 1873
bin 1872
fulfill 1872
jia 1872
持有 1872
famous 1871
jin 1871
划@@ 1871
许可证 1871
雄 1871
eable 1870
ou 1870
plus 1870
q 1870
sw@@ 1870
健@@ 1870
刚刚 1870
日至 1870
顾客 1870
els 1869
bra@@ 1868
监@@ 1868
货车 1868
干预 1867
hunan 1866
xing 1866
主体 1866
名义 1866
味 1866
学会 1866
短 1866
landing 1865
出去 1865
南韩 1865
视为 1865
课 1865
sal@@ 1864
罪案 1864
customers 1863
fil@@ 1863
ishing 1863
thank 1862
政协 1862
缓和 1862
code 1861
cssa 1861
摩@@ 1861
赛@@ 1861
sincere 1860
买@@ 1860
土 1860
营办 1859
deployed 1858
64 1857
ins 1857
xin 1857
奉行 1857
跌 1857
采购 1857
servants 1856
保留 1856
债务 1856
locations 1855
shek 1855
输@@ 1855
emphasis 1854
ranks 1854
货值 1854
镇 1854
certificates 1853
eventually 1853
hai@@ 1853
ile 1853
violence 1853
三讲 1853
东部 1853
怀@@ 1853
proliferation 1852
一万@@ 1852
gulf 1851
personally 1851
依法@@ 1851
电脑@@ 1851
认同 1851
退休 1851
具体@@ 1850
med 1849
图书馆 1849
王 1849
纪律 1849
taxes 1848
copies 1847
kosovo 1847
灵@@ 1847
领导@@ 1847
全局 1846
刊登 1846
热 1846
通道 1846
准 1845
细@@ 1845
equipped 1844
game 1844
研究所 1844
缺@@ 1844
转化 1844
避@@ 1844
互访 1843
候@@ 1843
打道 1843
替 1843
较@@ 1843
weeks 1842
失业 1842
汇率 1842
arranged 1841
债@@ 1840
烈 1840
竞选 1840
bear 1839
ped 1839
来港 1839
观察 1839
liang 1838
关税 1838
来到 1838
formulate 1837
签@@ 1837
bangguo 1836
pool 1836
grant 1835
hongkong 1835
战场 1835
朗 1835
演讲 1835
虚@@ 1835
concerted 1834
not@@ 1834
attract 1833
如今 1833
formal 1832
hong@@ 1832
上诉 1832
pragmatic 1831
refuse 1831
universal 1831
专利 1831
印刷版 1831
star 1830
tan 1830
制约 1830
象 1830
perspective 1829
tourist 1829
常 1829
零售业 1829
decades 1828
examine 1828
neighborly 1828
shar@@ 1828
国情 1828
惠@@ 1828
spain 1827
商业@@ 1827
皇@@ 1827
谈@@ 1827
转口货 1827
建筑@@ 1826
kuomintang 1825
procedure 1825
zhi@@ 1825
协@@ 1825
城@@ 1825
托 1825
苏联 1825
annex 1824
ramp 1824
公共服务 1824
起到 1824
98 1823
cash 1823
公共@@ 1823
辩论 1823
continues 1822
stepping 1822
swe@@ 1822
练兵 1822
市区 1821
enthusiasm 1820
gathering 1820
斜 1820
梅@@ 1820
科学技术 1820
冷@@ 1819
害@@ 1819
fung 1818
graduates 1818
佛@@ 1818
监禁 1818
fined 1817
transactions 1817
法律@@ 1817
directors 1816
xin@@ 1816
direc@@ 1815
leaving 1815
proceeding 1815
useful 1815
wo 1815
一下 1815
arats 1814
haw@@ 1814
mus@@ 1814
外交政策 1814
赋予 1814
regime 1813
一辆 1813
回归 1813
飞弹 1813
任何人 1812
外经贸部 1812
艾@@ 1812
electricity 1811
enormous 1811
屯门 1811
戴@@ 1811
说法 1810
atory 1809
08 1808
休@@ 1808
四百 1808
宁 1808
迹 1808
smart 1807
sun@@ 1807
两项 1807
ement 1806
franchised 1806
ratio 1806
三十 1806
fan 1805
futures 1804
50,000 1803
命令 1803
家禽 1803
conver@@ 1802
cri@@ 1802
defend 1802
外交部长 1802
灯 1801
amounted 1800
mor@@ 1800
军人 1800
量@@ 1800
americans 1799
associations 1799
certificate 1799
comparing 1799
一九八@@ 1799
接 1799
kilometers 1798
伙伴关系 1798
kar@@ 1797
放 1797
院长 1797
impossible 1796
南部 1796
诚@@ 1796
香港特区 1796
mine 1795
ton@@ 1795
区议会 1795
南联盟 1795
不管 1794
exc@@ 1793
fax 1793
granted 1793
ines 1793
regiment 1793
upgrading 1793
湖@@ 1793
隐@@ 1793
jiangxi 1792
split 1792
corporations 1791
merchandise 1791
reflected 1791
与@@ 1791
imp@@ 1790
seoul 1790
使命 1790
引致 1790
丽 1789
参议院 1789
各族人民 1789
汇 1789
indices 1788
13.@@ 1787
后来 1787
将军 1787
抓@@ 1787
考@@ 1787
聚@@ 1787
当日 1785
麦@@ 1785
fishing 1784
suffered 1784
四名 1784
variety 1783
历史性 1783
html 1782
ligh@@ 1782
nan@@ 1782
准@@ 1782
空缺 1782
5,000 1781
coun@@ 1781
tional 1781
蓝@@ 1781
oning 1780
remove 1780
优化 1780
instructions 1779
km 1779
thai 1779
万人 1779
失去 1779
曼 1779
governmental 1778
taxation 1778
福建 1778
答 1778
表示感谢 1778
拟 1777
赫 1777
递交 1777
partner 1776
precisely 1776
烟 1776
随 1776
latin 1775
reserves 1775
果 1775
树@@ 1775
清理 1775
租@@ 1775
荃湾 1775
chamber 1774
debate 1774
mag@@ 1774
mandatory 1774
空中 1774
qui@@ 1773
tou@@ 1773
霸权主义 1773
domin@@ 1772
wages 1772
瓦 1772
collec@@ 1771
kejie 1771
散 1771
热烈 1771
ba 1770
morrison 1770
ran@@ 1770
restaurant 1770
委@@ 1770
曲 1770
查处 1770
computers 1769
flying 1769
世贸 1769
尖沙咀 1769
装置 1769
bao 1768
宗@@ 1768
工会 1768
建成 1768
股票 1768
inner 1767
伟 1767
季节性 1767
暂@@ 1767
确认 1767
father 1766
procuratorial 1766
video 1766
allowing 1765
依然 1765
博物馆 1765
considerable 1764
横@@ 1764
guo@@ 1763
named 1762
合同 1762
injuries 1761
改 1761
船只 1761
feature 1760
han@@ 1760
ots 1760
protocol 1760
ss 1760
surface 1760
腐@@ 1760
人物 1759
言论 1759
ory 1758
法治 1758
ist@@ 1757
qi@@ 1757
久 1757
巡@@ 1757
晚 1757
否认 1756
trades 1755
北部 1755
同月 1755
弹道导弹 1755
财政@@ 1755
那样 1755
除外 1755
动议 1754
庞大 1754
福 1754
capabilities 1753
oper@@ 1753
unless 1753
弃 1753
往@@ 1753
霍@@ 1753
resist 1752
td 1752
欢@@ 1752
辩@@ 1752
ham@@ 1751
head@@ 1751
strategies 1751
tobacco 1751
义@@ 1751
势头 1751
旧@@ 1751
每日 1751
竞争@@ 1751
bills 1750
大多数 1750
积极@@ 1750
solving 1749
yev 1749
十五@@ 1749
承建商 1749
criticized 1748
stronger 1748
郭@@ 1748
pushing 1747
valuable 1747
功 1747
席 1747
码 1747
第二十@@ 1747
运行 1747
valley 1746
恩 1746
behavior 1745
环节 1745
findings 1744
permit 1744
意大利 1744
vigorous 1743
consumers 1742
冒@@ 1742
男 1742
精神文明 1742
49 1741
flu 1741
ren 1741
共产党 1741
每天 1741
海关人员 1741
营商 1741
ances 1740
praised 1740
判 1740
祖国统一 1740
au 1739
tan@@ 1739
unions 1739
屋宇 1739
旗@@ 1739
复苏 1738
废物 1738
志 1738
所在 1738
框架 1737
electric 1736
sch@@ 1736
vision 1736
watch 1736
半 1736
国民 1736
跨@@ 1736
ari@@ 1735
plants 1735
落后 1735
rice 1734
sho@@ 1734
trouble 1734
撞机 1734
教学 1734
物质 1734
vital 1733
到底 1733
国防部 1732
candidate 1731
ina 1731
假期 1731
叫 1731
实事求是 1731
cat@@ 1730
南省 1729
界别 1729
真 1729
absolute 1728
kwun 1728
nit@@ 1728
ology 1728
life@@ 1726
producing 1726
中共中央政治局 1726
伦@@ 1726
心脏病 1726
怕 1726
min 1725
realization 1725
免费 1725
气氛 1725
相互了解 1725
荷兰 1725
迪@@ 1725
eg@@ 1724
吴仪 1724
五千 1723
密 1723
jp 1722
社署 1722
积极参与 1722
artillery 1721
mori 1721
ler 1720
speeding 1720
wealth 1719
样 1719
届时 1718
proportion 1717
ely 1716
manage 1716
两位 1716
烟@@ 1716
科研@@ 1716
网络@@ 1716
62 1715
crew 1715
reg@@ 1715
自焚 1715
any@@ 1714
neither 1714
健 1714
赛马会 1714
experienced 1713
潜艇 1713
interpretation 1712
二五 1712
震@@ 1712
cul@@ 1711
passing 1711
传播 1711
marriage 1710
照顾 1710
若有 1710
线@@ 1709
季度 1708
安装 1708
flats 1707
mode 1707
worldwide 1706
手续 1706
空气 1706
高度评价 1706
expenses 1705
municipality 1705
平台 1705
放在 1705
manned 1704
格局 1704
人大代表 1703
最低 1703
67 1702
foot@@ 1702
庆@@ 1702
cigarettes 1701
page 1701
qin 1701
侵@@ 1701
息@@ 1701
患有 1701
泊车 1701
演出 1701
专员 1700
迎@@ 1700
predic@@ 1699
principled 1699
动员 1699
比率 1699
surely 1698
注@@ 1698
特征 1698
expression 1697
typical 1697
分钟 1697
隧道 1697
严峻 1696
交 1696
左 1696
甚@@ 1696
arbitr@@ 1695
otherwise 1695
possession 1695
slope 1695
weak@@ 1695
台商 1695
弱@@ 1695
模@@ 1695
guangxi 1694
各级党委 1694
硬@@ 1694
背@@ 1694
融资 1694
organizational 1693
cap 1692
chun 1692
clinics 1692
elling 1692
honor 1692
于是 1692
党组织 1692
恶化 1692
aring 1691
eyes 1691
frequently 1691
外交@@ 1691
澳@@ 1691
索 1691
shaanxi 1690
二十五 1690
守@@ 1690
有意 1690
criminals 1689
separatist 1689
solved 1689
教训 1689
英文 1689
载有 1689
persist 1688
一件 1688
小心 1688
cults 1687
deposits 1687
lane 1687
牌@@ 1687
稍后 1687
联合声明 1687
fatal 1686
hol@@ 1686
ranking 1686
banner 1685
flag 1685
令人 1685
副委员长 1685
附表 1685
motor 1684
pro 1684
频繁 1684
61 1683
australian 1683
mong 1683
国务委员 1683
继@@ 1683
记者会 1683
amb@@ 1682
models 1682
压 1682
暴@@ 1682
appear 1681
causeway 1681
外商投资 1681
apped 1680
concepts 1680
twice 1680
千年 1680
demonstrated 1679
location 1679
submarine 1679
witnessed 1679
验@@ 1679
cher 1678
origin 1678
自然@@ 1678
imposed 1677
stood 1677
发扬 1677
滩 1677
阳@@ 1677
hennessy 1676
动物 1676
商会 1676
应有 1676
nathan 1675
负担 1675
aids 1674
gar@@ 1674
有所@@ 1674
originally 1673
ue 1673
坏 1673
followers 1672
伟@@ 1672
arm@@ 1671
zhong 1671
恶 1671
secret 1670
tical 1670
广告 1670
玉@@ 1670
tell 1669
prominent 1668
场地 1668
纲要 1668
coli 1667
routes 1667
显然 1667
永久 1667
沿海 1667
裁判 1667
all@@ 1666
cru@@ 1666
坦@@ 1666
年初 1666
据@@ 1666
辛@@ 1666
significantly 1665
val@@ 1665
described 1664
ster@@ 1664
storage 1664
凡 1664
夜 1664
峰会 1664
minds 1663
zing 1663
培育 1663
感情 1663
牛@@ 1663
cho@@ 1662
统 1662
recognition 1661
创 1661
尽量 1661
指责 1661
chong 1660
引入 1660
根本@@ 1660
献@@ 1660
awarded 1659
employer 1659
一时 1659
奠定 1659
parks 1658
rumsfeld 1658
分享 1658
概念 1658
bom@@ 1657
gri@@ 1657
scored 1657
theories 1657
vir@@ 1657
zhu@@ 1657
restaurants 1656
金融机构 1656
plays 1655
read@@ 1655
summer 1655
多数 1655
抵@@ 1655
断@@ 1655
足 1655
buy 1653
mr@@ 1652
ruihuan 1652
华侨 1652
limit 1651
radar 1651
superiority 1651
需@@ 1651
relatives 1650
rob@@ 1650
substantial 1650
围@@ 1650
盗版 1650
tered 1649
国际法 1649
burden 1648
deficit 1648
luo 1648
undertaking 1648
澳大利亚 1648
15.@@ 1647
ain 1647
steadily 1647
violation 1647
七百 1647
停车场 1647
北角 1647
太平洋 1647
敬@@ 1647
百分之零点 1647
wall 1646
询@@ 1646
是从 1645
anhui 1644
carrier 1644
intended 1644
performed 1644
tically 1644
古巴 1644
稿 1644
金正日 1644
investigate 1643
practicing 1643
举报 1643
暗@@ 1643
注 1643
14.@@ 1642
cle@@ 1642
mpf 1642
periods 1642
么 1642
clu@@ 1641
occasion 1641
payments 1641
中央政府 1641
非政府 1641
扬 1640
alization 1639
stadium 1639
unprecedented 1639
肉 1639
计@@ 1639
税收 1638
causes 1637
controlled 1637
grading 1637
preliminary 1637
准确 1637
拟@@ 1637
listen 1636
thousand 1636
恐怖@@ 1636
最好 1636
sixth 1635
tender 1635
安置 1635
打破 1635
旅游业 1635
begun 1634
fever 1634
read 1634
售卖 1634
aw@@ 1633
青 1633
adopting 1632
gg@@ 1632
yi@@ 1632
拒@@ 1632
知@@ 1632
寄@@ 1631
小泉 1631
帐目 1631
役 1631
众多 1630
kwan 1629
thousands 1629
机动 1629
fruitful 1628
holiday 1628
尤@@ 1628
操作 1628
21@@ 1627
judging 1627
ths 1627
ws 1627
右翼 1627
轨道 1627
doubt 1626
expect 1626
tribunal 1626
互相 1626
晓@@ 1626
recognized 1625
截@@ 1625
联合@@ 1625
add 1623
fighter 1623
一百 1623
嘉宾 1623
失 1622
抓紧 1622
面前 1622
comply 1621
long@@ 1621
preparation 1621
successively 1621
of@@ 1620
一向 1620
健全 1620
ple@@ 1619
sol@@ 1619
wu@@ 1619
使得 1619
智 1619
renminbi 1618
昌 1618
阵@@ 1618
coordinated 1617
count 1617
seats 1617
多边 1617
材 1617
minimum 1616
names 1616
tom@@ 1616
高于 1616
constant 1615
goodwill 1615
spaces 1614
层@@ 1614
零零 1614
micro@@ 1613
持@@ 1613
towns 1612
striving 1611
巡查 1611
生物 1611
down@@ 1610
fireworks 1610
鸟 1610
driver 1609
offensive 1609
乘@@ 1609
写@@ 1609
沉@@ 1609
适合 1609
摘要 1608
ali@@ 1607
hal@@ 1607
石广生 1607
角@@ 1607
影 1606
通报 1606
golden 1605
sting 1604
明白 1604
ders 1603
全力 1603
练习者 1603
pursuing 1602
talking 1602
犯@@ 1602
草@@ 1602
eu@@ 1601
officially 1601
symposium 1601
不了 1601
司 1601
海域 1601
stanley 1600
传真 1600
focused 1599
银@@ 1599
knows 1598
丁@@ 1598
六个月 1598
草图 1598
乱@@ 1597
属@@ 1597
摩利 1597
独 1597
退出 1597
遭受 1597
遇@@ 1596
employed 1595
各界人士 1595
洁@@ 1595
质@@ 1595
ium 1594
下稿代 1594
航空公司 1594
薪 1594
beyond 1593
上将 1593
联合公报 1593
auditing 1592
ge 1592
turkey 1592
吉 1592
ban@@ 1591
difficulty 1591
manufacturers 1591
宪报 1591
批出 1591
枪@@ 1591
辞 1591
开发@@ 1590
波兰 1590
锦@@ 1590
disclosed 1589
replace 1589
structures 1589
为首 1589
马来西亚 1589
categories 1588
feeling 1588
一体化 1588
内阁 1588
推向 1588
杰@@ 1588
组建 1588
eligible 1587
managed 1587
体制改革 1587
ished 1586
ram@@ 1586
san@@ 1586
平方米 1586
fly 1585
用地 1585
arrival 1584
普通 1584
盖@@ 1584
books 1583
destroyers 1583
fang 1583
lung 1583
membership 1583
尽量减少 1583
议定书 1583
broad@@ 1582
mp@@ 1582
wider 1582
zes 1582
一经 1582
十二 1582
泉 1582
热烈欢迎 1582
街@@ 1582
闻 1582
danger 1581
ial 1581
introducing 1581
judge 1581
sam@@ 1581
计画 1581
criticism 1580
回顾 1580
客户 1580
简单 1580
中说 1579
欠@@ 1579
decide 1578
北京市 1578
布什总统 1578
末 1578
瑞@@ 1578
ains 1577
machinery 1577
七一 1577
款项 1577
游戏 1577
sheet 1576
仅@@ 1576
difference 1575
fairly 1575
使馆 1575
和解 1575
对手 1575
群众@@ 1575
顺@@ 1575
共同利益 1574
ned 1573
cen@@ 1572
ron@@ 1572
sm@@ 1572
soft 1572
subsequently 1572
积@@ 1572
generations 1571
repair 1571
transferred 1571
热情 1571
broke 1570
existence 1570
乘 1570
交界 1570
哥 1570
新形势下 1570
海洋 1570
第二次 1570
半岛 1569
垃圾 1569
委托 1569
渔护署 1569
败 1569
州@@ 1568
校长 1568
kyoto 1567
laundering 1567
哥@@ 1567
09 1566
outbreak 1566
suspension 1566
国务院@@ 1566
照 1566
convicted 1565
waiting 1565
天然气 1565
cam@@ 1564
chow 1564
十分重视 1564
多极化 1564
层次 1564
工商@@ 1564
attracted 1563
demanded 1563
intensive 1563
scientists 1563
七个 1563
三国 1563
ern@@ 1562
传 1562
petroleum 1561
三次 1561
增幅 1561
circular 1560
specifically 1560
党和国家 1560
未经 1560
innovative 1559
ising 1559
zhen@@ 1559
zxs 1559
别的 1559
常委会 1559
新一轮 1559
有何 1559
电视@@ 1559
升级 1558
大批 1558
awards 1557
controlling 1557
exposed 1557
九十@@ 1557
天文台 1557
宝贵 1557
豁免 1557
zed 1556
伤亡 1556
agents 1555
吕秀莲 1555
干扰 1555
mid@@ 1554
sil@@ 1554
uc@@ 1554
corps 1553
delegates 1553
fle@@ 1553
separately 1553
sharing 1553
孙玉玺 1553
思路 1553
浓@@ 1553
诱@@ 1553
prohibited 1552
spot 1552
zoning 1552
护 1552
教统 1552
讲座 1552
附@@ 1552
fleet 1551
十分@@ 1551
搜查 1551
泰 1551
石油@@ 1551
bombing 1549
sensitive 1549
坐@@ 1549
没@@ 1549
贵@@ 1549
120 1548
bat@@ 1548
似乎 1548
可能性 1548
电力 1548
lights 1547
severely 1547
角度 1547
过境 1547
都@@ 1547
2010 1546
comprising 1546
hand@@ 1546
认@@ 1545
ail 1544
displayed 1544
inspections 1544
今晚 1544
值@@ 1544
损@@ 1544
经费 1544
na 1543
rail 1543
正常化 1543
研@@ 1543
集中@@ 1543
beautiful 1542
… 1542
organizing 1541
rent 1541
upper 1541
一一 1541
址 1541
燃料 1540
贺@@ 1540
identified 1539
中午 1539
器@@ 1539
wave 1538
为止 1538
寻找 1538
ces 1537
二百 1537
源@@ 1537
天桥 1536
第四@@ 1536
reflects 1535
主管 1535
勤@@ 1535
空气污染 1535
经营@@ 1535
续@@ 1535
82 1534
relying 1534
勒 1534
生态 1534
religion 1533
wal@@ 1533
一度 1533
医 1533
各区 1533
总区 1533
雷达 1533
首席 1533
乙 1532
合并 1532
吨 1532
breakthrough 1531
sha@@ 1531
talked 1531
大众 1531
有权 1531
犯罪@@ 1531
92 1530
ran 1530
respects 1530
弹@@ 1530
撤@@ 1530
本年 1530
桥 1530
重组 1530
container 1529
greetings 1529
派出 1529
不顾 1528
找 1528
相结合 1528
integrate 1527
offering 1527
refugees 1527
上来 1527
公营 1527
容许 1527
居住 1527
铁 1527
ra 1526
ats 1525
ther@@ 1525
十六@@ 1525
意味着 1525
自治 1525
tanks 1524
upcoming 1524
示@@ 1524
debts 1523
establishments 1523
iti@@ 1523
院@@ 1523
detained 1522
档 1522
鸡 1522
1.5 1521
afcd 1521
exceeded 1521
shen 1521
十一时 1521
研究@@ 1521
corrupt 1520
counties 1520
upgrade 1520
取代 1520
帕@@ 1520
效 1520
ca 1519
chance 1519
destroyed 1519
enquiry 1519
returns 1519
rou@@ 1519
seeing 1519
松@@ 1519
观众 1519
composite 1518
duc@@ 1518
friend 1518
pneumonia 1518
stipulated 1518
正如 1518
盖 1518
谋求 1518
ght 1517
再度 1517
宝 1517
洋@@ 1517
cont@@ 1516
fighters 1516
okinawa 1516
simple 1516
举措 1516
八百 1516
旺角 1516
活跃 1516
forged 1515
pakistani 1515
permits 1515
raw 1515
体力 1515
思维 1515
有限 1515
理事会 1515
部份 1515
顾@@ 1515
simply 1514
总局 1514
留下 1514
hebei 1513
tal@@ 1513
cop@@ 1512
hor@@ 1512
临 1512
宣传@@ 1512
行程 1512
首脑 1512
municipalities 1511
回收 1511
往往 1511
木 1511
突击 1511
bot@@ 1510
体育@@ 1510
extensively 1509
prosperous 1509
丁 1509
三点 1509
借 1509
审判 1509
折@@ 1509
报名 1509
ination 1508
势@@ 1508
daughter 1507
ff@@ 1507
realistic 1507
五百 1507
公开@@ 1507
守则 1507
profoundly 1506
yen 1506
九年 1506
惊@@ 1506
突然 1506
防卫 1506
1.2 1505
issuing 1505
之下 1505
偷@@ 1505
光碟 1505
employee 1504
学位 1504
异 1504
彩@@ 1504
parliamentary 1503
righ@@ 1503
anything 1502
xian 1502
zhi 1501
步骤 1501
注重 1501
ath 1500
formulating 1500
人民法院 1500
大事 1500
防范 1500
choose 1499
ow@@ 1499
不变 1499
徒 1499
架@@ 1499
考试 1499
kazakhstan 1498
pt 1498
七时 1498
大大 1498
诉讼 1498
component 1497
flood 1497
missions 1497
supervisory 1497
个人@@ 1497
对付 1497
百分之三十 1497
ame 1496
呼@@ 1496
调查科 1496
16.@@ 1495
forming 1495
lok 1495
naturally 1495
selecting 1495
十二时 1495
员@@ 1495
尚@@ 1495
77 1494
chengdu 1494
oned 1494
mosquito 1493
motor@@ 1493
shan@@ 1493
一九@@ 1493
智利 1493
未有 1493
helicopters 1492
malaysia 1492
obviously 1492
pil@@ 1492
复兴 1492
破 1492
evaluation 1491
争议 1491
伤害 1491
工厂 1491
搜集 1491
警队 1491
bre@@ 1490
garden 1490
划 1490
政制 1490
furthermore 1489
折 1489
玛@@ 1489
策划 1489
discussing 1488
亮 1488
第四 1488
chapter 1487
explosion 1487
lam@@ 1487
五百@@ 1487
计划@@ 1487
900 1486
farm 1486
serves 1486
不断@@ 1486
tro@@ 1485
破产 1485
fa 1484
lat@@ 1484
自行 1484
stages 1483
春 1483
片@@ 1483
科研 1483
cope 1482
height 1482
pose 1482
termin@@ 1482
舍 1482
lif@@ 1481
tics 1481
mongolia 1480
换 1480
痴迷者 1480
john 1479
miscellaneous 1479
outcome 1479
usually 1479
信息技术 1479
post@@ 1478
二十四 1478
左@@ 1478
成熟 1478
cast 1477
centers 1477
vessel 1477
interim 1476
violated 1476
中环 1476
4,@@ 1475
亲自 1475
六个 1475
厦门 1475
图谋 1475
统一大业 1475
birth 1474
satellites 1474
voters 1474
柴油 1474
错@@ 1474
confident 1473
desire 1473
larger 1473
消费品 1473
xu@@ 1472
冰@@ 1472
stopped 1471
行车 1471
patriotism 1470
维 1470
订@@ 1470
12@@ 1469
78 1469
coordinate 1469
decisive 1467
ear@@ 1467
honest 1467
involve 1467
tackle 1467
专业@@ 1467
发达 1467
法制 1467
近年 1467
acted 1466
hing 1466
产量 1466
ac 1465
counterfeit 1465
sa@@ 1465
sovereign 1465
ung 1465
友@@ 1465
bol@@ 1464
flexible 1464
formally 1464
lose 1464
neighbors 1464
仪器 1464
畅@@ 1464
耶夫 1464
领导班子 1464
88 1463
avenue 1463
breaking 1463
shared 1463
如欲 1463
辉 1463
wrote 1462
储备 1462
刑@@ 1462
混@@ 1462
自由@@ 1462
虚假 1462
钟@@ 1462
dengue 1461
pp@@ 1461
promptly 1461
卖 1461
国政府 1461
大埔 1461
孩子 1461
忠 1461
限@@ 1461
clothing 1460
don@@ 1460
newspapers 1460
travelling 1460
writing 1460
容@@ 1460
许 1460
interfere 1459
东区 1459
和平@@ 1459
封@@ 1459
祝愿 1459
71 1458
attain 1458
kh@@ 1457
offenders 1457
储@@ 1457
很@@ 1457
训 1457
attained 1456
六十 1456
家属 1456
洗@@ 1456
然@@ 1456
级@@ 1456
财经 1456
取缔 1455
比重 1455
pdf 1454
studied 1454
tam@@ 1454
盛 1454
诺 1454
京@@ 1453
巴西 1453
开放@@ 1453
悲@@ 1453
早前 1453
队@@ 1453
顺 1453
中文 1452
兹 1452
险@@ 1452
促使 1451
无疑 1451
毁 1451
相互@@ 1451
arising 1450
league 1450
ories 1450
poisons 1450
reviewed 1450
削减 1450
前途 1450
商讨 1450
国事访问 1450
录 1450
申@@ 1450
第二季 1450
accord 1449
alist 1449
中国人民解放军 1449
舞台 1449
ania 1448
bil@@ 1448
ites 1448
大臣 1448
岗位 1448
认真@@ 1448
dignity 1447
fer@@ 1447
rever@@ 1447
票@@ 1447
街市 1447
destruction 1446
leg@@ 1446
lers 1446
sponsored 1446
八个 1446
含@@ 1446
kwong 1445
共和党 1445
剧@@ 1445
含量 1445
ace 1444
公安机关 1444
堡 1444
engaging 1443
eve 1443
excise 1443
represented 1443
season 1443
ya@@ 1443
一部 1443
庆 1443
资源@@ 1443
argentina 1442
los 1442
teacher 1442
名为 1442
衣@@ 1442
gives 1441
hab@@ 1441
letters 1441
厚 1441
投资@@ 1441
政务司 1441
易 1441
终于 1441
equ@@ 1440
greece 1440
ideals 1440
anc@@ 1439
batch 1439
easily 1439
佳 1439
保安局 1439
护照 1439
assi@@ 1438
defendant 1438
ide 1438
spe@@ 1438
全党 1438
填@@ 1438
情报@@ 1438
控制@@ 1438
树 1438
环@@ 1438
package 1436
yang@@ 1436
坚定不移 1435
preventive 1434
销货 1434
uk 1433
列为 1433
积极性 1433
自动 1433
chair@@ 1432
brand 1431
eing 1431
nationwide 1431
跳@@ 1431
锋 1431
containers 1430
ill 1430
依照 1430
课@@ 1430
ker@@ 1429
previously 1429
tension 1429
祖@@ 1429
1000 1428
七十 1428
出口@@ 1428
第一季 1428
阳 1428
contain 1427
lunar 1427
董事 1427
circulation 1426
samples 1426
sive 1426
xia 1426
市委 1426
彼此 1426
民航 1426
applying 1425
信号 1425
口岸 1425
迁@@ 1425
equivalent 1424
发布会 1424
compliance 1423
lasting 1423
dispute 1422
happened 1422
qing@@ 1422
国际形势 1422
抢@@ 1422
63 1421
充满 1421
吃@@ 1421
崇@@ 1421
序@@ 1421
cha@@ 1420
pan 1420
suddenly 1420
73 1419
inspected 1419
speaker 1419
不论 1419
行径 1419
铜锣湾 1419
real@@ 1418
rectification 1418
signal 1418
行使 1418
airspace 1417
communique 1417
concurrently 1417
增长率 1417
练@@ 1417
arena 1416
cer@@ 1416
struggles 1416
yuxi 1416
完整 1416
76 1415
arafat 1415
referred 1415
sole 1415
一代 1415
乡@@ 1415
人均 1415
doctors 1414
中央政治局常委 1414
建设性 1414
彩 1414
母@@ 1414
略 1414
tening 1413
victoria 1413
监测 1413
1980 1412
animal 1412
crossing 1412
cs 1412
nd 1412
公 1412
军官 1412
同事 1412
欲 1412
语@@ 1412
长期以来 1412
book@@ 1411
grew 1411
oh 1411
separation 1411
sfc 1411
利润 1411
四十 1411
废@@ 1411
改行 1411
restricted 1410
阿富汗 1410
far@@ 1409
seasonally 1409
laboratory 1408
tran@@ 1408
worried 1408
画@@ 1408
证书 1408
迷 1408
estates 1407
战略目标 1406
所得 1406
流通 1406
祥 1406
迈@@ 1406
quarters 1405
九时 1405
尊严 1405
cotton 1404
institutional 1404
友好@@ 1404
后果 1404
售 1404
沃@@ 1403
这份 1403
extension 1402
intervention 1402
素@@ 1402
美好 1402
钢@@ 1402
formulation 1401
hang 1401
preparing 1401
reportedly 1401
requested 1401
voluntary 1401
舞@@ 1401
薪金 1401
选票 1401
tun@@ 1400
weaponry 1400
阿拉伯 1400
atypical 1399
nar@@ 1399
talents 1399
季@@ 1399
赫@@ 1399
decreases 1398
foster 1398
register 1398
remarkable 1397
交易所 1397
交谈 1397
誉 1397
probably 1396
tested 1396
登 1396
ared 1395
autonomy 1395
consequences 1395
lan 1395
voice 1395
战斗 1395
苏 1395
负债表 1395
新年 1394
日本@@ 1394
百分点 1394
绝 1394
commitments 1393
ghua 1393
settle 1393
冯@@ 1393
fashion 1392
prepare 1392
一再 1392
层面 1392
开创 1392
数码 1392
赖@@ 1392
distributed 1391
gan 1391
persistently 1391
welcomes 1391
zhongnanhai 1391
化验 1391
banquet 1390
heroin 1390
一事 1390
公屋 1390
块 1390
梁 1390
ideal 1389
swd 1389
书店 1389
大使馆 1389
扎@@ 1389
残疾 1389
潮流 1389
裁@@ 1389
claim 1388
courage 1388
highway 1388
permitted 1388
捍卫 1388
时间表 1388
苦@@ 1388
视察 1388
议 1388
边境 1388
amid 1387
comment 1387
seems 1387
吴邦国 1387
地面 1387
looked 1386
voting 1386
划分 1386
身上 1386
ese 1385
suspects 1385
declined 1384
exposure 1384
founded 1384
je@@ 1384
tak 1384
主导 1384
二七 1384
借鉴 1384
地铁 1384
夥伴 1384
效@@ 1384
bright 1383
cc 1383
sor@@ 1383
tsing 1383
亚欧 1383
贫@@ 1383
勇@@ 1382
kers 1381
interpre@@ 1380
damaged 1379
fisheries 1379
pork 1379
同一 1379
技能 1379
误@@ 1379
handed 1378
shops 1378
切 1378
短期 1378
collect 1377
illicit 1377
spent 1377
亲 1377
很快 1377
穿@@ 1377
ib@@ 1376
qualifications 1376
中非 1376
净@@ 1376
别国 1376
结论 1376
mp 1375
proven 1374
本次 1374
2.5 1373
ell 1373
guards 1373
observed 1373
不久 1373
岛@@ 1373
赞成 1373
meaning 1372
cooper@@ 1371
dealt 1371
expressing 1371
vers 1371
建造业 1371
旋 1371
楼@@ 1371
诺夫 1371
canadian 1370
pur@@ 1370
tele@@ 1370
xia@@ 1370
不够 1370
heritage 1369
supplies 1369
阿尔@@ 1369
dro@@ 1368
exploration 1368
ng 1368
nu@@ 1368
om 1368
refu@@ 1368
sending 1368
一级 1368
商机 1368
赔偿 1368
sharp 1367
刚@@ 1367
鲜@@ 1367
xiao@@ 1366
署理 1366
凯@@ 1365
呼吸系统 1365
设@@ 1365
rep@@ 1364
商贸 1364
aling 1363
closing 1363
neighboring 1363
reforming 1363
家人 1363
计算机 1363
中华 1362
押 1362
解除 1362
isd 1361
remark 1361
wind 1361
作业 1361
利用外资 1361
explain 1360
outlets 1360
repeated 1360
两种 1360
承办 1360
欣@@ 1360
camp 1359
cp@@ 1359
ker 1359
relation 1359
row@@ 1359
债 1359
边界 1359
essed 1358
fm 1358
merely 1358
sec@@ 1358
sections 1358
人民政府 1358
企业家 1358
恐@@ 1358
无论是 1358
诚意 1358
达成协议 1358
销售处 1358
reconciliation 1357
临@@ 1357
港人 1357
袋 1357
警员 1357
释@@ 1357
chun@@ 1356
rmb 1356
you@@ 1356
勤 1356
时机 1356
albright 1355
bangkok 1355
bia 1355
editorial 1355
hear@@ 1355
outward 1355
三千 1355
互信 1355
证据 1355
配 1355
sheung 1354
venture 1354
work@@ 1354
与会 1354
划作 1354
昌@@ 1354
租 1354
违背 1354
18.@@ 1353
accelerating 1353
fi 1353
一九九六年 1353
乌克兰 1353
尉健行 1353
拿@@ 1353
郎 1353
fraud 1352
mining 1352
obstacles 1352
presentation 1352
医疗@@ 1352
72 1351
arian 1351
concentrated 1351
grades 1351
lit@@ 1351
低于 1351
患 1351
靠@@ 1351
adjustments 1350
cou@@ 1350
广西 1350
私家车 1350
金钟 1350
韦@@ 1350
高素质 1350
hom@@ 1349
○ 1349
耀@@ 1349
额外 1349
hard@@ 1348
top@@ 1348
公安@@ 1348
tt@@ 1347
决 1347
到达 1347
四百@@ 1347
盟@@ 1347
综@@ 1347
菲@@ 1347
adequate 1346
condi@@ 1346
resistance 1346
stocks 1346
甲@@ 1346
航天@@ 1346
69 1345
commissar 1345
hotels 1345
obligations 1345
ounded 1345
川 1345
明天 1345
100,000 1344
chu 1344
descri@@ 1344
eye 1344
fri@@ 1344
ises 1344
实在 1344
纠纷 1344
经营者 1344
试图 1343
appealed 1342
collaboration 1342
promised 1342
att@@ 1341
cred@@ 1341
customer 1341
习@@ 1341
务实 1341
拦截 1341
艺@@ 1341
guangsheng 1340
hur@@ 1340
mir@@ 1340
sought 1340
唱@@ 1340
纸@@ 1340
选出 1340
battlefield 1339
dom@@ 1338
indicates 1338
len@@ 1338
militarism 1338
两国政府 1338
兆@@ 1338
和谈 1338
战区 1338
第三季 1338
虽 1338
调动 1338
眼 1337
驶@@ 1337
1972 1336
emerged 1336
widely 1336
父母 1336
所属 1335
语言 1335
连接 1335
enh@@ 1334
interviewed 1334
merg@@ 1334
quoted 1334
各项@@ 1334
外贸 1334
心理 1334
秋@@ 1334
achievement 1333
sti@@ 1333
人手 1333
强硬 1333
百分之二点 1333
category 1332
shape 1332
剂 1332
猛@@ 1332
笔 1332
若干 1332
获悉 1332
饮@@ 1332
roles 1331
出访 1331
包 1331
bird 1330
iv 1330
rati@@ 1330
unchanged 1330
三大 1330
东南亚 1330
对方 1330
探员 1330
ogu@@ 1329
slightly 1329
钟 1329
adjust 1328
chin@@ 1328
entirely 1328
关系@@ 1328
bb@@ 1327
eh 1327
removed 1327
ures 1327
意志 1327
苦 1327
试点 1327
赖 1327
intensified 1326
isation 1326
ley 1326
speak 1326
wholesale 1326
十八 1326
迫 1326
statements 1325
举行会谈 1325
空袭 1325
30@@ 1324
fail 1324
i.e. 1324
yeltsin 1324
佐@@ 1324
分类 1324
ect 1323
entourage 1323
homes 1323
kingdom 1323
wear 1323
好处 1323
陆军 1323
ets 1322
kwok 1322
stephen 1322
回避 1322
埃及 1322
意愿 1322
担@@ 1322
炸弹 1322
看来 1322
贵 1322
黎@@ 1322
sef 1321
ukraine 1321
墨西哥 1321
姆@@ 1321
控@@ 1321
改道 1321
相互尊重 1321
警务人员 1321
gener@@ 1320
macroeconomic 1320
print 1320
喜 1320
团结@@ 1320
爆炸@@ 1320
绿化 1320
concentrate 1319
format 1319
sincerely 1319
本署 1319
specially 1318
treated 1318
买 1318
多人 1318
张万年 1318
cour@@ 1317
ick@@ 1317
不满 1317
十四@@ 1317
呀 1317
amounts 1316
homepage 1316
采取措施 1316
阻@@ 1316
departmental 1315
exclusive 1315
fac@@ 1315
guilty 1315
undertake 1315
东京 1315
国王 1315
associated 1314
licences 1314
万吨 1314
灭@@ 1314
痛 1314
17.@@ 1313
multiple 1313
披露 1313
现状 1313
bers 1312
亡 1312
灵活 1312
系列 1311
识 1311
inflation 1310
involves 1310
kang 1310
suit 1310
战术 1310
民意 1310
creative 1309
nationality 1309
nomination 1309
younger 1309
通常 1309
cup 1308
ignor@@ 1308
ip@@ 1308
map 1308
satisfactory 1308
sto@@ 1308
textbook 1308
使用者 1308
定位 1308
贩@@ 1308
door 1307
procuratorate 1307
rd 1307
多元化 1307
工务局 1307
投标 1307
表述 1307
邻 1307
驾车 1307
donald 1306
itors 1306
pain@@ 1306
switzerland 1306
yee 1306
净 1306
基金会 1306
益 1306
科学家 1306
nur@@ 1305
一九七@@ 1305
西班牙 1305
hin@@ 1304
patriotic 1304
popular@@ 1304
pun@@ 1304
地球 1304
征 1304
浪 1304
coverage 1303
improvements 1303
但@@ 1303
公告 1303
出台 1303
十四 1303
舰@@ 1303
ne 1302
presided 1302
继承 1302
busy 1301
lessons 1301
岸 1301
念 1301
清洗 1301
滨 1301
fei 1300
terminus 1300
保险@@ 1300
地震 1300
色@@ 1300
酒店 1300
非正式 1300
barak 1299
electronics 1299
imperi@@ 1299
row 1299
unite 1299
晚@@ 1299
cd 1298
du 1298
eless 1298
gathered 1298
jia@@ 1298
中国外交部 1298
当今世界 1298
第三次 1298
punishment 1297
消息人士 1297
exactly 1296
species 1296
tic@@ 1296
毛泽东 1296
陆 1296
领空 1296
三天 1295
下半年 1295
振兴 1295
桶 1295
缩 1295
议程 1295
conveyed 1294
correspon@@ 1294
tropical 1294
令人@@ 1294
在座 1294
投 1294
警务处 1294
ir 1293
posed 1293
sli@@ 1293
严厉 1293
境 1293
备忘录 1293
rehabilitation 1292
tenants 1292
xiao 1292
前来 1292
待@@ 1292
blockade 1291
sham 1291
ven@@ 1291
villages 1291
党派 1291
温 1291
经济社会 1291
accelerated 1290
dance 1290
eration 1290
guest 1290
iling 1290
storm 1290
币 1290
散@@ 1290
植@@ 1290
祗 1290
美国国会 1290
软@@ 1290
whe@@ 1289
放宽 1289
西九龙 1289
chaired 1288
lebanon 1288
owing 1288
丙 1288
挤@@ 1288
邦 1288
驻华大使 1288
ease 1287
jing 1287
lying 1287
optim@@ 1287
俄罗斯@@ 1287
动摇 1287
紧 1287
94 1286
coast 1286
examined 1286
identify 1286
mounted 1286
wearing 1286
买卖 1286
传染病 1286
故 1286
百分之十 1286
解放思想 1286
belgium 1285
pressing 1285
不久前 1285
众 1285
对外@@ 1285
生态环境 1285
脱困 1285
这场 1285
cing 1284
elled 1284
两大 1284
西贡 1284
reviewing 1283
人民日报 1283
助 1283
总量 1283
深入@@ 1283
评审 1283
雪@@ 1283
brief 1282
lei 1282
一带 1282
异@@ 1282
隔 1282
2582 1281
dem@@ 1281
extra 1281
occupational 1281
phenomenon 1281
sing@@ 1281
聘用 1281
solic@@ 1280
tickets 1280
绝大多数 1280
返回 1280
amended 1279
orderly 1279
士兵 1279
尖@@ 1279
订明 1279
delta 1278
demonstration 1278
noting 1278
sen 1278
两人 1278
召@@ 1278
开设 1278
mountain 1277
享受 1277
国防@@ 1277
租金 1277
默@@ 1277
gao 1276
italian 1276
合适 1276
87 1275
institutes 1275
philippine 1275
temperature 1275
只会 1275
百分之一点 1275
麻@@ 1275
之所以 1274
氏 1274
j 1273
var@@ 1273
类型 1273
金大中 1273
disposal 1272
haz@@ 1272
phones 1272
命@@ 1272
壮@@ 1272
subjects 1271
判决 1271
反而 1271
证监会 1271
迷@@ 1271
regulate 1270
understood 1270
基建 1270
接待 1270
救援 1270
配套 1270
rank 1269
salaries 1269
seizure 1269
据报 1269
深水 1269
纪 1269
sul@@ 1268
爆@@ 1268
阶层 1268
flights 1267
tened 1267
深远 1267
disrup@@ 1266
la 1266
平等互利 1266
提到 1266
港澳 1266
aspirations 1265
closure 1265
cmc 1265
counter@@ 1265
resumption 1265
厚@@ 1265
独特 1265
20,000 1264
bi 1264
moves 1264
northeast 1264
permission 1264
tim@@ 1264
排除 1264
台办 1263
巴黎 1263
检 1263
败@@ 1263
chao 1262
glo@@ 1262
pearl 1262
充@@ 1262
吃 1262
固定 1262
就是说 1262
拆@@ 1262
是不是 1262
骗@@ 1262
burdens 1261
fs 1261
ouse 1261
spots 1261
搜@@ 1261
贸易额 1261
enc@@ 1260
regularly 1260
群@@ 1260
components 1259
expectations 1259
netherlands 1259
仍@@ 1259
全省 1259
游行 1259
capitalist 1258
乎 1258
右 1258
真的 1258
财富 1258
贸@@ 1258
accomplish 1257
deploy 1257
sign@@ 1257
撞 1257
获准 1257
secure 1256
从根本上 1256
抵 1256
摆脱 1256
现任 1256
dialogues 1255
ribao 1255
一个月 1255
十三 1255
报纸 1255
讯息 1255
许可 1255
accounted 1254
ex 1254
nation@@ 1254
tariff 1254
感受 1254
determine 1253
venues 1253
世纪之交 1253
事务@@ 1253
思考 1253
派发 1253
百 1253
研发 1253
certified 1252
dates 1252
踏@@ 1252
隆 1252
oun@@ 1251
袭 1251
bit 1250
classified 1250
faster 1250
resident 1250
伪@@ 1250
轻微 1250
analysts 1249
cuban 1249
satisfaction 1249
丹@@ 1249
令@@ 1249
敏感 1249
服务中心 1249
炮@@ 1249
隆@@ 1249
assessed 1248
operated 1248
trillion 1248
信托 1248
宣称 1248
社会治安 1248
话@@ 1248
adap@@ 1247
broken 1247
installed 1247
settled 1247
天津 1247
意识形态 1247
acute 1246
banned 1246
laden 1246
leighton 1246
旺@@ 1246
艺术@@ 1246
glorious 1245
jianxing 1245
preserve 1245
resulted 1245
答@@ 1245
足以 1245
decade 1244
recommended 1244
trees 1244
幕@@ 1244
浮@@ 1244
0s 1243
accurate 1243
answered 1243
threats 1243
大力发展 1243
着@@ 1243
集会 1243
高级官员 1243
mentality 1242
失踪 1242
chu@@ 1241
input 1241
militi@@ 1241
siu 1241
tering 1241
tourists 1241
ust 1241
疏@@ 1241
藉 1241
compiled 1240
constitute 1240
killing 1240
mad@@ 1240
互动 1240
加紧 1240
夏 1240
悬@@ 1240
手机 1240
旅游@@ 1240
齐 1240
lien 1239
transmission 1239
冠军 1239
州市 1239
落成 1239
露@@ 1239
urge 1238
典礼 1238
封路 1238
正面 1238
老师 1238
违@@ 1238
advis@@ 1237
downloaded 1237
interior 1237
yao 1237
拥护 1237
硬 1237
iranian 1236
journalists 1236
male 1236
noon 1236
九二 1236
城镇 1236
开辟 1236
1.3 1235
lhasa 1235
交易@@ 1235
含 1235
战斗机 1235
物价 1235
用作 1235
classes 1234
dur@@ 1234
ell@@ 1234
expo 1234
temporarily 1234
协 1234
3,000 1233
condem@@ 1233
focusing 1233
sid@@ 1233
yeoh 1233
乔@@ 1233
何 1233
称为 1233
销@@ 1233
asing 1232
结果显示 1232
论述 1232
91 1231
assigned 1231
textile 1231
填妥 1231
礼顿 1231
累计 1231
读@@ 1231
contains 1230
revision 1230
加剧 1230
招标 1230
持牌 1230
险 1230
atically 1229
dedicated 1229
guns 1229
rushed 1229
utilization 1229
三时 1229
倾向 1229
回升 1229
宋@@ 1229
相继 1229
知悉 1229
commodity 1228
publishing 1228
南京 1228
毛病 1228
监测站 1228
航空@@ 1228
contained 1227
drought 1227
mpfa 1227
缴@@ 1227
advancement 1226
cro@@ 1226
上海@@ 1226
不得不 1226
歧视 1226
游客 1226
花园 1226
被控 1226
陆续 1226
examples 1225
weigh@@ 1225
不愿 1225
可行 1225
犹@@ 1225
白皮书 1225
地说 1224
管道 1224
终止 1224
angeles 1223
惨@@ 1223
感觉 1223
指控 1223
新闻界 1223
日内瓦 1223
阻止 1223
patent 1222
presence 1222
遵循 1222
distribu@@ 1221
firms 1221
girl 1221
michael 1221
stalls 1221
一九九二年 1221
三千@@ 1221
失业率 1221
抱 1221
david 1220
elec@@ 1220
peasant 1220
stipulations 1220
careful 1219
counts 1219
iron 1219
subscription 1219
会员 1219
供应商 1219
公安 1219
威 1219
察 1219
doc@@ 1218
investigated 1218
olympics 1218
ox@@ 1218
productivity 1218
秘书 1218
采@@ 1218
disasters 1217
phenomena 1217
reliable 1217
yp@@ 1217
世界各地 1217
植物 1217
省长 1217
订立 1217
treat 1216
外地 1216
科技进步 1216
鼓吹 1216
e. 1215
ined 1215
pers 1215
付 1215
列入 1215
总经理 1215
轰炸 1215
conce@@ 1214
wards 1214
题@@ 1214
allocated 1213
deposit 1213
livelihood 1213
men@@ 1213
refer 1213
symptoms 1213
transition 1213
差@@ 1213
ards 1212
clearance 1212
minor 1212
retired 1212
宏@@ 1212
强烈@@ 1212
物资 1212
进一步提高 1212
inland 1211
学术 1211
现金 1211
百分之五十 1211
组织@@ 1210
mortgage 1209
tives 1209
勇 1209
可靠 1209
建设@@ 1209
曼@@ 1209
获取 1209
靖国神社 1209
96 1208
piece 1208
val 1208
传统友谊 1208
别人 1208
十六 1208
贾@@ 1208
走上 1208
venue 1207
众议院 1207
形@@ 1207
brilliant 1206
十时 1206
外商 1206
旅行 1206
望@@ 1206
车站 1206
89 1205
wel@@ 1205
府 1205
此举 1205
界@@ 1205
councilor 1204
cruise 1204
下载版 1204
内涵 1204
cracking 1203
inspect 1203
三项 1203
吸收 1203
演说 1203
打赢 1202
本届 1202
法制@@ 1202
缘 1202
coalition 1201
nigeria 1201
premi@@ 1201
protest 1201
senator 1201
多方面 1201
射@@ 1201
灵 1201
explicitly 1200
feasibility 1200
直升机 1200
缴 1200
politicians 1199
terminal 1199
whereas 1199
yin 1199
合法权益 1199
引 1199
携带 1199
rejuvenation 1198
stu@@ 1198
关切 1198
康文署 1198
瑞典 1198
留 1198
250 1197
soil 1197
道歉 1197
里面 1197
communities 1196
ranging 1196
东行 1196
六十六 1196
歌 1196
退 1196
enjoyed 1195
indonesian 1195
saving 1195
总会 1195
电信 1195
obvious 1194
producer 1194
人事@@ 1194
处在 1194
130 1193
enri@@ 1193
observers 1193
tiananmen 1193
withdraw 1193
不时 1193
出于 1193
频@@ 1193
demonstrate 1192
lib@@ 1192
sake 1192
transit 1192
今年@@ 1192
党人 1192
拖@@ 1192
播出 1192
geneva 1191
jilin 1191
一方 1191
名称 1191
页 1191
advocate 1190
eighth 1190
initiated 1190
procurement 1190
reaction 1190
tactics 1190
已于 1190
日报 1190
重要@@ 1190
86 1189
attacked 1189
threatened 1189
毁@@ 1189
ah@@ 1188
ences 1188
my@@ 1188
九个 1188
年前 1188
慎@@ 1188
肺炎 1188
congratulations 1187
ging 1187
joseph 1187
stream@@ 1187
tertiary 1187
号@@ 1187
完全@@ 1187
禁 1187
随时 1187
incomes 1186
一九九@@ 1186
产值 1186
干部队伍 1186
日子 1186
西省 1186
配置 1186
propose 1185
staged 1185
内外 1185
第四季 1185
详@@ 1185
首长 1185
boat 1184
chile 1184
lofty 1184
reinforce 1184
古 1184
访美 1184
ning@@ 1183
oral 1183
军备竞赛 1183
携手 1183
结算 1183
音乐 1183
branches 1182
plen@@ 1182
progres@@ 1182
hostile 1181
农民收入 1181
tru@@ 1180
中国人民@@ 1180
历来 1180
后勤 1180
处分 1180
大幅度 1180
本着 1180
自我 1180
订定 1180
跨 1180
通知书 1180
becomes 1179
suffering 1179
安定 1179
庄@@ 1179
observation 1178
prove 1178
replaced 1178
岗 1178
峰 1178
挑@@ 1178
耐@@ 1178
酒 1178
chuan 1177
gh 1177
organ 1177
waves 1177
whom 1177
兴 1177
柬埔寨 1177
统治 1177
证明书 1177
较为 1177
pieces 1176
ption 1176
乡村 1176
奥运 1176
疑@@ 1176
艰巨 1175
输往 1175
consult 1174
fications 1174
judg@@ 1174
sentence 1174
列出 1174
右@@ 1174
珠@@ 1174
签证 1174
顾 1174
adhering 1173
ap 1173
internationally 1173
poll 1173
创作 1173
四时 1173
收购 1173
申请@@ 1173
communiques 1172
creation 1172
optical 1172
tai@@ 1172
新闻稿 1172
比如 1172
骗 1172
itable 1171
什么样 1171
军事演习 1171
刑罚 1171
月初 1171
此前 1171
访问期间 1171
74 1170
parliaments 1170
yong 1170
争 1170
缅甸 1170
认真学习 1170
ency 1169
messages 1169
夫@@ 1169
才@@ 1169
透明度 1169
ful@@ 1168
jie 1168
macedonia 1168
prize 1168
以此 1168
所说 1168
族@@ 1168
鼓@@ 1168
explo@@ 1167
geo@@ 1167
photo 1167
select 1167
tau 1167
暴露 1167
社会各界 1167
borne 1166
devices 1166
flexibility 1166
inci@@ 1166
十二个 1166
卫生防护 1166
执法@@ 1166
欧洲@@ 1166
秀@@ 1166
章启月 1166
赞@@ 1166
consent 1165
fierce 1165
separated 1165
封 1165
inevitably 1164
人口@@ 1164
党内 1164
新西兰 1164
assess 1163
creativity 1163
soccer 1163
六百 1163
清醒 1163
负责同志 1163
财政部 1163
informal 1162
jun@@ 1162
spec@@ 1162
伪造 1162
口头 1162
帐 1162
编号 1162
贫困 1162
迫@@ 1162
birds 1161
machines 1161
net@@ 1161
stressing 1161
tenth 1161
中西部 1161
系统@@ 1161
身体 1161
乐观 1160
境@@ 1160
摆@@ 1160
早已 1160
理念 1160
endorsed 1159
flat 1159
中日关系 1159
少数民族 1159
chairmen 1158
contrary 1158
jeou 1158
owed 1158
tively 1158
evol@@ 1157
liao 1157
九十 1157
慢 1157
日起 1157
移动 1157
specialized 1156
入口 1156
fundamentally 1155
inevitable 1155
slaugh@@ 1155
修 1155
合办 1155
皮@@ 1155
boards 1154
facilitating 1154
hegemonism 1154
八十 1154
办事 1154
恶劣 1154
毛泽东思想 1154
解决@@ 1154
congresses 1153
defined 1153
emissions 1153
feudal 1153
poland 1153
中南海 1153
中有 1153
交流@@ 1153
截止 1153
标 1153
水资源 1153
理想信念 1153
阴@@ 1153
itation 1152
kin 1152
midnight 1152
preferential 1152
stick 1152
铺@@ 1152
97 1151
advocated 1151
auth@@ 1151
colleges 1151
encing 1151
equity 1151
善意 1151
戏@@ 1151
机械 1151
语文 1151
accumulated 1150
gazetted 1150
kin@@ 1150
九届全国人大 1150
人大常委会 1150
类@@ 1150
自愿 1150
19.@@ 1149
adoption 1149
airlines 1149
picture 1149
shortage 1149
solemn 1149
弘扬 1149
情绪 1149
监督@@ 1149
aside 1148
chirac 1148
和平共处 1148
整治 1148
气象@@ 1148
水域 1148
alleg@@ 1147
clinical 1147
passports 1147
presidents 1147
仔 1147
命运 1147
viewed 1146
办公时间 1146
扩@@ 1146
敌人 1146
混乱 1146
animals 1145
boy 1145
divided 1145
exploring 1145
pharmaceutical 1145
tough 1145
undermine 1145
孟@@ 1145
essi@@ 1144
jerusalem 1144
乔石 1144
侨@@ 1144
律政司 1144
湖 1144
灾害 1144
释 1144
convey 1143
destiny 1143
tig@@ 1143
觉 1143
高达 1143
properties 1142
suspect 1142
中欧 1142
劳 1142
打算 1142
率先 1142
boo@@ 1141
counterparts 1141
urgency 1141
刑事@@ 1141
composed 1140
limits 1140
ment@@ 1140
protected 1140
判断 1140
总参谋长 1140
驱@@ 1140
鸿@@ 1140
alize 1139
contemporary 1139
finding 1139
军国主义 1139
午@@ 1139
正义 1139
dc 1138
printing 1138
恐怖主义 1138
率@@ 1138
考 1138
馀 1138
accused 1137
aka 1137
wannian 1137
出入境 1137
器材 1137
常委 1137
状 1137
脚@@ 1137
contributed 1136
influ@@ 1136
ret@@ 1136
wil@@ 1136
初期 1136
晋@@ 1136
暨 1136
零售@@ 1136
两国间 1135
到访 1135
解决问题 1135
11@@ 1134
22@@ 1134
class@@ 1134
depend 1134
perf@@ 1134
subsequent 1134
whatever 1134
强劲 1134
纸 1134
趋 1134
ine@@ 1133
intermediate 1133
publicly 1133
semi 1133
tei 1133
tpb 1133
ums 1133
仪 1133
审理 1133
asi@@ 1132
人力资源 1132
刚才 1132
武装@@ 1132
泳池 1132
aroused 1131
robbery 1131
ur 1131
借口 1131
出版@@ 1131
可望 1131
趋@@ 1131
correc@@ 1130
grants 1130
liberalization 1130
occup@@ 1130
readers 1130
resolute 1130
代价 1130
司令 1130
户@@ 1130
民族团结 1130
5,@@ 1129
ans@@ 1129
climate 1129
tao 1129
果@@ 1129
若否 1129
ston 1128
undertaken 1128
victim 1128
xiang@@ 1128
农历 1128
指明 1128
提供@@ 1128
accepting 1127
armament 1127
delay 1127
websites 1127
yer 1127
久@@ 1127
友好访问 1127
普 1127
authorized 1126
fit@@ 1126
fre@@ 1126
provident 1126
统一战线 1126
音乐@@ 1126
什@@ 1125
密切@@ 1125
忠@@ 1125
脚 1125
高级@@ 1125
ast 1124
punished 1124
residence 1124
save 1124
suffrage 1124
一个@@ 1124
五名 1124
海底隧道 1124
祖 1124
dam@@ 1123
filled 1123
huang@@ 1123
mtr 1123
一半 1123
上周 1123
贩毒 1123
capita 1122
pped 1122
党和政府 1122
公然 1122
启用 1122
衣 1122
银行@@ 1122
dumping 1121
lie 1121
园@@ 1121
纷@@ 1121
laying 1120
occupied 1120
sters 1120
traditions 1120
vacc@@ 1120
市政 1120
杂志 1120
药剂 1120
bond 1119
disciplinary 1119
pow@@ 1119
scen@@ 1119
utmost 1119
仁@@ 1119
芬 1119
还会 1119
amed 1118
beat 1118
cambodian 1118
浦@@ 1118
ofta 1117
pretext 1117
seventh 1117
smes 1117
扬@@ 1117
董事长 1117
pao 1116
passage 1116
smoking 1116
告士 1116
营造 1116
走出 1116
aegis 1115
ational 1115
harmful 1115
lpg 1115
shor@@ 1115
someone 1115
会议@@ 1115
哪些 1115
商业银行 1115
生命@@ 1115
须@@ 1115
asset 1114
disabled 1114
judgment 1114
occupation 1114
temple 1114
鼓舞 1114
familiar 1113
中将 1113
价@@ 1113
停 1113
十二号 1113
嘛 1113
基因 1113
过渡 1113
ff 1112
overwhelming 1112
一千 1112
可见 1112
城规会 1112
impetus 1111
promulgated 1111
tra@@ 1111
恐怖 1111
煤@@ 1111
见面 1111
软 1111
bribes 1110
excessive 1110
ged 1110
thir@@ 1110
付@@ 1110
价值观 1110
际 1110
huaicheng 1109
shot 1109
军用 1109
扣 1109
章@@ 1109
atively 1108
kyrgyzstan 1108
palace 1108
wise 1108
先进@@ 1108
工商界 1108
挂@@ 1108
绝不 1108
览 1108
kuwait 1107
offers 1107
sl@@ 1107
tactical 1107
title 1107
全球战略 1107
暴 1107
渔@@ 1107
策 1107
逆@@ 1107
随即 1107
convenient 1106
dai 1106
materi@@ 1106
ola 1106
rocket 1106
tsu@@ 1106
百万 1106
depend@@ 1105
syndrome 1105
凤@@ 1105
ak 1104
congratul@@ 1104
consolidating 1104
psychological 1104
shopping 1104
不懈 1104
faces 1103
mc@@ 1103
od 1103
parent 1103
worker 1103
zheng@@ 1103
采 1103
alert 1102
lag@@ 1102
match 1102
yam 1102
偏高 1102
石油气 1102
经济效益 1102
赞扬 1102
阁下 1102
advances 1101
preserving 1101
rainstorm 1101
党政@@ 1101
塑@@ 1101
熟@@ 1101
继续加强 1101
那里 1101
affecting 1100
distur@@ 1100
受害人 1100
06@@ 1099
marking 1099
percival 1099
灾难 1099
起诉 1099
转向 1099
遗憾 1099
那种 1099
attr@@ 1098
deser@@ 1098
managers 1098
ordering 1098
teen 1098
保险业 1098
修正案 1098
发展局 1098
奉@@ 1098
始@@ 1098
强制性 1098
远程 1098
道理 1098
factories 1097
kou 1097
mu 1097
严格@@ 1097
凝聚 1097
性能 1097
艇 1097
逃 1097
ased 1096
breakthroughs 1096
contr@@ 1096
defending 1096
此行 1096
课税 1096
香港特别行政区政府 1096
20.@@ 1095
cai 1095
sight 1095
substantive 1095
九百 1095
争端 1095
介入 1095
希腊 1095
幅度 1095
ama 1094
dent 1094
discharge 1094
对外贸易 1094
邓@@ 1094
affir@@ 1093
jan 1093
jordan 1093
performances 1093
罪@@ 1093
career 1092
conforms 1092
ju 1092
postal 1092
viol@@ 1092
一段时间 1092
个月 1092
习 1092
否定 1092
四千 1092
塘 1092
极端 1092
舰艇 1092
bureaucr@@ 1091
判处 1091
妥善 1091
零售商 1091
cancer 1090
noise 1090
notable 1090
rence 1090
ult 1090
不断扩大 1090
创意 1090
制止 1090
消防@@ 1090
casualties 1089
economics 1089
win@@ 1089
播 1089
6,@@ 1088
gol@@ 1088
hundreds 1088
rental 1088
s. 1088
奥 1088
家庭@@ 1088
藏有 1088
desig@@ 1087
enforce 1087
james 1087
positively 1087
shanxi 1087
tual 1087
zha@@ 1087
不利 1087
小型 1087
彼@@ 1087
愈@@ 1087
淡@@ 1087
烧 1087
deaths 1086
destroy 1086
extreme 1086
hubei 1086
inten@@ 1086
tian@@ 1086
丧生 1086
出席会议 1086
四川 1086
股@@ 1086
download 1085
hood 1085
u.n. 1085
开拓@@ 1085
责 1085
kam 1084
macau 1084
ounds 1084
八时 1084
定性 1084
添@@ 1084
清晰 1084
物流 1084
root 1083
中间 1083
响 1083
国债 1083
大致 1083
潜在 1083
生存 1083
稳@@ 1083
box 1082
normally 1082
sometimes 1082
vel@@ 1082
模拟 1082
燃@@ 1082
counselling 1081
lift 1081
reaches 1081
warmly 1081
中华@@ 1081
有益 1081
篇 1081
金融市场 1081
extending 1080
underground 1080
印象 1080
态势 1080
符合@@ 1080
argu@@ 1079
politically 1079
primarily 1079
务求 1079
counterpart 1078
og@@ 1078
passport 1078
warships 1078
人群 1078
持有人 1078
曹@@ 1078
诸@@ 1078
高速 1078
academies 1077
genuine 1077
impose 1077
log@@ 1077
三岁 1077
普及 1077
有机 1077
警惕 1077
辞职 1077
1989 1076
protec@@ 1076
rong 1076
analy@@ 1075
shift 1075
wat@@ 1075
廉@@ 1075
浪@@ 1075
赞同 1075
非法@@ 1075
额@@ 1075
balanced 1074
councils 1074
encountered 1074
hom 1074
多位 1074
森喜 1074
炎 1074
端@@ 1074
邻国 1074
initially 1073
athletes 1072
colleagues 1072
elev@@ 1072
involvement 1072
发表声明 1072
平时 1072
手法 1072
招聘 1072
提前 1072
百分之三点 1072
转为 1072
arti@@ 1071
entrance 1071
judges 1071
massive 1071
mini 1071
pursued 1071
ying@@ 1071
保存 1071
平均@@ 1071
接纳 1071
武 1071
行线 1071
设计@@ 1071
81 1070
adapt 1070
rap@@ 1070
zi@@ 1070
动用 1070
劳动力 1070
chosen 1069
cycle 1069
一号 1069
危 1069
广大干部 1069
政治经济 1069
联同 1069
tajikistan 1068
农村@@ 1068
变革 1068
爆 1068
老挝 1068
薄@@ 1068
gorges 1067
releases 1067
小标题 1067
防治 1067
celebrate 1066
iled 1066
imag@@ 1066
integrating 1066
older 1066
受惠 1066
合资 1066
焦点 1066
glad 1065
ich 1065
rad@@ 1065
thu@@ 1065
沈@@ 1065
联邦@@ 1065
要素 1065
销售@@ 1065
50@@ 1064
ours 1064
servic@@ 1064
talented 1064
耗@@ 1064
静@@ 1064
bomb 1063
lic 1063
工人阶级 1063
戒@@ 1063
欺@@ 1063
牙@@ 1063
自从 1063
recruitment 1062
weight 1062
yue 1062
儿@@ 1062
前夕 1062
洞 1062
conventional 1061
hus@@ 1061
philatelic 1061
unanimously 1061
佳@@ 1061
危@@ 1061
抗 1061
assumed 1060
heretical 1060
pursuit 1060
toys 1060
作出贡献 1060
奥地利 1060
排 1060
cable 1059
issuance 1059
opec 1059
posters 1059
shoulder 1059
stopping 1059
定为 1059
戈@@ 1059
生物@@ 1059
蔡@@ 1059
coexistence 1058
connected 1058
hen@@ 1058
ship@@ 1058
宪 1058
广播@@ 1058
渡 1058
艺 1058
跑 1058
modern@@ 1057
worthy 1057
xiong 1057
几天 1057
死刑 1057
特大 1057
现代@@ 1057
速@@ 1057
shel@@ 1056
slow 1056
构想 1056
证券市场 1056
cell 1055
emb 1055
sharon 1055
surveys 1055
veness 1055
丹 1055
从来 1055
善 1055
奏 1055
怀 1055
无牌 1055
83 1054
ases 1054
geographical 1054
normalization 1054
tot@@ 1054
假日 1054
电邮 1054
转让 1054
送交 1054
prince 1053
sung 1053
winter 1053
六时 1053
历程 1053
柯@@ 1053
聚 1053
80@@ 1052
enabling 1052
imperative 1052
renewal 1052
seminars 1052
squad 1052
surrounding 1052
同学 1052
市政局 1052
极为 1052
炸@@ 1052
运输@@ 1052
islamic 1051
lets 1051
mobilization 1051
salisbury 1051
她们 1051
察@@ 1051
指导思想 1051
摄@@ 1051
明显@@ 1051
期限 1051
火箭 1051
pit@@ 1050
welcoming 1050
吕@@ 1050
接收 1050
鲍@@ 1050
两国之间 1049
导向 1049
店铺 1049
油价 1049
狂@@ 1049
chp 1048
manila 1048
nt 1048
withdrawal 1048
十一 1048
可是 1048
途 1048
ami 1047
applicable 1047
ation@@ 1047
bc 1047
centr@@ 1047
pul@@ 1047
培@@ 1047
正确@@ 1047
hear 1046
minute 1046
negotiation 1046
respondents 1046
产业化 1046
女性 1046
证件 1046
abol@@ 1045
alling 1045
requests 1045
tain 1045
财 1045
饮食 1045
asking 1044
tonight 1044
ze@@ 1044
扮演 1044
据介绍 1044
熟悉 1044
评定 1044
责任@@ 1044
追究 1044
cao 1043
henan 1043
penetr@@ 1043
书记处 1043
以为 1043
占领 1043
品种 1043
拨 1043
概@@ 1043
脑@@ 1043
视乎 1043
资本主义 1043
迁 1043
opens 1042
ori@@ 1042
answering 1041
appe@@ 1041
considerations 1041
explanation 1041
joh@@ 1041
recipients 1041
villagers 1041
彭@@ 1041
旁@@ 1041
部长级 1041
ental 1040
etc. 1040
严 1040
外来 1040
菲 1040
表决 1040
隔@@ 1040
deliver 1039
gong 1039
rid 1039
企@@ 1039
化学 1039
取决于 1039
直 1039
纠正 1039
英国@@ 1039
观塘 1039
返@@ 1039
ec 1038
h5n1 1038
两者 1038
拨@@ 1038
最多 1038
级别 1038
缩小 1038
跑马地 1038
郊野 1038
dness 1037
exists 1037
pledged 1037
purchasing 1037
傅全有 1037
搞@@ 1037
滥@@ 1037
衡 1037
阅 1037
finished 1036
guam 1036
vicinity 1036
妥善处理 1036
指导@@ 1036
颁发 1036
erg@@ 1035
exert 1035
grave 1035
pac@@ 1035
pushed 1035
granting 1034
machine 1034
produc@@ 1034
二十年 1034
总统府 1034
香港特区政府 1034
ack@@ 1033
break@@ 1033
favor 1033
表态 1033
诊所 1033
财政政策 1033
错 1033
airs 1032
enabled 1032
ied 1032
posing 1032
tes 1032
trained 1032
upheld 1032
保养 1032
基本上 1032
展出 1032
日中 1032
组合 1032
董@@ 1032
alternative 1031
combating 1031
一架 1031
电子化 1031
积累 1031
红潮 1031
进取 1031
88@@ 1030
dispatched 1030
sh 1030
针对性 1030
inde@@ 1029
movements 1029
writ@@ 1029
努力@@ 1029
育 1029
3025 1028
amend 1028
pentagon 1028
syndicate 1028
中共中央@@ 1028
全方位 1028
凝聚力 1028
反对@@ 1028
年轻 1028
辉煌 1028
运动员 1028
earnest 1027
excuse 1027
gate 1027
坚强 1027
江总书记 1027
良好@@ 1027
黑 1027
educate 1026
entrusted 1026
forever 1026
lian 1026
nearby 1026
企业界 1026
信贷 1026
对华政策 1026
朗@@ 1026
覆@@ 1026
commissioned 1025
kas@@ 1025
resolutions 1025
splittist 1025
tionally 1025
typhoon 1025
增长速度 1025
饰 1025
促 1024
墙 1024
开办 1024
气体 1024
蒋@@ 1024
aerospace 1023
che 1023
routine 1023
shoul@@ 1023
弗@@ 1023
摧毁 1023
蔓延 1023
阻碍 1023
exercising 1022
stall 1022
总监 1022
济@@ 1022
聘 1022
野 1022
限度 1022
guideline 1021
immolation 1021
rare 1021
rer 1021
ut@@ 1021
四点 1021
曾庆红 1021
阵 1021
ali 1020
contractor 1020
defensive 1020
delegations 1020
harmony 1020
qiyue 1020
rog@@ 1020
不断加强 1020
二读 1020
八千 1020
原有 1020
康复 1020
attempted 1019
prefecture 1019
solutions 1019
tree 1019
xie 1019
更生 1019
比亚 1019
订单 1019
调查@@ 1019
2878 1018
failing 1018
mar 1018
there@@ 1018
twenty 1018
violent 1018
保险公司 1018
充分认识 1018
联合作战 1018
embar@@ 1017
remind 1017
succeed 1017
tariffs 1017
周围 1017
委书记 1017
己 1017
biological 1016
vigor 1016
展望 1016
急性 1016
朱镕基 1016
源头 1016
affirmed 1015
options 1015
replacement 1015
resumed 1015
stone 1015
zi 1015
严正 1015
会同 1015
台风 1015
缴付 1015
外界 1014
收回 1014
概括 1014
版权 1014
知识@@ 1014
story 1013
丑@@ 1013
搭@@ 1013
日本首相 1013
村民 1013
药品 1013
collecting 1012
consciousness 1012
offshore 1012
regardless 1012
warm@@ 1012
尾 1012
警署 1012
高度@@ 1012
黄 1012
avi@@ 1011
hoping 1011
laos 1011
ling@@ 1011
mm 1011
proceedings 1011
urges 1011
刺激 1011
去@@ 1011
套@@ 1011
总是 1011
欲@@ 1011
ao@@ 1010
rally 1010
南斯拉夫 1010
地图 1010
昭@@ 1010
示威 1010
migr@@ 1009
tendency 1009
份子 1009
有效@@ 1009
照片 1009
疫@@ 1009
ements 1008
relationships 1008
wait 1008
yo@@ 1008
中小型 1008
亚地区 1008
低座 1008
增多 1008
dalian 1007
downloading 1007
industri@@ 1007
regulating 1007
social@@ 1007
主流 1007
促@@ 1007
利息 1007
卫生@@ 1007
变得 1007
芳 1007
萧@@ 1007
身分 1007
达致 1007
进口@@ 1007
连同 1007
considers 1006
quota 1006
smaller 1006
患者 1006
期内 1006
深化改革 1006
究竟 1006
跨境 1006
93 1005
occur 1005
option 1005
photos 1005
quick 1005
umb@@ 1005
实验室 1005
高校 1005
innocent 1004
pin 1004
summar@@ 1004
供应@@ 1004
到来 1004
合作伙伴 1004
撤销 1004
油麻 1004
din@@ 1003
listing 1003
show@@ 1003
特定 1003
进度 1003
逢 1003
79 1002
ath@@ 1002
crow@@ 1002
load 1002
resi@@ 1002
valid 1002
人选 1002
农民负担 1002
刻 1002
安南 1002
百分之四十 1002
2878@@ 1001
ail@@ 1001
denied 1001
mines 1001
mitting 1001
promise 1001
scri@@ 1001
sle@@ 1001
sou@@ 1001
spokeswoman 1001
停泊 1001
新闻组 1001
输入 1001
accurately 1000
angle 1000
bel 1000
mistakes 1000
phoenix 1000
pin@@ 1000
亡@@ 1000
冬@@ 1000
在讲话中 1000
奖励 1000
床 1000
戈尔 1000
死者 1000
目前为止 1000
鉴@@ 1000
attracting 999
commanding 999
insi@@ 999
二三 999
二级 999
执政党 999
日晚 999
涉案 999
理论@@ 999
bought 998
clim@@ 998
meteorological 998
possess 998
wa 998
一九九五年 998
雇用 998
黄金 998
kun@@ 997
taxis 997
troop 997
unremitting 997
中国人民银行 997
吓 997
喜欢 997
基层@@ 997
声音 997
收取 997
敏 997
毕业 997
荡 997
辅@@ 997
附有 997
伏 996
厂@@ 996
新闻处 996
污水 996
清水湾 996
税务 996
绿@@ 996
ams 995
examining 995
impacts 995
remote 995
violating 995
事关 995
党和人民 995
公认 995
motions 994
stly 994
tigh@@ 994
tv@@ 994
一张 994
信息产业 994
党的@@ 994
公立医院 994
含有 994
政务 994
敏@@ 994
朱总理 994
玩@@ 994
迹象 994
barriers 993
bidding 993
escal@@ 993
journey 993
rowing 993
storms 993
sudan 993
七岁 993
倡议 993
同比 993
差异 993
绩 993
降落 993
intensifying 992
peacekeeping 992
savings 992
daw@@ 991
justi@@ 991
respond 991
勒@@ 991
句 991
崭新 991
此事 991
殖民@@ 991
masters 990
僵局 990
寻@@ 990
本报记者 990
烧@@ 990
申办 990
采取行动 990
lawyers 989
nam 989
ongoing 989
四是 989
增至 989
宾 989
斥 989
昨晚 989
水务 989
琴 989
裁定 989
触犯 989
clari@@ 988
cultivate 988
dragon 988
hsi@@ 988
lic@@ 988
water@@ 988
三条 988
效应 988
最少 988
牺牲 988
3.5 987
bour@@ 987
mur@@ 987
qiu 987
them@@ 987
wood 987
切实加强 987
射 987
按季 987
航运 987
ultimate 986
以至 986
前所未有 986
十个 986
秘密 986
笔@@ 986
预料 986
pic@@ 985
streets 985
上市公司 985
舞 985
颗 985
首要 985
adverse 984
atives 984
nic@@ 984
owner 984
suffer 984
survival 984
付出 984
aded 983
bigger 983
brunei 983
neighborliness 983
qiang 983
spreading 983
夜@@ 983
娱乐 983
giant 982
guan 982
ly@@ 982
oi@@ 982
yuanhua 982
坡 982
宣扬 982
封锁 982
监视 982
金钱 982
democr@@ 981
euro 981
frank 981
imf 981
intercepted 981
tool 981
wild 981
价格指数 981
全民 981
抓住机遇 981
discount 980
militar@@ 980
tible 980
银 980
consultancy 979
crowd 979
ft 979
raid 979
swi@@ 979
sym@@ 979
update 979
产业结构 979
克林顿政府 979
叙利亚 979
合法@@ 979
天安门广场 979
新增 979
时报 979
洪 979
agu@@ 978
maintains 978
shou@@ 978
旺 978
潘@@ 978
bing@@ 977
cutting 977
settling 977
依法治国 977
号码 977
秒 977
豪@@ 977
brigade 976
exit 976
reputation 976
resear@@ 976
splitting 976
stipulates 976
tures 976
仔@@ 976
依 976
稍@@ 976
立法@@ 976
触@@ 976
aps 975
christmas 975
grown 975
hao 975
ound 975
典型 975
坎@@ 975
第四次 975
裔 975
赛事 975
选手 975
障 975
deeper 974
fuzhou 974
preparatory 974
ul 974
佛 974
卿 974
时代@@ 974
标签 974
等国 974
非常重视 974
魂 974
84 973
hearts 973
pleasure 973
qinghong 973
store 973
列车 973
庭 973
波黑 973
证券@@ 973
mic@@ 972
小布什 972
操@@ 972
施政 972
简介 972
跨国公司 972
devote 971
low@@ 971
widespread 971
回国 971
机器 971
检察机关 971
纺织品 971
depends 970
doub@@ 970
multinational 970
public@@ 970
rooms 970
shenyang 970
wan@@ 970
一连串 970
司@@ 970
四岁 970
国民@@ 970
搬@@ 970
联合国安理会 970
落马洲 970
鸡@@ 970
consecutive 969
dri@@ 969
信念 969
年内 969
直辖市 969
营企业 969
足球@@ 969
顶@@ 969
autumn 968
edition 968
jec@@ 968
recogn@@ 968
speed@@ 968
watching 968
今年以来 968
惑 968
故@@ 968
行长 968
香港金融管理局 968
medicines 967
叫@@ 967
宫 967
廉 967
缩短 967
访港 967
镇@@ 967
confron@@ 966
divorce 966
norms 966
ports 966
些 966
发展势头 966
宇@@ 966
该区 966
endangered 965
俊@@ 965
曲@@ 965
涉 965
火力 965
环 965
裁决 965
clearing 964
driven 964
nan 964
pictures 964
一至 964
五项原则 964
典 964
择@@ 964
鲜明 964
bad@@ 963
calcul@@ 963
discrimination 963
happiness 963
narrow 963
sudden 963
征收 963
桥梁 963
皆 963
真诚 963
assume 962
hun@@ 962
ome 962
spon@@ 962
1979 961
arily 961
boats 961
ils 961
textbooks 961
产品@@ 961
化学@@ 961
方针政策 961
每次 961
盟国 961
葵涌 961
1978 960
mostly 960
possibly 960
九月份 960
圆@@ 960
处置 960
裂 960
quarantine 959
ric@@ 959
salary 959
扣除 959
通讯社 959
ered 958
func@@ 958
printed 958
巡逻 958
悬挂 958
相反 958
逐 958
阵地 958
160 957
chunyun 957
crackdown 957
gradual 957
tho@@ 957
unswervingly 957
促进@@ 957
宪@@ 957
日方 957
环境卫生 957
综合国力 957
辅导 957
闭@@ 957
附属 957
audience 956
hydro@@ 956
pending 956
seat 956
tioned 956
医学 956
整体@@ 956
窃@@ 956
black@@ 955
chain 955
dge 955
drew 955
emphatically 955
extremis@@ 955
tseung 955
vocational 955
办公厅 955
checks 954
devoted 954
farms 954
ills 954
infected 954
millions 954
providers 954
simultaneously 954
smoke 954
专用 954
新鲜 954
样@@ 954
海洋@@ 954
相适应 954
试 954
ack 953
automatic 953
demanding 953
hidden 953
mechanical 953
prescribed 953
reb@@ 953
伙 953
前线 953
摩 953
父亲 953
第七@@ 953
诸多 953
距 953
邮品 953
高效 953
applause 952
economically 952
flu@@ 952
frontline 952
hua@@ 952
tank 952
关怀 952
开发区 952
柱 952
涌@@ 952
ades 951
drafting 951
everywhere 951
human@@ 951
memorial 951
neg@@ 951
pref@@ 951
radi@@ 951
retirement 951
transform 951
朝鲜@@ 951
arrange 950
extr@@ 950
graduate 950
immigrants 950
judiciary 950
中期 950
宏观调控 950
尸体 950
萨 950
bly 949
breeding 949
colom@@ 949
ky 949
党校 949
决不 949
既有 949
炳@@ 949
省市 949
15th 948
fanling 948
indicate 948
rein@@ 948
廿@@ 948
见到 948
apparatus 947
equi@@ 947
弹性 947
战胜 947
递 947
bility 946
imm@@ 946
med@@ 946
sa 946
乐团 946
订购 946
accomplished 945
appointments 945
cas@@ 945
feng@@ 945
found@@ 945
shim@@ 945
tain@@ 945
tc 945
党的领导 945
增值 945
孤@@ 945
最为 945
龄 945
adjusting 944
gratitude 944
亦@@ 944
他续 944
悠久 944
敦促 944
碰@@ 944
突出@@ 944
粮 944
蒙古 944
intense 943
opposes 943
short@@ 943
substantially 943
大大@@ 943
把@@ 943
母亲 943
ables 942
acknowledged 942
commun@@ 942
dial@@ 942
manife@@ 942
odi@@ 942
viewpoint 942
技巧 942
毅 942
长期@@ 942
驻军 942
cli@@ 941
emo@@ 941
myanmar 941
summary 941
学年 941
审计 941
疑问 941
编队 941
预定 941
香@@ 941
addressing 940
atri@@ 940
fear 940
pirated 940
removal 940
sydney 940
刑 940
和平解决 940
就业人数 940
构@@ 940
比利时 940
穿 940
与会者 939
厂商 939
呈 939
坚 939
是@@ 939
正确处理 939
王永平 939
makers 938
precious 938
redevelopment 938
会计@@ 938
像@@ 938
六百@@ 938
军事行动 938
当代 938
海内外 938
近来 938
democrats 937
distor@@ 937
magazine 937
remin@@ 937
vanguard 937
习惯 937
公安部 937
况 937
市政府 937
比较@@ 937
瑞 937
腐败现象 937
departure 936
incorporated 936
metal 936
sample 936
yugoslav 936
出生 936
替代 936
reservoir 935
respecting 935
tra 935
坊 935
始 935
屋@@ 935
沙湾 935
综合症 935
诊@@ 935
cheng@@ 934
compete 934
gradu@@ 934
tang@@ 934
卸@@ 934
诚 934
释放 934
钢 934
linking 933
remember 933
圆满 933
多万 933
控罪 933
cleansing 932
spheres 932
主持@@ 932
产业@@ 932
可于 932
富裕 932
摇@@ 932
氾 932
疫苗 932
硕@@ 932
缺 932
订阅 932
appearance 931
persu@@ 931
不利于 931
与其 931
之内 931
美洲 931
财政年度 931
else 930
facility 930
falling 930
guizhou 930
person@@ 930
stock@@ 930
suspend 930
保密 930
信用 930
患@@ 930
版@@ 930
疑 930
的确 930
辅助 930
00,000 929
ethics 929
foot 929
psych@@ 929
上涨 929
外交关系 929
浩@@ 929
趣 929
不合理 928
乌 928
偿 928
算@@ 928
观看 928
警区 928
赏 928
helps 927
leap 927
prote@@ 927
recovered 927
subjec@@ 927
zu@@ 927
哦 927
已达 927
智慧 927
疫情 927
简称 927
高举 927
invite 926
mature 926
radiation 926
rainfall 926
sis 926
发牌 926
宗教@@ 926
旅 926
更改 926
环境@@ 926
约束 926
acquire 925
pping 925
renmin 925
survi@@ 925
tense 925
保障@@ 925
处所 925
大胆 925
竞@@ 925
船舶 925
责任感 925
complaint 924
dar@@ 924
frontier 924
gains 924
olog@@ 924
targeted 924
一人 924
充分利用 924
喀@@ 924
扶贫 924
撞毁 924
权威 924
草 924
commit 923
edge 923
exceed 923
lor@@ 923
murder 923
rong@@ 923
sit 923
半年 923
席@@ 923
应急 923
祝 923
计算机@@ 923
annually 922
indi@@ 922
km@@ 922
ung@@ 922
一如既往 922
统一@@ 922
雪 922
骨@@ 922
approximately 921
decei@@ 921
eral 921
examinations 921
kindergartens 921
resignation 921
stat@@ 921
undoubtedly 921
vac@@ 921
yeung 921
冒 921
十七 921
响@@ 921
拉美 921
李肇星 921
首脑会晤 921
audit 920
exceeding 920
ounding 920
turkish 920
国防教育 920
政治家 920
检查@@ 920
超越 920
endeavor 919
kash@@ 919
walks 919
分布 919
平民 919
暖 919
禽@@ 919
缓解 919
跨国 919
陷入 919
7,@@ 918
listened 918
pack@@ 918
phys@@ 918
respected 918
互相@@ 918
叛@@ 918
国家机关 918
城市@@ 918
奋 918
拖欠 918
灭 918
联合会 918
芬兰 918
藉此 918
被迫 918
误 918
1.1 917
automobile 917
chol@@ 917
claiming 917
lantau 917
lux@@ 917
medi@@ 917
noticed 917
大会堂 917
既@@ 917
由此 917
痛@@ 917
社会制度 917
面貌 917
ambi@@ 916
castro 916
cement 916
granville 916
relative 916
score 916
stimulate 916
yiu 916
丧失 916
全体会议 916
真实 916
bla@@ 915
chil@@ 915
football 915
item 915
jurisdiction 915
印度@@ 915
扩张 915
渔农 915
轨 915
accompanying 914
destinations 914
farming 914
hen 914
og 914
revise 914
凭@@ 914
南方 914
审核 914
文物 914
柜@@ 914
announce 913
guaranteed 913
infectious 913
ions 913
危险@@ 913
周一岳 913
国际货币基金组织 913
垄断 913
戏 913
捕@@ 913
来讲 913
烈@@ 913
露 913
band 912
communic@@ 912
mentally 912
ore@@ 912
stream 912
wholeheartedly 912
勘@@ 912
忽视 912
本周 912
美中关系 912
迈向 912
civilians 911
logic 911
prop@@ 911
rejected 911
setup 911
telecommunication 911
万名 911
原油 911
台湾独立 911
此类 911
笑 911
舒@@ 911
yellow 910
引述 910
扣@@ 910
聚集 910
completing 909
中东地区 909
以期 909
哈萨克斯坦 909
好转 909
考核 909
1988 908
flags 908
holes 908
protective 908
十九楼 908
坟场 908
增长@@ 908
领会 908
bei 907
conform 907
congressmen 907
investing 907
run@@ 907
池 907
贴 907
110 906
111 906
convened 906
czech 906
denmark 906
franc@@ 906
installation 906
prosecuted 906
七千 906
多家 906
大屿山 906
岭 906
敢 906
萨达姆 906
设在 906
attacking 905
expertise 905
perhaps 905
一座 905
域 905
实际行动 905
工程师 905
开幕式 905
战士 905
物质@@ 905
至关重要 905
condemned 904
operator 904
preceding 904
smo@@ 904
市场化 904
营业 904
谭@@ 904
alty 903
consciously 903
dg@@ 903
fit 903
廉洁 903
adviser 902
ceas@@ 902
functional 902
业绩 902
全新 902
农业@@ 902
堆 902
百分之四点 902
controls 901
nurses 901
players 901
vatican 901
zero 901
今早 901
党员干部 901
均@@ 901
讨@@ 901
负债 901
跃@@ 901
consum@@ 900
ny 900
卓@@ 900
唯@@ 900
宴会 900
征询 900
私 900
crude 899
forest 899
requiring 899
全心全意 899
千元 899
逮捕 899
athens 898
changqing 898
fen@@ 898
loading 898
一艘 898
充实 898
意图 898
海岸 898
漫@@ 898
筹备 898
荒@@ 898
designs 897
spr@@ 897
techniques 897
一岁 897
分为 897
强调指出 897
秋 897
联网 897
backbone 896
generated 896
igu@@ 896
listening 896
merger 896
moroc@@ 896
了@@ 896
单程 896
扎实 896
电力@@ 896
离港 896
站@@ 896
紫@@ 896
consultant 895
倡导 895
呼声 895
牢固 895
电器 895
ense 894
gy@@ 894
ruled 894
tionary 894
就任 894
蚊 894
谅解 894
acknowledge 893
fill 893
revi@@ 893
seeks 893
undergoing 893
从中 893
切勿 893
揭露 893
摆在 893
本土 893
检察@@ 893
迄今 893
违法犯罪 893
envoy 892
eted 892
notic@@ 892
人心 892
千万 892
忧@@ 892
示范 892
防务 892
notices 891
tam 891
transparent 891
严打 891
哪 891
妇 891
居屋 891
难题 891
expounded 890
亏损 890
井 890
炼 890
现阶段 890
agre@@ 889
allows 889
attempts 889
estimates 889
hardware 889
intensity 889
regular@@ 889
介 889
依赖 889
经济合作@@ 889
abor@@ 888
changxing 888
curriculum 888
patrol 888
predicted 888
subsidies 888
以免 888
发起 888
唱 888
挑衅 888
欺骗 888
残 888
签发 888
责任制 888
appeals 887
cann@@ 887
mo 887
secretaries 887
十三@@ 887
abilities 886
buying 886
competitions 886
fulfilling 886
morale 886
reorganization 886
单方面 886
帮 886
恰@@ 886
杨 886
重庆 886
预留 886
cloudy 885
commenting 885
design@@ 885
suen 885
圆满成功 885
嫌疑人 885
罗马尼亚 885
表示满意 885
调查组 885
cel@@ 884
convenience 884
drill 884
enjoys 884
highways 884
lah 884
plan@@ 884
reclamation 884
十五岁 884
极其 884
海南 884
deadline 883
exhibitions 883
ord@@ 883
willingness 883
六岁 883
决议案 883
出动 883
动作 883
bottom 882
domain 882
eliminating 882
fluctu@@ 882
vers@@ 882
不良@@ 882
二号 882
人事 882
参加者 882
当值 882
彻@@ 882
月刊 882
玉 882
认清 882
跨越 882
迟 882
22.@@ 881
approve 881
defeat 881
ministries 881
motive 881
plastic 881
shir@@ 881
updated 881
充分肯定 881
十九@@ 881
有没有 881
此项 881
科学院 881
细节 881
邮递 881
arm 880
consolidated 880
execution 880
pioneering 880
rain@@ 880
urgently 880
就业机会 880
平壤 880
济 880
资深 880
重复 880
cornerstone 879
deliberately 879
diamond 879
heed 879
personages 879
上任 879
主席@@ 879
参赛 879
推翻 879
泥 879
adherence 878
ological 878
warnings 878
一同 878
中央银行 878
农 878
冲 878
工场 878
布局 878
抵港 878
注入 878
福建省 878
访问团 878
chment 877
gazette 877
不容 877
在场 877
气象 877
超级@@ 877
迈出 877
驻港 877
comprises 876
fellow 876
mel@@ 876
严厉打击 876
匈牙利 876
哎 876
清除 876
渡@@ 876
狗 876
税率 876
闭幕 876
顽固 876
题为 876
characters 875
emerging 875
杂@@ 875
移交 875
肯@@ 875
西区 875
领取 875
1.6 874
certification 874
florida 874
obstruc@@ 874
pools 874
taxpayers 874
中巴 874
为本 874
二十二 874
可行性 874
屈@@ 874
形式主义 874
派遣 874
终审 874
舍@@ 874
霸@@ 874
accordingly 873
filling 873
governance 873
happ@@ 873
便利 873
八月份 873
新任 873
辞@@ 873
flowers 872
organis@@ 872
va 872
便会 872
假如 872
分离 872
善于 872
实质性 872
扭@@ 872
提及 872
诉 872
上载 871
严肃 871
乡镇 871
事先 871
原料 871
抛@@ 871
跟@@ 871
重案 871
cultivating 870
cultivation 870
erroneous 870
independently 870
lea@@ 870
shore 870
vals 870
巴勒斯坦@@ 870
忧虑 870
政府@@ 870
繁@@ 870
ale 869
backing 869
citizen 869
feb 869
meantime 869
俱@@ 869
文字 869
话题 869
1.4 868
deb@@ 868
realities 868
九龙@@ 868
庭@@ 868
循环 868
接着 868
最高人民法院 868
紧密结合 868
afterwards 867
armies 867
forge 867
三十八 867
中等 867
并于 867
情势 867
物料 867
种类 867
amat 866
ard@@ 866
characterized 866
distinc@@ 866
graphy 866
restriction 866
─ 866
上空 866
乐园 866
券 866
医护人员 866
貌 866
compulsory 865
leninism 865
qin@@ 865
十五届 865
南京@@ 865
幸福 865
浙江 865
灾@@ 865
附图 865
affair 864
ball 864
bureaux 864
dra@@ 864
ris@@ 864
saudi 864
successes 864
tram@@ 864
write 864
」 864
燃油 864
bombs 863
ei@@ 863
gun@@ 863
quanyou 863
straigh@@ 863
taining 863
对策 863
犯罪活动 863
igh@@ 862
mod@@ 862
专 862
台阶 862
婚姻@@ 862
接到 862
申报 862
监控 862
盘@@ 862
胶@@ 862
艰苦奋斗 862
concessions 861
izhou 861
optimistic 861
shr@@ 861
superior 861
和谐 861
抵制 861
本来 861
符 861
antly 860
discharged 860
eating 860
nationals 860
pyongyang 860
ref@@ 860
shooting 860
syrian 860
telecom 860
「 860
党风廉政 860
台湾海峡 860
斜坡 860
真理 860
纺织 860
颁布 860
餐 860
gal@@ 859
husband 859
创业 859
孙 859
旗帜 859
档@@ 859
第五 859
粗@@ 859
纽@@ 859
致使 859
规 859
限期 859
0.1 858
christian 858
drainage 858
emission 858
lesson 858
prospect 858
readjust 858
spend 858
休市 858
歪曲 858
美化 858
file 857
fruits 857
planting 857
ples 857
polar 857
signals 857
会场 857
北行 857
回复 857
在职 857
checking 856
colon@@ 856
competent 856
environ@@ 856
gs 856
papers 856
silver 856
wei@@ 856
不好 856
打开 856
撞@@ 856
此案 856
海港 856
献 856
civilizations 855
civilized 855
discre@@ 855
length 855
restraint 855
tation 855
广东@@ 855
急 855
成克杰 855
森@@ 855
注释 855
穷@@ 855
编 855
选区 855
1987 854
chickens 854
diversified 854
dna 854
none 854
pollutants 854
布莱尔 854
睦@@ 854
罗干 854
股份 854
apping 853
frequency 853
postage 853
unemployed 853
听到 853
国议会 853
政策@@ 853
第八@@ 853
谷 853
1.8 852
expenditures 852
fies 852
gather 852
zhuhai 852
劳工@@ 852
坚实 852
民主党派 852
猪@@ 852
闻@@ 852
5000 851
insufficient 851
prohib@@ 851
十九 851
崇高 851
提议 851
爱国 851
0.5 850
die 850
em 850
fake 850
inviting 850
portion 850
separatism 850
sively 850
学历 850
着重 850
abridged 849
mad 849
德里 849
施工 849
毫无@@ 849
滋生 849
appropriately 848
dered 848
hoi 848
renowned 848
solidarity 848
力争 848
者@@ 848
赞助 848
商谈 847
基层干部 847
当今 847
检疫 847
洲@@ 847
看看 847
通讯@@ 847
阻挠 847
inher@@ 846
stringent 846
ventures 846
violate 846
信仰 846
削弱 846
拆 846
擦 846
首位 846
firing 845
free@@ 845
sdds 845
supersti@@ 845
wit@@ 845
世界卫生组织 845
深信 845
监狱 845
28.@@ 844
acks 844
attempting 844
commencement 844
exhib@@ 844
rear 844
supporters 844
中华民国 844
庄 844
影响力 844
气候 844
陶@@ 844
camoufl@@ 843
cros@@ 843
eds 843
formalism 843
kan 843
necessity 843
reconstruction 843
reti@@ 843
rs 843
亲临 843
劣@@ 843
动荡 843
坏@@ 843
拒 843
电子商务 843
精力 843
轻型 843
驱逐舰 843
impression 842
outer 842
silverstrand 842
volunteers 842
省政府 842
静 842
1982 841
acceptable 841
manifested 841
pursu@@ 841
restore 841
user 841
工业生产 841
颠@@ 841
appliances 840
circu@@ 840
polling 840
proposes 840
tist 840
transnational 840
travel@@ 840
vic 840
乌拉圭 840
会于 840
八岁 840
困境 840
转型 840
combine 839
demonstrations 839
eping 839
ura 839
不应 839
分割 839
孔@@ 839
耳@@ 839
领先 839
add@@ 838
aspiration 838
lockhart 838
slopes 838
幢 838
据统计 838
治安 838
祝@@ 838
高等教育 838
ela 837
elizabeth 837
forget 837
int@@ 837
jan@@ 837
kg 837
pc 837
photograph@@ 837
recreational 837
司令员 837
探 837
海基会 837
盾 837
转换 837
desk 836
企业@@ 836
刊 836
呈现 836
商场 836
市场竞争 836
收支 836
逐@@ 836
20th 835
detail 835
prolet@@ 835
伦 835
共产党员 835
原子@@ 835
发生@@ 835
施行 835
民主法制 835
advise 834
atization 834
beef 834
canton 834
lou@@ 834
marke@@ 834
mobilize 834
no. 834
provoc@@ 834
reactionary 834
romania 834
smashed 834
tations 834
中旬 834
努@@ 834
北方 834
另有 834
宾@@ 834
灌@@ 834
灯@@ 834
疆 834
症@@ 834
虎 834
闹@@ 834
ef 833
feasible 833
hke@@ 833
izes 833
looks 833
milit@@ 833
ney 833
purchases 833
受访者 833
合作@@ 833
大小 833
巨大成就 833
洽@@ 833
珠江三角洲 833
纲 833
4,000 832
constitutes 832
stand@@ 832
sweden 832
众所周知 832
军备 832
屡@@ 832
房地产 832
流感 832
灾区 832
百分之五 832
金字 832
alised 831
apr 831
ideolog@@ 831
loving 831
northwest 831
regret 831
styles 831
一大批 831
充分体现 831
复 831
扶@@ 831
旁容 831
联合行动 831
高水平 831
ame@@ 830
hurt 830
ington 830
spac@@ 830
亲切友好 830
估 830
分裂主义 830
北省 830
处罚 830
看待 830
苏丹 830
ammunition 829
cep@@ 829
dres@@ 829
fallen 829
reaffirmed 829
二十六 829
供水 829
得悉 829
必 829
执行@@ 829
捐@@ 829
火警 829
abandon 828
blind 828
breach 828
convictions 828
liability 828
movie 828
pak 828
standardized 828
任职 828
使用@@ 828
宇 828
拔 828
提高@@ 828
鸣 828
automation 827
boosting 827
dam 827
swimmers 827
turns 827
偿@@ 827
原本 827
合格 827
研究员 827
高原 827
26.@@ 826
committing 826
ides 826
liberal 826
mas@@ 826
tackling 826
ultimately 826
一所 826
不安 826
担当 826
模糊 826
精确 826
经济学家 826
23.@@ 825
charging 825
choi 825
kes 825
memorandum 825
obtaining 825
piracy 825
sement 825
shu 825
sk 825
vien@@ 825
住房 825
法律法规 825
迅@@ 825
频 825
bags 824
lifting 824
mountains 824
vigilance 824
午 824
相互支持 824
罢@@ 824
阿根廷 824
高峰 824
bio@@ 823
fare 823
representations 823
thy 823
venti@@ 823
今次 823
准许 823
履@@ 823
幸@@ 823
恪守 823
日常 823
更换 823
综合治理 823
香港市民 823
高官 823
ther 822
usual 822
俄国 822
公共交通 822
盟 822
第二阶段 822
邻@@ 822
麻烦 822
but@@ 821
deliber@@ 821
initi@@ 821
lowest 821
mac@@ 821
sc 821
一边 821
六千 821
成功@@ 821
锐@@ 821
dynamic 820
premise 820
princess 820
revital@@ 820
下台 820
五年计划 820
品牌 820
手中 820
扶持 820
来华 820
海协 820
秉@@ 820
绿色 820
谢 820
长远@@ 820
领导集体 820
ands 819
armored 819
hub 819
中外 819
反恐 819
建立健全 819
批发 819
警觉 819
证券公司 819
carriers 818
cau@@ 818
commanders 818
constrain@@ 818
fal@@ 818
ili@@ 818
交给 818
享@@ 818
人次 818
体会 818
农村税费 818
影视 818
直到 818
罗湖 818
聘请 818
融入 818
pon@@ 817
proactive 817
readju@@ 817
sharply 817
九岁 817
凭 817
惠 817
泳客 817
流入 817
激励 817
紧迫 817
140 816
chiang 816
dissemination 816
recreation 816
safegu@@ 816
visual 816
walk 816
workshop 816
佣工 816
带有 816
旋@@ 816
来临 816
督导 816
预报 816
appraisal 815
insisted 815
istic 815
代理 815
刊载 815
千名 815
报案 815
播放 815
新党 815
污@@ 815
移 815
蒂 815
透@@ 815
颁@@ 815
belong 814
enjoying 814
flooding 814
partial 814
pilots 814
placing 814
whenever 814
世人 814
壁@@ 814
铺 814
预算案 814
acti@@ 813
junior 813
prisoners 813
ron 813
specialists 813
三号 813
永久性 813
百分之七十 813
oc 812
routed 812
strikes 812
ven 812
人力 812
斗 812
日益@@ 812
第三代 812
altitude 811
arrive 811
depending 811
dream 811
shun 811
visible 811
博览 811
国际贸易 811
大雨 811
战役 811
秦@@ 811
股票@@ 811
衷心@@ 811
circle 810
collabor@@ 810
gat@@ 810
gun 810
negl@@ 810
presidency 810
rivers 810
专访 810
合共 810
泽@@ 810
瑞士 810
生产能力 810
粉@@ 810
25.@@ 809
autom@@ 809
inward 809
prof@@ 809
syn@@ 809
unlicensed 809
六名 809
委内瑞拉 809
尼泊尔 809
愉快 809
防护 809
陷@@ 809
diversions 808
falun 808
margin 808
例@@ 808
刊@@ 808
卓越 808
登陆 808
耀 808
aled 807
aly@@ 807
fry 807
guarantees 807
lao 807
prospec@@ 807
qualities 807
同盟 807
常任 807
归 807
援 807
注射 807
艰苦 807
讼 807
进修 807
deepened 806
harmonious 806
ners 806
weekly 806
仔细 806
前进方向 806
推荐 806
艰@@ 806
administering 805
advocating 805
arouse 805
ata 805
combining 805
continu@@ 805
tle 805
一周 805
侵略战争 805
滞@@ 805
育@@ 805
西北 805
金融中心 805
1985 804
bab@@ 804
doctor 804
prd 804
qat@@ 804
上海市 804
不明 804
专线 804
交通部 804
妻子 804
维和 804
arity 803
azerbaijan 803
fired 803
leaflets 803
motiv@@ 803
台湾地区 803
庙 803
愈 803
深入开展 803
生机 803
致命 803
质疑 803
atten@@ 802
installations 802
satisfy 802
servicemen 802
situated 802
summon@@ 802
unreasonable 802
图则 802
富强 802
法制建设 802
翼 802
dao 801
hegemony 801
instruments 801
junichiro 801
mir 801
pedestrian 801
procur@@ 801
unauthorised 801
优良传统 801
翌日 801
边防 801
cemetery 800
element 800
hardly 800
jiechi 800
mention 800
tak@@ 800
tens 800
textiles 800
thomas 800
共同愿望 800
四次会议 800
带头 800
文化交流 800
聆讯 800
访日 800
财务@@ 800
辈 800
1.7 799
immun@@ 799
payable 799
sloven@@ 799
孙明扬 799
提倡 799
逊 799
exemption 798
quot@@ 798
raided 798
农场 798
动性 798
指南 798
款额 798
津@@ 798
老人 798
100@@ 797
afraid 797
complementary 797
iring 797
与会@@ 797
亏 797
离岛 797
管理人员 797
过往 797
难民 797
飞船 797
bloc@@ 796
illness 796
threatening 796
干线 796
忍 796
诊 796
货运 796
asc@@ 795
brings 795
seizing 795
复杂@@ 795
滑@@ 795
着力 795
abo@@ 794
blow 794
constructing 794
contest 794
dging 794
fate 794
invasion 794
magnificent 794
台湾@@ 794
慧@@ 794
技术创新 794
拖延 794
掉@@ 794
独立自主 794
ection 793
missi@@ 793
tools 793
十五分 793
坪 793
巴格达 793
汇演 793
海事处 793
院士 793
难以@@ 793
empty 792
enly 792
internation@@ 792
lama 792
thoughts 792
之上 792
亮@@ 792
四十五分 792
电话号码 792
补贴 792
bai 791
ony 791
qinghai 791
relaxed 791
threaten 791
两院 791
优 791
估@@ 791
利亚 791
千 791
印制 791
竹 791
纠@@ 791
航母 791
茨 791
cater 790
cohes@@ 790
fol@@ 790
kidn@@ 790
stores 790
三十五 790
严格遵守 790
南海 790
大中型 790
日趋 790
港澳@@ 790
生活@@ 790
aa 789
chancellor 789
fortune 789
landed 789
slu@@ 789
strengths 789
zhaoxing 789
凤凰卫视 789
国民议会 789
深厚 789
甲类 789
香港海关 789
驾@@ 789
gang@@ 788
ici@@ 788
propag@@ 788
stal@@ 788
专机 788
外汇储备 788
栏 788
欧元 788
缓@@ 788
自杀 788
阁 788
concert 787
eth@@ 787
jul 787
oming 787
予@@ 787
仗 787
伍@@ 787
发展商 787
社论 787
紧急@@ 787
蚊@@ 787
ancy 786
cher@@ 786
dual 786
ham 786
punish 786
不可分割 786
劝@@ 786
商标 786
尤 786
施政报告 786
足球 786
aud@@ 785
band@@ 785
clauses 785
opposite 785
pair 785
parked 785
visibility 785
两间 785
九届 785
印刷 785
圈 785
埃 785
种植 785
grams 784
inauguration 784
luncheon 784
magistracy 784
ounced 784
prob@@ 784
specul@@ 784
场合 784
基础@@ 784
汤@@ 784
煽动 784
略@@ 784
职权 784
赤字 784
bu 783
directions 783
exer@@ 783
meter 783
native 783
rail@@ 783
rectify 783
revenues 783
veteran 783
youngsters 783
各省 783
盲@@ 783
celebration 782
cultures 782
forging 782
macro 782
sex 782
somewhat 782
tles 782
touch 782
人道主义 782
共享 782
捷克 782
红色 782
违规 782
24.@@ 781
broadband 781
ero@@ 781
kil@@ 781
occurrence 781
palestinians 781
soul 781
刀 781
慰问 781
捕 781
用水 781
航线 781
转口 781
风暴 781
dominant 780
exported 780
pris@@ 780
rectifying 780
wantonly 780
余下 780
例子 780
教学@@ 780
日元 780
班子 780
菌 780
anda 779
asting 779
consulted 779
demonstrates 779
govern@@ 779
pulse 779
yield 779
劲 779
就职 779
平均数 779
觉@@ 779
询问 779
clock 778
films 778
rescu@@ 778
supervise 778
w. 778
俄中 778
姿态 778
毛 778
游说 778
漆 778
爱滋病 778
电信@@ 778
简化 778
迈进 778
马上 778
3000 777
cot@@ 777
everybody 777
flo@@ 777
fulfilled 777
gue 777
proof 777
乃@@ 777
圆 777
外部 777
展现 777
扩大@@ 777
档案 777
谋 777
analysed 776
ert 776
neutr@@ 776
org 776
origin@@ 776
prosecu@@ 776
readiness 776
west@@ 776
千五百 776
城镇@@ 776
忘记 776
incorpor@@ 775
traders 775
单一 775
柬 775
消费@@ 775
缉@@ 775
节日 775
alizing 774
alls 774
calculated 774
ck 774
denghui 774
fairness 774
fat 774
quar@@ 774
renew@@ 774
rers 774
runs 774
东南 774
全党@@ 774
口号 774
实战 774
扎 774
攀@@ 774
每本 774
犯罪分子 774
科院 774
27.@@ 773
colum@@ 773
loop@@ 773
num@@ 773
screen 773
一幅 773
宏观经济 773
相当于 773
神 773
黑社会 773
allowance 772
carriageway 772
excellency 772
lasted 772
mono@@ 772
spanish 772
一九九三年 772
娱乐@@ 772
张贴 772
朱閒 772
队员 772
addressed 771
appreciate 771
popul@@ 771
recei@@ 771
strained 771
批发@@ 771
着眼于 771
艾滋病 771
虫 771
跨世纪 771
analyzed 770
appreciates 770
disabilities 770
lim@@ 770
pick 770
poli@@ 770
slip 770
spokesperson 770
国际竞争 770
旗 770
第三步 770
色情 770
认定 770
api 769
plot 769
posted 769
公平竞争 769
男童 769
白俄罗斯 769
训练@@ 769
贴@@ 769
8,@@ 768
fun 768
profession 768
不懈努力 768
何时 768
强权政治 768
戴 768
暴雨 768
渡轮 768
百分之八十 768
assisting 767
cair@@ 767
dark 767
dering 767
egyptian 767
estimate 767
faith 767
farmland 767
iv@@ 767
recognised 767
sible 767
vely 767
worries 767
实验 767
机电 767
维奇 767
该国 767
2.4 766
accountability 766
atism 766
commonly 766
definition 766
ign@@ 766
kw@@ 766
laser 766
proud 766
resettlement 766
undergo 766
倍@@ 766
回来 766
天水 766
户外活动 766
数年 766
数百@@ 766
欣赏 766
爱尔兰 766
粤@@ 766
analyze 765
breakdown 765
ene 765
heilongjiang 765
mechan@@ 765
subsidiary 765
vari@@ 765
wet@@ 765
人才@@ 765
代表大会 765
分组 765
创造@@ 765
忠告 765
料@@ 765
无线 765
桂@@ 765
解放@@ 765
贤 765
迫切@@ 765
重开 765
餐@@ 765
1986 764
austria 764
objection 764
patri@@ 764
supervisors 764
二十七 764
储税券 764
品质 764
夺@@ 764
实践证明 764
总体@@ 764
斯坦@@ 764
李国@@ 764
王国 764
commentary 763
employing 763
inst@@ 763
mass@@ 763
sors 763
valued 763
百分之三 763
after@@ 762
assemb@@ 762
cle 762
contracted 762
formsindex 762
grasping 762
que@@ 762
上限 762
湾@@ 762
相连 762
诞生 762
银行业 762
dare 761
enthusiastic 761
memory 761
trainees 761
ug@@ 761
德国@@ 761
督@@ 761
第一阶段 761
邻近 761
cleaning 760
detachment 760
henry 760
impe@@ 760
interactive 760
minim@@ 760
pointing 760
satisfactorily 760
拍@@ 760
识@@ 760
轮候 760
cancelled 759
carpark 759
wake 759
卷 759
欧洲联盟 759
绑架 759
美英 759
融合 759
调节 759
appointing 758
enting 758
世界观 758
五万元 758
到位 758
厘@@ 758
地产 758
序 758
桥@@ 758
深圳市 758
认真贯彻 758
重庆@@ 758
foreigners 757
identification 757
minimise 757
nr 757
pedestrians 757
staying 757
tie 757
刻@@ 757
四级 757
强制 757
忍@@ 757
悟 757
担忧 757
百分之五点 757
肉@@ 757
衷心 757
鞋 757
bit@@ 756
lia@@ 756
promises 756
repeat 756
system@@ 756
worry 756
zation 756
业务@@ 756
化解 756
同意书 756
违纪 756
aug@@ 755
challeng@@ 755
covenant 755
dinner 755
enables 755
falls 755
roy@@ 755
tou 755
偷渡 755
哥伦比亚 755
职业@@ 755
alists 754
combination 754
dozen 754
focal 754
ordin@@ 754
strang@@ 754
van 754
viewpoints 754
原则立场 754
建国 754
粤港 754
补 754
配备 754
项怀诚 754
acquired 753
aug 753
cantonese 753
logistical 753
reas@@ 753
refers 753
sand@@ 753
unfavorable 753
空前 753
系@@ 753
薪@@ 753
非典型 753
500,000 752
chron@@ 752
compe@@ 752
vic@@ 752
公安局 752
厅@@ 752
座谈 752
执业 752
指挥@@ 752
申索 752
过渡@@ 752
56@@ 751
buddhist 751
conspiracy 751
cyberport 751
logical 751
thers 751
urging 751
一片 751
发射@@ 751
烟花 751
肆@@ 751
运动会 751
这套 751
1687 750
catering 750
clients 750
moderate 750
parti@@ 750
systematic 750
专业人士 750
却是 750
合作项目 750
模范 750
爱国主义 750
迟@@ 750
饭 750
66@@ 749
ails 749
collu@@ 749
defin@@ 749
detected 749
eries 749
helicopter 749
presents 749
recommendation 749
reflecting 749
shed 749
为重要 749
二十九 749
常务委员会 749
废除 749
深圳@@ 749
输 749
馆@@ 749
= 748
avoid@@ 748
clam@@ 748
ivanov 748
中全会 748
前列 748
在此@@ 748
宜@@ 748
对立 748
继续@@ 748
进而 748
途@@ 748
alisation 747
blo@@ 747
ular 747
储存 747
富街 747
干部群众 747
弹头 747
饭店 747
colonial 746
hes@@ 746
negoti@@ 746
observing 746
供款 746
前后 746
双重 746
周边 746
地为 746
屏@@ 746
搭 746
支柱 746
誉@@ 746
跨越式 746
55@@ 745
deciding 745
high@@ 745
kcrc 745
ty@@ 745
十七@@ 745
成分 745
战线 745
探访 745
文娱 745
深刻@@ 745
玻@@ 745
盗@@ 745
誓@@ 745
谨慎 745
软件@@ 745
energetically 744
oo 744
privileg@@ 744
promotional 744
retain 744
supplementary 744
vivi@@ 744
侦查 744
副局长 744
报章 744
法团 744
福州 744
起点 744
遥@@ 744
bin@@ 743
changchun 743
nursing 743
regim@@ 743
rup@@ 743
上网 743
伟大@@ 743
创造条件 743
工作组 743
渗透 743
现实@@ 743
童@@ 743
致以 743
ads 742
cracked 742
gansu 742
referring 742
suppliers 742
thes@@ 742
wounded 742
军舰 742
外币 742
所长 742
控股 742
改组 742
新疆@@ 742
术 742
牢@@ 742
积极探索 742
舰队 742
葡萄牙 742
conspicuous 741
contradiction 741
councill@@ 741
dd@@ 741
ere 741
ken@@ 741
occur@@ 741
sewage 741
simul@@ 741
山东 741
我方 741
澄清 741
200@@ 740
enemies 740
exclu@@ 740
exposition 740
guaranteeing 740
mixed 740
monopoly 740
oling 740
philosophy 740
pled 740
咨询 740
复盖 740
智能 740
梳士 740
狠@@ 740
缆 740
自民党 740
货币政策 740
运送 740
arise 739
exha@@ 739
ining 739
recomm@@ 739
secrets 739
sures 739
torate 739
tory 739
互补 739
占有 739
即属 739
反复 739
商人 739
惩@@ 739
有序 739
服装 739
邀@@ 739
邮局 739
销毁 739
ball@@ 738
critici@@ 738
diver@@ 738
phases 738
treaties 738
什 738
受害者 738
差饷 738
整合 738
汪@@ 738
腹@@ 738
0.3 737
auction 737
contingency 737
demonstr@@ 737
gen 737
miles 737
zhuang 737
一句 737
万人次 737
中俄关系 737
干部人事 737
很难 737
最早 737
第一位 737
设想 737
责@@ 737
1950 736
depar@@ 736
ficial 736
lived 736
prag@@ 736
ques 736
reiter@@ 736
soldier 736
summing 736
交由 736
劫 736
姐 736
实效 736
寄回 736
立委 736
0.2 735
belong@@ 735
capitalism 735
checked 735
dence 735
eliminated 735
esti@@ 735
hosting 735
youths 735
二十三 735
从未 735
充当 735
努力提高 735
年间 735
承 735
拓宽 735
数十@@ 735
棉花 735
alleviate 734
betting 734
eding 734
intercep@@ 734
obs@@ 734
organic 734
ro 734
standardize 734
会计 734
兄弟 734
幼@@ 734
热点 734
这篇 734
ll 733
yoshiro 733
zhen 733
七点 733
也许 733
先进武器 733
凌@@ 733
圆满@@ 733
机密 733
来华访问 733
邮戳 733
applicant 732
choices 732
dict@@ 732
force@@ 732
interaction 732
jam@@ 732
keen 732
kel 732
question@@ 732
wished 732
全市 732
包装 732
同日 732
国际公约 732
多边贸易 732
播@@ 732
用心 732
祸@@ 732
约旦 732
赢 732
3g 731
gall@@ 731
viewing 731
军控 731
厦门@@ 731
基督教 731
战法 731
拼@@ 731
搜救 731
染@@ 731
arch@@ 730
dr. 730
exemplary 730
fall@@ 730
liabilities 730
perfecting 730
warr@@ 730
不容@@ 730
主导@@ 730
工作坊 730
调解 730
谈及 730
acceptance 729
acies 729
auc@@ 729
ected 729
exception 729
forthcoming 729
here@@ 729
religions 729
stricken 729
劳工局 729
十八@@ 729
周末 729
审慎 729
尾@@ 729
有待 729
束@@ 729
漏@@ 729
用来 729
等候 729
brazilian 728
flew 728
navigation 728
paul 728
phot@@ 728
royal 728
一般@@ 728
强有力 728
无可@@ 728
核子 728
洛 728
脱 728
church 727
consulate 727
dutiable 727
lied 727
magistrates 727
shuibian 727
一体 727
作者 727
后勤@@ 727
建党 727
有售 727
caught 726
ration@@ 726
recalled 726
snow 726
sorts 726
轩尼诗 726
conversation 725
emancipating 725
experiments 725
lev@@ 725
nat@@ 725
pal@@ 725
scand@@ 725
weekend 725
分队 725
叶利钦 725
埋@@ 725
妥协 725
抵御 725
数额 725
泻 725
路段 725
anning 724
castle 724
chinas 724
emp@@ 724
fun@@ 724
heng 724
nga@@ 724
九九年 724
亚洲各国 724
亭 724
代替 724
学家 724
摊位 724
淑@@ 724
经受 724
ital@@ 723
organise 723
tas@@ 723
ude 723
九九九 723
五十年 723
十五大 723
巴士站 723
拿出 723
焕@@ 723
舟 723
藉@@ 723
跟踪 723
acqu@@ 722
identical 722
ink 722
leaps 722
losing 722
nominal 722
notification 722
sphere 722
wid@@ 722
业已 722
两条 722
延续 722
精 722
缩@@ 722
顶 722
comparatively 721
libraries 721
striking 721
不敢 721
分析家 721
备有 721
政治权利 721
研究院 721
霸权 721
驾驶@@ 721
advocates 720
boxes 720
essly 720
reconnaisance 720
吸引力 720
短期内 720
造福 720
预先 720
cnn 719
jected 719
knew 719
necessarily 719
pression 719
ss@@ 719
stolen 719
tex@@ 719
trips 719
turmoil 719
uruguay 719
三级 719
客观@@ 719
渐 719
纾 719
能见度 719
自律 719
金属 719
authoritative 718
ishment 718
practiced 718
precision 718
pressed 718
trac@@ 718
veter@@ 718
琳 718
调查结果 718
alleged 717
assurance 717
ced 717
counting 717
innov@@ 717
liquid@@ 717
价格@@ 717
切实@@ 717
千方百计 717
孩 717
寿@@ 717
尝试 717
新一代 717
瓜@@ 717
组别 717
计划生育 717
finland 716
insist 716
suggestion 716
之地 716
以致 716
希 716
年期 716
显得 716
私家 716
葵@@ 716
连战 716
burg 715
cycl@@ 715
importantly 715
milestone 715
polls 715
theatre 715
upgraded 715
丝@@ 715
几何 715
出口货 715
博览会 715
处理@@ 715
恐怕 715
抓获 715
竟 715
benef@@ 714
frank@@ 714
h5 714
licensed 714
reward 714
sear@@ 714
兵力 714
凯 714
外籍 714
插@@ 714
搜寻 714
故事 714
数据@@ 714
昆@@ 714
缔@@ 714
集团公司 714
非常@@ 714
convinced 713
dan 713
revising 713
theft 713
不便 713
出路 713
唐英年 713
挥@@ 713
文莱 713
2.3 712
78@@ 712
ase 712
determining 712
extraordinary 712
fought 712
hair 712
margaret 712
regul@@ 712
stro@@ 712
trigger 712
winners 712
xue@@ 712
yuan@@ 712
出发点 712
市值 712
意思 712
消防处 712
生态@@ 712
相似 712
矿 712
管治 712
非洲@@ 712
30,000 711
ading 711
coc@@ 711
commended 711
happen 711
indignation 711
ll@@ 711
人生 711
儿子 711
大门 711
熊@@ 711
罪犯 711
美机 711
谢谢 711
起飞 711
饱@@ 711
academ@@ 710
basketball 710
carries 710
conc@@ 710
hsieh 710
ili 710
merits 710
regist@@ 710
subsidy 710
三军 710
吸烟 710
哪里 710
挽@@ 710
昂 710
检测 710
渔船 710
肖@@ 710
选定 710
abandoned 709
audio 709
bankruptcy 709
distinguished 709
hs@@ 709
importing 709
prevailing 709
sav@@ 709
violations 709
下令 709
例行 709
发表谈话 709
可疑 709
启 709
寒@@ 709
巴拉克 709
忆 709
春节 709
曾俊华 709
毕业生 709
经由 709
结婚 709
declare 708
disseminate 708
fire@@ 708
green@@ 708
lending 708
rendered 708
专项 708
中医 708
具@@ 708
势必 708
撰@@ 708
第一号 708
蒙 708
贸 708
这名 708
adhered 707
commissions 707
dp 707
fel@@ 707
hop@@ 707
inaugural 707
inspectors 707
succeeded 707
前面 707
卖旗 707
吐@@ 707
定义 707
摊@@ 707
appears 706
appropri@@ 706
commence 706
ds@@ 706
oct 706
prompt 706
~ 706
五一 706
厘定 706
参谋长 706
各个方面 706
工业化 706
廖秀冬 706
海湾战争 706
百分之六点 706
目睹 706
终身 706
署会 706
肇@@ 706
象征 706
跌@@ 706
accords 705
curb 705
diff@@ 705
eradic@@ 705
interchange 705
painting 705
racing 705
wartime 705
典@@ 705
小册子 705
晚宴 705
泥@@ 705
逐步@@ 705
通往 705
长沙 705
0.4 704
devi@@ 704
erson 704
influential 704
kaohsiung 704
亚太区 704
原理 704
呈报 704
哪@@ 704
多元 704
巡航导弹 704
掩@@ 704
研讨 704
空运 704
broaden 703
chicken 703
ells 703
literature 703
quick@@ 703
tedly 703
utilizing 703
代表@@ 703
加拉@@ 703
红旗 703
落案 703
蓝图 703
2.6 702
absor@@ 702
compu@@ 702
deceased 702
fails 702
graphic 702
irrigation 702
pillar 702
spare 702
subscri@@ 702
亚洲@@ 702
信用卡 702
劣 702
美国国务院 702
谢长廷 702
expedi@@ 701
infring@@ 701
pharmacy 701
xiu@@ 701
一八 701
主权国家 701
二十八 701
付款 701
刘淑仪 701
地域 701
容忍 701
市场需求 701
第二个 701
肯 701
能源@@ 701
认证 701
ained 700
conv@@ 700
ean 700
engagement 700
irs 700
manufacture 700
markedly 700
researchers 700
stops 700
tail@@ 700
上下 700
互补性 700
合计 700
善用 700
四二 700
填海 700
敲@@ 700
泛@@ 700
第三十@@ 700
第五@@ 700
西安 700
郊 700
镜@@ 700
0.7 699
deploying 699
dian 699
possessing 699
stop@@ 699
surprise 699
uan 699
venezuela 699
世界杯 699
之路 699
伸@@ 699
否 699
液 699
渣@@ 699
皮 699
累积 699
航班 699
董 699
表面 699
这起 699
逼@@ 699
ae 698
cent@@ 698
sme 698
undergone 698
凶@@ 698
利亚@@ 698
国际化 698
澳门@@ 698
百分之二 698
赌@@ 698
abundant 697
concession 697
entries 697
payroll 697
za 697
东北 697
严肃@@ 697
动态 697
壮大 697
宿 697
正当 697
青山 697
饲@@ 697
180 696
350 696
bold 696
compris@@ 696
dic@@ 696
forefront 696
hungary 696
jiang@@ 696
relaxation 696
tured 696
wuhan 696
似 696
入住 696
八点 696
创建 696
历 696
服务行业 696
签 696
consist@@ 695
interfering 695
orious 695
propri@@ 695
reck@@ 695
sheng@@ 695
军事力量 695
噪音 695
容加金 695
平稳 695
泄@@ 695
社团 695
超出 695
震 695
advertisements 694
artistic 694
aying 694
compromise 694
emphasize 694
employ 694
experimental 694
guesthouse 694
matsu 694
metal@@ 694
trials 694
triggered 694
一大 694
互助 694
今晨 694
充满信心 694
前不久 694
困 694
战时 694
拜 694
掌@@ 694
树木 694
游泳池 694
空军@@ 694
第六@@ 694
轻 694
遇 694
ket 693
retro@@ 693
strain 693
三合会 693
入侵 693
双边合作 693
库区 693
弄@@ 693
无视 693
昂@@ 693
歪理邪说 693
狂 693
近几年来 693
aggressive 692
recall 692
tb 692
专利@@ 692
敬 692
cctv 691
geometric 691
pu 691
喊 691
尼斯 691
帝@@ 691
评核 691
过来 691
crash 690
gaza 690
ica 690
ignored 690
isolated 690
obligation 690
seemed 690
tsai 690
vegetables 690
京都 690
南亚 690
应变@@ 690
atic@@ 689
dges 689
diet 689
discovery 689
evalu@@ 689
petrol 689
resort 689
singer 689
世界银行 689
企 689
外汇@@ 689
植 689
涌 689
用以 689
融 689
1480 688
associate 688
bru@@ 688
resisting 688
一面 688
交涉 688
国会议员 688
地下@@ 688
大学生 688
自二 688
读者 688
贵州 688
香烟 688
irresponsible 687
porno@@ 687
tac@@ 687
unhealthy 687
中亚 687
保卫 687
大多 687
第三号 687
等于 687
项@@ 687
bei@@ 686
qinglin 686
ray 686
中东问题 686
主管部门 686
介@@ 686
优良 686
入境者 686
塔吉克斯坦 686
恢复@@ 686
敌对势力 686
深切 686
电讯局 686
蚀 686
起草 686
零件 686
cited 685
dal@@ 685
fir@@ 685
revolu@@ 685
well@@ 685
单独 685
四项 685
审计@@ 685
杨永强 685
滋@@ 685
经常性 685
脏 685
自由化 685
预警 685
alcoho@@ 684
avoiding 684
conn@@ 684
edly 684
inary 684
inated 684
shoes 684
soft@@ 684
unknown 684
一百五十 684
包含 684
国土 684
广泛@@ 684
抨击 684
综援 684
approaching 683
cease 683
epidemic 683
fong 683
sustaining 683
tioning 683
tu 683
同类 683
学科 683
必要@@ 683
斌 683
立案 683
采纳 683
attributable 682
lecture 682
norm@@ 682
substance 682
trea@@ 682
ush@@ 682
互不@@ 682
大概 682
届满 682
扩大内需 682
无限期 682
着手 682
管理体制 682
罚 682
美日 682
铭@@ 682
appreciated 681
economist 681
geograph@@ 681
peacefully 681
rc 681
二十世纪 681
五中全会 681
仅仅 681
伊斯兰@@ 681
公共卫生 681
动武 681
发展前景 681
小三通 681
帐户 681
持久 681
武警部队 681
渔业 681
第二号 681
股东 681
衰退 681
chatham 680
coordinating 680
indic@@ 680
onary 680
stan@@ 680
tighten 680
wi 680
咸道 680
商务 680
国人 680
尽力 680
抱@@ 680
支撑 680
核试验 680
格式 680
案情 680
by@@ 679
hamas 679
modes 679
契机 679
寺 679
战备 679
沿着 679
用人 679
经验@@ 679
骨干 679
context 678
harb@@ 678
implications 678
mobil@@ 678
oud 678
privately 678
steering 678
universally 678
下旬 678
专家学者 678
制造商 678
合力 678
头脑 678
工程项目 678
握@@ 678
政策措施 678
救灾 678
着眼 678
知名 678
衡量 678
贷 678
200,000 677
ackers 677
ane 677
cia 677
indicating 677
mation 677
三方 677
大浪 677
得出 677
此后 677
象@@ 677
announcing 676
apology 676
civic 676
gaining 676
ices 676
identi@@ 676
modi@@ 676
moun@@ 676
ni 676
rating 676
业及 676
交通工具 676
光荣 676
或是 676
注册处 676
电影@@ 676
租户 676
贪污 676
近几年 676
顺利进行 676
1500 675
email 675
iction 675
lieutenant 675
nepal 675
plaza 675
qaeda 675
relax 675
一百三十 675
一篇 675
中共@@ 675
伯 675
坦克 675
容量 675
怪 675
海湾 675
鲜 675
agent 674
aiming 674
anian 674
damages 674
exchanging 674
haste 674
kid@@ 674
locally 674
portugal 674
processed 674
tea 674
teen@@ 674
toll 674
wai@@ 674
东北@@ 674
九十年代 674
布希总统 674
总公司 674
珍惜 674
禁区 674
葬@@ 674
蓄@@ 674
阶级 674
acked 673
catch 673
endeav@@ 673
explosives 673
istan 673
letting 673
oce@@ 673
想法 673
教材 673
机组人员 673
求同存异 673
deduc@@ 672
dynasty 672
easing 672
exploitation 672
firm@@ 672
hot@@ 672
sarah 672
suff@@ 672
tionaries 672
一番 672
伤者 672
卷@@ 672
席位 672
忘 672
江苏 672
灰@@ 672
牟@@ 672
百分之六十 672
离不开 672
航空兵 672
译 672
锡@@ 672
9,@@ 671
conservancy 671
footing 671
kon@@ 671
kun 671
musli@@ 671
particulars 671
tae 671
transaction 671
伟大事业 671
信徒 671
挂 671
授@@ 671
海外@@ 671
瞩目 671
表示祝贺 671
1970 670
bes@@ 670
downs 670
ive 670
king@@ 670
throw 670
workshops 670
休憩 670
商用 670
核裁军 670
比如说 670
猪肉 670
相等于 670
锁@@ 670
难度 670
1.9 669
arranging 669
brussels 669
connec@@ 669
dram@@ 669
dre@@ 669
garrison 669
interception 669
powered 669
risen 669
scal@@ 669
一百一十 669
侦@@ 669
创造性 669
手术 669
故此 669
数码港 669
机械@@ 669
次数 669
海面 669
淘汰 669
百分比 669
磨@@ 669
致函 669
评论员 669
贵国 669
赤@@ 669
轰@@ 669
革 669
adequ@@ 668
bes 668
define 668
ee 668
emergence 668
indu@@ 668
souvenir 668
之用 668
型@@ 668
弥敦道 668
戒急用忍 668
最新@@ 668
桑 668
汽油 668
窗@@ 668
辛 668
近邻 668
caroline 667
catholic 667
compatible 667
consequently 667
considerably 667
oured 667
puts 667
rela@@ 667
restric@@ 667
人为 667
妇@@ 667
更具 667
杰出 667
热线电话 667
维亚 667
35@@ 666
dish 666
e.g. 666
erec@@ 666
forums 666
policemen 666
supervising 666
于本 666
出境 666
态 666
梯 666
正好 666
氧化@@ 666
诗 666
诗@@ 666
arriving 665
cn 665
conservative 665
cr 665
inqu@@ 665
lement 665
manufactured 665
measuring 665
sy@@ 665
亏@@ 665
仙@@ 665
减至 665
喷@@ 665
屠杀 665
抛出 665
核武 665
精简 665
背后 665
贩卖 665
迫使 665
除非 665
验 665
cheney 664
fp 664
sever@@ 664
terrorists 664
trag@@ 664
停留 664
出口额 664
勾结 664
奏@@ 664
恐怖分子 664
belt 663
intend 663
limit@@ 663
meant 663
tially 663
uous 663
党政 663
招 663
牧@@ 663
茶@@ 663
贮@@ 663
进军 663
通用 663
量度 663
admir@@ 662
ays 662
blueprint 662
bosnia 662
couple 662
enter@@ 662
lc 662
priorities 662
shipment 662
techn@@ 662
两国@@ 662
五岁 662
健康@@ 662
惩教署 662
捷 662
柏林 662
看出 662
allied 661
budgets 661
leads 661
valuation 661
年人 661
斐@@ 661
更要 661
柏@@ 661
流失 661
疲@@ 661
贯穿 661
转运 661
ance@@ 660
broader 660
corner 660
ented 660
nov 660
super 660
中部 660
军机 660
参阅 660
宪章 660
张建宗 660
影片 660
斯特@@ 660
老道 660
腐败@@ 660
调查队 660
邦@@ 660
骄@@ 660
albert 659
characteristic 659
consists 659
gates 659
kore@@ 659
lining 659
mediation 659
oration 659
加路 659
发挥作用 659
奔@@ 659
始终保持 659
富有 659
枝 659
特首 659
规划署 659
调整@@ 659
集团军 659
bar 658
beliefs 658
cherish 658
dma 658
floating 658
guar@@ 658
ibu@@ 658
intentions 658
occupy 658
odd 658
screening 658
sigh@@ 658
七十五 658
五次 658
按期 658
百年 658
科教兴国 658
街头 658
陆委会 658
absence 657
lowered 657
merch@@ 657
solemnly 657
tid 657
之行 657
司令部 657
婴儿 657
安宁 657
届@@ 657
废气 657
当作 657
慈善 657
战略伙伴 657
拍卖 657
此一 657
炉 657
疑虑 657
美中 657
腾@@ 657
airports 656
borders 656
day@@ 656
instruction 656
intends 656
mer 656
shiel@@ 656
urbanization 656
中级 656
任用 656
军用飞机 656
战后 656
申领 656
百分之十五 656
而已 656
赛马 656
限于 656
集体@@ 656
earned 655
eved 655
greek 655
hardcopies 655
inseparable 655
lively 655
plung@@ 655
rand@@ 655
witness 655
二战 655
伞 655
姜@@ 655
帝国主义 655
枢纽 655
群体 655
该批 655
钢铁 655
黑色 655
argo 654
dec 654
eat 654
totaling 654
unify 654
从严 654
以巴 654
军费 654
呼 654
截查 654
新建 654
知情 654
aqu@@ 653
continent 653
met@@ 653
petro@@ 653
remuneration 653
supplied 653
tour@@ 653
voc@@ 653
原定 653
定额 653
辨@@ 653
面向未来 653
accomplishing 652
blocks 652
consul@@ 652
deterrent 652
locate 652
moon 652
nal 652
nominated 652
practicable 652
ror 652
secondly 652
tem@@ 652
tiz@@ 652
veget@@ 652
zar@@ 652
下功夫 652
亚欧会议 652
传达 652
同情 652
否决 652
吹@@ 652
夫妇 652
拉动 652
撤军 652
省级 652
联席会议 652
驳@@ 652
77@@ 651
brother 651
color 651
honourable 651
irrespective 651
shak@@ 651
下滑 651
两岸人民 651
事业单位 651
减免 651
副省长 651
北区 651
反倾销 651
弄 651
感到高兴 651
权威@@ 651
理性 651
资企业 651
develops 650
intervals 650
乡镇企业 650
决赛 650
单车 650
廊 650
突破@@ 650
雅 650
derived 649
hat@@ 649
infra@@ 649
mistake 649
satur@@ 649
soong 649
spacecraft 649
star@@ 649
summed 649
transliterated 649
unwilling 649
多谢 649
封建@@ 649
崛起 649
巴尔@@ 649
市场准入 649
舱 649
衷 649
administrations 648
announces 648
clean@@ 648
educating 648
mineral 648
sect 648
transitional 648
whereabouts 648
九千 648
分开 648
止@@ 648
群岛 648
而设 648
草拟 648
输出 648
alger@@ 647
attendance 647
bounds 647
championship 647
chaos 647
composition 647
conclu@@ 647
exporting 647
expresses 647
manufactures 647
pig 647
postmaster 647
忠实 647
电厂 647
童 647
纽约@@ 647
贾庆林 647
进食 647
配额 647
龙永图 647
digest 646
discs 646
forests 646
ith 646
东至 646
办学 646
坚信 646
年报 646
扰@@ 646
晨 646
盈余 646
认知 646
atta@@ 645
divisions 645
inalienable 645
infiltr@@ 645
loo@@ 645
managerial 645
nec@@ 645
precondition 645
sor 645
southwest 645
stayed 645
党建 645
心理@@ 645
戒 645
正确认识 645
表扬 645
这家 645
阅@@ 645
admit 644
fruit 644
transforming 644
依法行政 644
国内@@ 644
汽车@@ 644
疯@@ 644
粒 644
联系@@ 644
阔 644
adv@@ 643
afghan 643
collapse 643
nets 643
organiz@@ 643
oz@@ 643
postmark 643
quantities 643
中文@@ 643
亲身 643
半个世纪 643
户口 643
拍 643
无须 643
珠 643
紧张局势 643
部长会议 643
阿拉伯@@ 643
alarm 642
ambassadors 642
criterion 642
destroying 642
elect 642
engineer 642
lion 642
nai@@ 642
objects 642
poisoning 642
reser@@ 642
soci@@ 642
个人资料 642
事态 642
人员@@ 642
依托 642
射击 642
布鲁塞尔 642
愿同 642
用品 642
茂@@ 642
零点 642
auto 641
bacter@@ 641
cautious 641
dry 641
erly 641
strateg@@ 641
一国 641
事实证明 641
刘 641
制成品 641
年均 641
找@@ 641
英雄 641
虑 641
辱 641
黑点 641
bao@@ 640
detection 640
hau 640
oked 640
tless 640
俊 640
几十年 640
国家计委 640
帝 640
幻@@ 640
心态 640
找出 640
终 640
胀 640
身体@@ 640
arrogance 639
gu 639
hero@@ 639
icians 639
lined 639
reve@@ 639
sponsor@@ 639
succession 639
tracking 639
zz@@ 639
六月份 639
参议员 639
国家经贸委 639
基说 639
夺取 639
当事人 639
悉@@ 639
报刊 639
稳健 639
营业@@ 639
西藏自治区 639
谱 639
践踏 639
辩 639
适宜 639
99@@ 638
bid@@ 638
expose 638
ison 638
qualification 638
东方 638
作好 638
大战 638
律 638
德拉 638
技@@ 638
568 637
esting 637
plb 637
protests 637
quan@@ 637
rap 637
参选 637
所有制 637
甸@@ 637
税务局 637
邮报 637
锐 637
avoided 636
chemicals 636
developers 636
earnings 636
ele@@ 636
enrich 636
enrol@@ 636
georg@@ 636
lifted 636
plying 636
responded 636
scientifically 636
zu 636
二月份 636
卓有成效 636
增设 636
愤慨 636
操 636
江苏@@ 636
渠 636
电话@@ 636
青衣 636
首日封 636
appoint 635
banning 635
cies 635
jung 635
license 635
moftec 635
recover 635
reliance 635
slowdown 635
suited 635
workplace 635
上级 635
保卫@@ 635
党的基本 635
政委 635
染 635
租约 635
里程碑 635
阻 635
阿拉法特 635
afo@@ 634
celebr@@ 634
renovation 634
事馆 634
修建 634
储 634
邮件 634
顺差 634
预防措施 634
chan@@ 633
fines 633
mix 633
motives 633
pledge 633
spy 633
yip 633
中毒 633
伊斯兰 633
增加@@ 633
大力@@ 633
循 633
耶@@ 633
著@@ 633
< 632
detention 632
iding 632
informationization 632
ond@@ 632
otech@@ 632
scre@@ 632
亲属 632
内在 632
受贿 632
学童 632
常规 632
效能 632
神圣 632
第九@@ 632
这件 632
ala 631
assign@@ 631
dental 631
enforcing 631
hos 631
inquiry 631
representation 631
rock 631
townships 631
translation 631
unceasingly 631
内政@@ 631
回归祖国 631
固 631
痛苦 631
稳步 631
粮食@@ 631
accompl@@ 630
assault 630
defeated 630
disgu@@ 630
possesses 630
submissions 630
十二岁 630
同步 630
徽@@ 630
扩阔 630
操作@@ 630
款@@ 630
淫@@ 630
顾及 630
43@@ 629
assuming 629
connot@@ 629
disciplined 629
dium 629
offici@@ 629
standardizing 629
修正 629
全国人民代表大会 629
双 629
四国 629
垒 629
末@@ 629
毫米 629
疗@@ 629
胁@@ 629
集中力量 629
0.6 628
333 628
aggrav@@ 628
compl@@ 628
conven@@ 628
deception 628
demobilized 628
differen@@ 628
doctr@@ 628
ferti@@ 628
gram@@ 628
incentive 628
polarization 628
restoration 628
sexual 628
straight 628
ugc 628
unilateral 628
yon@@ 628
七名 628
三月份 628
不能不 628
中断 628
感兴趣 628
拥@@ 628
摸@@ 628
放缓 628
斯特 628
新纪元 628
朝着 628
栋 628
殖 628
翠@@ 628
莱 628
菜 628
蔡 628
请求 628
anticipated 627
colli@@ 627
constituted 627
contam@@ 627
conversion 627
frozen 627
grap@@ 627
instrument 627
tragedy 627
一中 627
二六 627
些@@ 627
化工 627
多样化 627
天气情况 627
开通 627
汉城 627
电单车 627
破获 627
聪@@ 627
通告 627
邮政@@ 627
酒店业 627
1984 626
6,000 626
amongst 626
arded 626
bis@@ 626
depri@@ 626
executed 626
hei 626
heroic 626
hoisted 626
kenne@@ 626
obe@@ 626
politburo 626
republicans 626
ries 626
ys@@ 626
下岗职工 626
共产@@ 626
典范 626
娜 626
应邀 626
所致 626
煤矿 626
舞蹈 626
battles 625
california 625
classification 625
fat@@ 625
meth@@ 625
metr@@ 625
railways 625
shocked 625
sick 625
傍晚 625
大力支持 625
宗教信仰 625
展览@@ 625
忙 625
摆 625
最快 625
梅 625
沙士 625
祥@@ 625
脸 625
顽@@ 625
8,000 624
abet@@ 624
alities 624
cs@@ 624
earliest 624
intermedi@@ 624
mem@@ 624
serv 624
thinks 624
九八年 624
六六 624
列明 624
劫@@ 624
城乡 624
廉政@@ 624
来往 624
汉 624
爵@@ 624
稳 624
联会 624
解放军@@ 624
辽宁省 624
重新@@ 624
非公有制 624
defence 623
dispers@@ 623
helpers 623
instruc@@ 623
sampling 623
严密 623
分行 623
厕 623
均会 623
基准 623
大肆 623
室内 623
帮@@ 623
循@@ 623
抽取 623
拍摄 623
构成威胁 623
浅@@ 623
现于 623
纯文字 623
谷@@ 623
跃 623
commentator 622
contracting 622
forestry 622
kill 622
largely 622
slow@@ 622
tar@@ 622
tunnels 622
wol@@ 622
亲王 622
剥夺 622
卫生部 622
坚持不懈 622
支票 622
既定 622
海水 622
病房 622
科威特 622
耕地 622
限额 622
领导小组 622
bribery 621
fostering 621
kit@@ 621
mideast 621
shake 621
一流 621
六方会谈 621
婚@@ 621
定于 621
常务副 621
弊 621
得知 621
按年 621
支路 621
整 621
杯 621
潮@@ 621
百分之四 621
谊 621
贿赂 621
马英九 621
高峰会 621
黎巴嫩 621
863 620
allowances 620
conferences 620
fulness 620
spite 620
sri 620
widening 620
中华人民共和国政府 620
北南 620
咭 620
梦 620
污 620
香港大学 620
47@@ 619
evident 619
faith@@ 619
fe 619
gm@@ 619
heights 619
neighb@@ 619
pipeline 619
will@@ 619
保育 619
宽 619
岸@@ 619
李铁映 619
督察 619
肃 619
embodied 618
scenes 618
smuggled 618
trad@@ 618
want@@ 618
四号 618
宏 618
巨额 618
强国 618
洁 618
调控 618
赠@@ 618
远远 618
避 618
骨 618
appro@@ 617
comple@@ 617
faction 617
gene@@ 617
inspir@@ 617
institu@@ 617
lots 617
pass@@ 617
promising 617
reciproc@@ 617
stabil@@ 617
submission 617
thk 617
不惜 617
何种 617
十月份 617
卡拉 617
家居 617
愿@@ 617
短缺 617
社区@@ 617
紧密联系 617
表示@@ 617
贫穷 617
针 617
2.2 616
arabia 616
chiu 616
kel@@ 616
rounds 616
victories 616
会议展览 616
唐 616
契约 616
想到 616
抵京 616
期货 616
河南 616
深入调查 616
百分之七点 616
签字仪式 616
管局 616
讨 616
赴@@ 616
遭遇 616
阿拉@@ 616
approached 615
attributed 615
chuen 615
dao@@ 615
drinking 615
ev 615
ore 615
questi@@ 615
sist@@ 615
specialist 615
公署 615
单张 615
奴@@ 615
目的地 615
社会化 615
紧迫感 615
赖斯 615
object 614
organising 614
rampant 614
spo@@ 614
副会长 614
叶澍 614
多种形式 614
数月 614
百分之七 614
积极支持 614
迪士尼 614
0.8 613
fled 613
fulfillment 613
mapping 613
pru@@ 613
windows 613
三四 613
人家 613
光辉 613
八项 613
冠@@ 613
分化 613
始终@@ 613
巡视 613
彬 613
森林 613
第二届 613
谨@@ 613
道德@@ 613
邀 613
drink 612
fold 612
ground@@ 612
instructed 612
oking 612
pione@@ 612
sugg@@ 612
tism 612
东落 612
乘坐 612
作法 612
农业部 612
堪@@ 612
殖@@ 612
王光@@ 612
补选 612
袁@@ 612
遂 612
adverti@@ 611
dogs 611
rush 611
son@@ 611
unlawful 611
会后 611
坚决@@ 611
搜索 611
故意 611
玛 611
球场 611
赤柱 611
4.5 610
currencies 610
diverse 610
enacted 610
grand@@ 610
herself 610
multipolarization 610
usage 610
入场 610
名字 610
外发 610
接见 610
收看 610
有所改善 610
牛 610
粮@@ 610
联手 610
蔬菜 610
贝尔@@ 610
风气 610
ach 609
lik@@ 609
publicize 609
rop@@ 609
tch 609
七天 609
九龙城 609
促成 609
及早 609
对华关系 609
正视 609
波动 609
肩负@@ 609
马列主义 609
calm 608
deliberation 608
doubts 608
shin@@ 608
themes 608
一九九 608
一致@@ 608
严惩 608
作出努力 608
偿还 608
八八 608
凡@@ 608
夕 608
实地 608
最具 608
电视节目 608
1,500 607
bou@@ 607
complement 607
correctional 607
handic@@ 607
helpful 607
hkmc 607
mount 607
supplement 607
tennis 607
一九九四年 607
另一名 607
家中 607
敦 607
整改 607
监察@@ 607
统战@@ 607
颇@@ 607
2.7 606
educated 606
explored 606
heartfelt 606
illustr@@ 606
ple 606
stor@@ 606
thri@@ 606
二万 606
二点 606
同年 606
多月 606
女儿 606
幼稚园 606
父 606
肉类 606
蒲@@ 606
藉以 606
author@@ 605
device 605
flower 605
freely 605
hang@@ 605
ishan 605
kei 605
qu 605
sitting 605
sort 605
哲学 605
啦 605
天津@@ 605
尖 605
日程 605
水警 605
海军@@ 605
点五 605
首个 605
advertising 604
der@@ 604
leg 604
rit@@ 604
visitor 604
中纪委 604
伴@@ 604
作家 604
午餐会 604
战犯 604
猪 604
生存@@ 604
编辑 604
美国国防部 604
cultivated 603
dat@@ 603
drag@@ 603
edy 603
enthusiastically 603
extric@@ 603
roc@@ 603
seekers 603
subordinate 603
zambi@@ 603
传出 603
佛教 603
多层次 603
宏伟@@ 603
寿 603
承受 603
散布 603
没收 603
湖北 603
神盾 603
维多利亚 603
街及 603
ects 602
grati@@ 602
rea@@ 602
vladimir 602
公会 602
前沿 602
壳 602
妨碍 602
己@@ 602
巴利 602
市场机制 602
技术人员 602
报复 602
涛 602
看望 602
硫 602
阳市 602
高等法院 602
170 601
bookorder 601
commemorative 601
electors 601
eled 601
emerge 601
intellectuals 601
prov@@ 601
tal 601
unfair 601
voted 601
充满@@ 601
冰 601
华府 601
发展趋势 601
异常 601
手提 601
映 601
核心@@ 601
流域 601
浙江省 601
渠@@ 601
特使 601
社会科学 601
糖@@ 601
识别 601
调研 601
bench@@ 600
chilean 600
criticize 600
diplomats 600
essing 600
pret@@ 600
treasure 600
不幸 600
八一 600
冲绳 600
去年底 600
发电 600
商品@@ 600
外资企业 600
奉献 600
恒 600
执法人员 600
护士 600
曾于 600
杀人 600
第二期 600
节省 600
评级 600
该局 600
诸如 600
霸 600
3.2 599
camer@@ 599
diplom@@ 599
dozens 599
imposing 599
ladies 599
mot@@ 599
quicken 599
tful 599
turing 599
ured 599
yongtu 599
亚太@@ 599
叙@@ 599
妄图 599
核实 599
特别@@ 599
策@@ 599
股权 599
赌博 599
顾问公司 599
香港回归 599
accus@@ 598
bon 598
ek 598
heavily 598
indicators 598
stabilize 598
tness 598
treating 598
一年@@ 598
名额 598
囚犯 598
尽速 598
战斗@@ 598
指挥官 598
核查 598
福祉 598
设法 598
载列 598
academics 597
dul@@ 597
featuring 597
一期 597
传统产业 597
公吨 597
出院 597
拔@@ 597
推迟 597
琼@@ 597
稳妥 597
给@@ 597
越南@@ 597
轿车 597
邪@@ 597
> 596
buil@@ 596
mh 596
portal 596
sabotage 596
sentiments 596
worse 596
worst 596
与时@@ 596
二时 596
侨 596
修复 596
入息 596
创新能力 596
国企 596
地区@@ 596
奥尔布赖特 596
显着 596
海南岛 596
灿@@ 596
门诊 596
circul@@ 595
leaves 595
ms@@ 595
polish 595
proceeded 595
summ@@ 595
tap@@ 595
vot@@ 595
云南 595
便是 595
少年 595
庇护 595
很强 595
拉夫 595
立方米 595
第九届 595
commented 594
diversi@@ 594
dom 594
editor 594
hung@@ 594
orbit 594
richard 594
tanz@@ 594
tel@@ 594
unnecessary 594
van@@ 594
一手 594
事发 594
亲民党 594
位数 594
促请 594
吁请 594
坑 594
展览会 594
技术改造 594
挪威 594
男女 594
行动@@ 594
试射 594
都市 594
预约 594
...... 593
accommodation 593
artists 593
berlin 593
brea@@ 593
expedite 593
festive 593
interviews 593
ion@@ 593
jong 593
sacrific@@ 593
shores 593
teus 593
三十三 593
专营 593
工业贸易 593
希拉克 593
年轻干部 593
微 593
政坛 593
案中 593
气温 593
求职 593
炮兵 593
竹@@ 593
米尔 593
缔造 593
首批 593
魏@@ 593
campaigns 592
divi@@ 592
facilit@@ 592
potentials 592
verification 592
vit@@ 592
人质 592
伟大旗帜 592
出色 592
原则上 592
台湾岛 592
外判 592
检察院 592
水利 592
行使@@ 592
ician 591
instig@@ 591
orium 591
patterns 591
premium 591
rat@@ 591
totaled 591
人民代表大会 591
学术@@ 591
氛围 591
盟友 591
行事 591
辐射 591
述@@ 591
argument 590
cell@@ 590
cubic 590
dest@@ 590
distingu@@ 590
escor@@ 590
incurred 590
patrick 590
rolling 590
surpris@@ 590
swit@@ 590
中山 590
孤立 590
建筑工程 590
得逞 590
总站 590
持续增长 590
登革热 590
积 590
章程 590
贿@@ 590
10% 589
caf@@ 589
cape 589
care@@ 589
consulting 589
flow@@ 589
fronts 589
harbor 589
luk 589
penalties 589
pride 589
优惠政策 589
墓 589
实事 589
总政治部 589
成衣 589
控告 589
无意 589
珍@@ 589
笼 589
缓慢 589
肩负 589
exclusively 588
fuels 588
grateful 588
inhab@@ 588
medal 588
sum@@ 588
xing@@ 588
七月份 588
两份 588
仍会 588
份额 588
会为 588
冶@@ 588
基石 588
工商局 588
摄影 588
曾培炎 588
竭@@ 588
裁处 588
诞@@ 588
返港 588
震惊 588
2.8 587
clothes 587
floods 587
generate 587
hello 587
俄方 587
卜@@ 587
屋苑 587
总统大选 587
提请 587
有利条件 587
歧@@ 587
流量 587
消毒 587
翰 587
西岸 587
视野 587
调配 587
通货膨胀 587
300,000 586
flows 586
heat 586
heighten 586
ient 586
kad@@ 586
switch 586
世界大战 586
之初 586
交回 586
宿@@ 586
峰@@ 586
竭力 586
鞋@@ 586
ax@@ 585
dialec@@ 585
ender 585
express@@ 585
highlight 585
honorary 585
ira@@ 585
know@@ 585
mobility 585
sticks 585
vest@@ 585
佛州 585
切身利益 585
宴@@ 585
尽可能 585
授予 585
收受 585
浪费 585
红军 585
规格 585
非常高兴 585
arrears 584
contrast 584
emancipate 584
mobilized 584
speakers 584
不当 584
主办@@ 584
南区 584
壤 584
小贩 584
策略性 584
综合@@ 584
闪@@ 584
零年 584
驶入 584
asem 583
barg@@ 583
dispatch 583
drastic 583
guan@@ 583
neighbor 583
ps@@ 583
rol@@ 583
rot@@ 583
timing 583
二十多年 583
件@@ 583
四月份 583
尽量避免 583
曲折 583
杂项 583
经济特区 583
老百姓 583
脱离 583
贫困@@ 583
运动@@ 583
进攻 583
advantageous 582
ambul@@ 582
guarding 582
lake 582
sla@@ 582
tis 582
候 582
公司@@ 582
剥@@ 582
发表@@ 582
回报 582
密切合作 582
弃置 582
求助 582
沈国放 582
海峡 582
等待 582
绘@@ 582
考察@@ 582
自动化 582
论证 582
阻挡 582
难得 582
delighted 581
travellers 581
utilize 581
一笔 581
九铁 581
傅@@ 581
反省 581
园区 581
大桥 581
描@@ 581
身为 581
authorised 580
congratulated 580
england 580
finan@@ 580
indoor 580
lunch 580
ngos 580
onian 580
ordination 580
rebel@@ 580
sand 580
testi@@ 580
三人 580
办好 580
国庆 580
坐 580
征状 580
愤怒 580
此时 580
殷@@ 580
种族@@ 580
自治@@ 580
荷 580
2869 579
29.@@ 579
crops 579
hs 579
obstacle 579
publish 579
responding 579
sig@@ 579
withstand 579
坠毁 579
承包 579
抢救 579
据此 579
摩托@@ 579
漂@@ 579
煞@@ 579
艰难 579
融@@ 579
过于 579
34@@ 578
biao 578
consolidation 578
fav@@ 578
girls 578
rai@@ 578
retailers 578
trade@@ 578
truste@@ 578
三分之一 578
保守@@ 578
克罗地亚 578
吊@@ 578
立足 578
联大 578
邦交 578
jection 577
scru@@ 577
shen@@ 577
towed 577
一块 577
一枚 577
仪@@ 577
协力 577
国有经济 577
地理 577
极少数 577
毒药 577
采取有效 577
陕西 577
attractive 576
encourages 576
flag@@ 576
gro@@ 576
mort@@ 576
mping 576
poses 576
pressures 576
technicians 576
where@@ 576
丹麦 576
外交官 576
常驻 576
座@@ 576
扎扎实实 576
据称 576
时段 576
最高人民检察院 576
极力 576
独立@@ 576
玩具 576
繁荣@@ 576
ague 575
arly 575
engineers 575
fabric@@ 575
mol@@ 575
sud@@ 575
urg@@ 575
交汇处 575
切实可行 575
吴 575
囚 575
库务 575
扩充 575
有时 575
楼面 575
竟然 575
绍@@ 575
诸 575
适时 575
闹 575
2.1 574
assign 574
eous 574
euro@@ 574
icing 574
nas@@ 574
noti@@ 574
phu@@ 574
suspicious 574
thor@@ 574
tight 574
一九五@@ 574
中央人民政府 574
分之一 574
切合 574
在实践中 574
广播局 574
惯@@ 574
消灭 574
让步 574
负有 574
隔离 574
黑钱 574
ailing 573
cooked 573
diligently 573
literary 573
measured 573
mor 573
outlet 573
pot 573
whoever 573
为例 573
争夺 573
二四 573
唯物@@ 573
圣 573
大部份 573
安哥拉 573
指挥员 573
民营 573
渗@@ 573
珍 573
登上 573
相处 573
carnival 572
construct 572
defendants 572
eting 572
hiv 572
kets 572
pleaded 572
profession@@ 572
unlikely 572
uzbekistan 572
函 572
各大 572
姓名 572
最初 572
档位 572
治国 572
液@@ 572
版本 572
牢牢 572
篮@@ 572
违法行为 572
affili@@ 571
dismissed 571
expositions 571
geological 571
home@@ 571
incoming 571
invigor@@ 571
porters 571
underway 571
一股 571
从严治党 571
失误 571
媒体@@ 571
峡 571
教资会 571
旦 571
衍@@ 571
账 571
路子 571
baby 570
forecasts 570
hrs 570
inferior 570
ino 570
mes 570
onism 570
pudong 570
rac@@ 570
set@@ 570
下调 570
举动 570
报告@@ 570
政客 570
梭 570
水利@@ 570
蛋 570
跑@@ 570
路口 570
顺应 570
c. 569
chip 569
commenced 569
crashed 569
flour@@ 569
handful 569
nongovernmental 569
termination 569
yed 569
不知 569
些年来 569
信赖 569
御@@ 569
普遍@@ 569
暴力@@ 569
构筑 569
聘@@ 569
裁军 569
装甲@@ 569
负面影响 569
身穿 569
违法@@ 569
面目 569
aired 568
bag 568
briefings 568
colin 568
itor 568
milli@@ 568
painstaking 568
politici@@ 568
thre@@ 568
广大党员 568
旱@@ 568
核证 568
根本性 568
简报 568
ancing 567
dissemin@@ 567
dog 567
escape 567
gnp 567
shatin 567
take@@ 567
tent@@ 567
than@@ 567
何志平 567
信息战 567
医护 567
博 567
奖项 567
恰当 567
政法@@ 567
旦@@ 567
旱 567
秘鲁 567
fraudulent 566
guine@@ 566
holder 566
ltd. 566
rev@@ 566
sic 566
三七 566
人才培养 566
区别 566
四十八 566
夺得 566
流行 566
第三届 566
荣誉 566
钩 566
镜 566
集邮 566
雾 566
36@@ 565
braz@@ 565
conserv@@ 565
feet 565
heaven 565
lectures 565
maj@@ 565
seconds 565
stants 565
through@@ 565
tong@@ 565
两宗 565
也好 565
八号 565
外经贸 565
太平洋@@ 565
开幕典礼 565
忘@@ 565
研 565
篇章 565
认 565
麦 565
鼓 565
dangers 564
objec@@ 564
persistent 564
slogan 564
亦会 564
安老院 564
拖走 564
根源 564
横过 564
缴交 564
选举@@ 564
遗产 564
0.9 563
1983 563
33@@ 563
centralized 563
clinic 563
headway 563
healthcare 563
kni@@ 563
lessly 563
may@@ 563
mb@@ 563
nigh@@ 563
peter 563
signat@@ 563
stabilizing 563
ults 563
watched 563
冻结 563
区域合作 563
期徒刑 563
段@@ 563
竞投 563
苑 563
行车@@ 563
讯@@ 563
递@@ 563
金融业 563
5.5 562
deadlock 562
islam@@ 562
liqu@@ 562
max@@ 562
pati@@ 562
prestige 562
yuk 562
八十年代 562
剩@@ 562
华盛顿@@ 562
台湾人 562
坦诚 562
幅@@ 562
拯救 562
派员 562
蓬勃发展 562
走私案 562
重任 562
aggregate 561
ethical 561
observ@@ 561
passive 561
prudent 561
sentences 561
中央纪委 561
以南 561
姚@@ 561
少将 561
情形 561
扁 561
教会 561
潜 561
针@@ 561
阅读 561
capital@@ 560
huai 560
joins 560
reimbur@@ 560
sugar 560
不良 560
亨 560
克斯 560
凡是 560
尼亚@@ 560
抉择 560
拉夫@@ 560
爱好@@ 560
盈@@ 560
走廊 560
遣返 560
须于 560
马克 560
鹰 560
acquisition 559
ern 559
factions 559
gangs 559
hou 559
manual 559
practic@@ 559
racial 559
recession 559
surve@@ 559
symbol 559
ti 559
understandings 559
吞@@ 559
图片 559
屠宰 559
引人@@ 559
早就 559
时作 559
更多@@ 559
联军 559
肥 559
获发 559
财政部长 559
路政 559
closures 558
compar@@ 558
economists 558
elders 558
exag@@ 558
horiz@@ 558
ible 558
inspec@@ 558
shap@@ 558
teach 558
zhan 558
井@@ 558
半个 558
备受 558
孝@@ 558
安生 558
慢@@ 558
技 558
抢劫 558
携@@ 558
政协委员 558
既然 558
烂 558
百分之十四 558
直航 558
眼光 558
解放军报 558
遗留@@ 558
astr@@ 557
clique 557
lation 557
legislators 557
offset 557
pain 557
tensions 557
usa 557
传输 557
军火 557
困@@ 557
增收 557
夫斯基 557
奥委会 557
小康@@ 557
小组@@ 557
年会 557
必需 557
曼谷 557
立刻 557
美俄 557
色彩 557
隶@@ 557
高层次 557
黑龙@@ 557
105 556
chiefs 556
ford 556
master@@ 556
peiyan 556
proceeds 556
some@@ 556
whereby 556
中心@@ 556
乙类 556
入学 556
堕@@ 556
必然@@ 556
斗@@ 556
消极 556
渝 556
百分之六 556
瞻@@ 556
稳固 556
调查报告 556
carri@@ 555
constructed 555
embrace 555
executives 555
expense 555
mun@@ 555
pays 555
prev@@ 555
spur 555
unfol@@ 555
vigilant 555
周边国家 555
塘@@ 555
抑制 555
自我@@ 555
辽宁 555
高等@@ 555
addicts 554
indefinitely 554
juven@@ 554
lacks 554
oi 554
ouring 554
py@@ 554
strugg@@ 554
三峡工程 554
上去 554
仿@@ 554
会员国 554
党委书记 554
坑@@ 554
抗旱 554
楼花 554
正义@@ 554
爱国@@ 554
转业干部 554
间谍 554
1949 553
approving 553
commemorate 553
cra@@ 553
global@@ 553
huai@@ 553
journal 553
plac@@ 553
readjusting 553
songs 553
世纪@@ 553
景气 553
杭@@ 553
江西 553
皇 553
省份 553
第五次 553
行列 553
陕@@ 553
budd@@ 552
congestion 552
dan@@ 552
dp@@ 552
ea 552
favored 552
ga 552
hinterland 552
inte@@ 552
pet 552
setbacks 552
stimul@@ 552
wast@@ 552
wind@@ 552
优势@@ 552
国企改革 552
大力加强 552
尊@@ 552
所在@@ 552
款待 552
滋扰 552
贪@@ 552
辛格 552
造就 552
陈方 552
雷斯 552
3.1 551
acknowle@@ 551
adds 551
aining 551
concep@@ 551
delayed 551
drills 551
incorporating 551
infringement 551
nish 551
reserving 551
reviews 551
rumors 551
sem@@ 551
st. 551
tial 551
uploaded 551
不上 551
优秀人才 551
兑换 551
堵@@ 551
多来 551
式@@ 551
形容 551
忽@@ 551
慰 551
斯坦 551
最低@@ 551
海运 551
绿 551
而港 551
贬值 551
cel 550
confu@@ 550
deny 550
loyal 550
之旅 550
五月份 550
人口普查 550
劫案 550
坚定@@ 550
完结 550
居所 550
应变 550
心中 550
油站 550
湖南 550
设定 550
equally 549
fif@@ 549
injury 549
java 549
optimize 549
port@@ 549
robert 549
skill 549
不想 549
两家 549
体育馆 549
俗 549
大肠杆菌 549
密度 549
径@@ 549
晚上十 549
杆 549
欢迎仪式 549
活动@@ 549
诈骗 549
锦标赛 549
arre@@ 548
captured 548
crises 548
eling 548
encounter 548
ensured 548
ention 548
execu@@ 548
morality 548
personalities 548
removing 548
retali@@ 548
vian 548
之处 548
争论 548
射程 548
灾民 548
真相 548
窝 548
笑@@ 548
管理制度 548
结构@@ 548
财政收入 548
贯彻执行 548
迎来 548
approaches 547
eter@@ 547
eway 547
harmon@@ 547
investigators 547
litig@@ 547
pav@@ 547
processes 547
refuses 547
scr@@ 547
sustain 547
三地 547
八五 547
城乡@@ 547
墨@@ 547
威尔斯 547
尘@@ 547
授 547
界定 547
相互理解 547
相撞 547
立足@@ 547
consul 546
continental 546
cu 546
jewellery 546
partly 546
ree 546
refusing 546
一百八十 546
均衡 546
天下 546
崔@@ 546
救治 546
民意调查 546
沈阳 546
行政区 546
表彰 546
言行 546
陵@@ 546
默 546
7.5 545
app@@ 545
comfort 545
dissatisfaction 545
iness 545
maker 545
临时@@ 545
义工 545
颇 545
atomic 544
confusion 544
conscientious 544
donations 544
wash@@ 544
保加利亚 544
司法机关 544
大学@@ 544
大队 544
工程署 544
店@@ 544
弥@@ 544
挺 544
热情@@ 544
百分之十二 544
第六次 544
迷信 544
顺利@@ 544
aj@@ 543
anth@@ 543
countermeasures 543
ests 543
fan@@ 543
hara 543
inspecting 543
ired 543
manipul@@ 543
parallel 543
targeting 543
transmitted 543
undermined 543
vicious 543
全区 543
勃@@ 543
参 543
号召 543
局部战争 543
平方公里 543
换证 543
服从 543
珍视 543
知识分子 543
示威@@ 543
罚@@ 543
职系 543
蔽 543
详细资料 543
长达 543
龄@@ 543
220 542
ballot 542
embodies 542
histor@@ 542
peacetime 542
plateau 542
practi@@ 542
romanian 542
soli@@ 542
sophisticated 542
uniform 542
verse 542
巨大@@ 542
法律责任 542
甫 542
肥@@ 542
边界@@ 542
05@@ 541
availability 541
bangladesh 541
bow@@ 541
sty 541
亚洲地区 541
俄美 541
决战 541
减税 541
受损 541
地铁站 541
婚姻 541
生意 541
百分之八 541
相若 541
碎 541
第一期 541
鉴 541
dependent 540
determin@@ 540
enligh@@ 540
married 540
pas@@ 540
preservation 540
subhead 540
sympathy 540
tolerate 540
utilized 540
先前 540
垂@@ 540
处处长 540
大堂 540
妇女@@ 540
忆@@ 540
攻 540
雀@@ 540
chair 539
destination 539
discrimin@@ 539
enses 539
hosp@@ 539
immd 539
ird 539
jailed 539
peti@@ 539
sacri@@ 539
兹@@ 539
匪 539
后者 539
困扰 539
惩处 539
掀起 539
文书 539
有用 539
本报讯 539
水准 539
社会秩序 539
资金@@ 539
途中 539
analyses 538
anese 538
business@@ 538
clarify 538
concentration 538
conjunction 538
consultants 538
displaying 538
gotten 538
indiscrimin@@ 538
inmates 538
oth 538
ranked 538
tieying 538
william 538
一九六@@ 538
常会 538
民事 538
痴@@ 538
百分之一 538
虐待 538
驻美 538
abled 537
dig@@ 537
elder 537
resor@@ 537
偶@@ 537
军事战略 537
几 537
得不到 537
某种 537
柱@@ 537
百姓 537
绝不能 537
诉@@ 537
devis@@ 536
fans 536
god 536
stret@@ 536
success@@ 536
tudes 536
伊拉克@@ 536
学说 536
律@@ 536
担负 536
极端@@ 536
毫不@@ 536
电路 536
锻炼 536
archit@@ 535
enforced 535
miss@@ 535
neighbor@@ 535
profile 535
rockets 535
successive 535
升高 535
挫 535
支部 535
施 535
样子 535
核能 535
武汉 535
租用 535
缺少 535
胸@@ 535
自豪 535
警示 535
* 534
1960 534
3.8 534
authorization 534
awa@@ 534
blin@@ 534
cles 534
enced 534
endless 534
indication 534
martyrs 534
共产主义 534
广州@@ 534
扣留 534
掩盖 534
榜样 534
调低 534
coach 533
craf@@ 533
distinct 533
encies 533
imminent 533
ingu@@ 533
kov 533
pra@@ 533
restored 533
transformed 533
varieties 533
voiced 533
亩 533
人权委员会 533
发表意见 533
君 533
杜马 533
碑 533
莫 533
预备@@ 533
aggres@@ 532
bir@@ 532
engine 532
hou@@ 532
jurisdictions 532
laun@@ 532
sim@@ 532
vert 532
vulner@@ 532
woo 532
保持@@ 532
最高法院 532
朝美 532
毕竟 532
沿海地区 532
源远流长 532
频道 532
asser@@ 531
assessing 531
chin 531
countryside 531
excluding 531
hsu 531
launches 531
onally 531
parade 531
pling 531
recruit 531
refrain 531
secured 531
shareholders 531
troubles 531
window 531
冠 531
开放日 531
戒毒 531
捡 531
械 531
渐进 531
生命力 531
证人 531
赈@@ 531
部委 531
discover 530
manship 530
mb 530
moldo@@ 530
mouth 530
porting 530
regulated 530
retraining 530
unauthorized 530
吊销 530
濒@@ 530
缴纳 530
美丽 530
账@@ 530
路面 530
activ@@ 529
barrels 529
behaviors 529
clashes 529
confronted 529
diversity 529
gentlemen 529
ner@@ 529
pap@@ 529
precau@@ 529
raids 529
sister 529
tien 529
tled 529
传送 529
你@@ 529
共和 529
双边贸易 529
发给 529
哲 529
垃圾@@ 529
居留权 529
总领事 529
打电话 529
日来 529
时应 529
期刊 529
模 529
民警 529
浮 529
消防 529
老朋友 529
自卫队 529
记得 529
贺 529
顿@@ 529
andrew 528
congres@@ 528
enters 528
fest 528
impro@@ 528
intermediary 528
ounce 528
pron@@ 528
purely 528
share@@ 528
全球性 528
券@@ 528
威慑 528
董事会 528
虽@@ 528
裤 528
谈会 528
购物 528
酒会 528
bann@@ 527
explosions 527
intru@@ 527
nominations 527
pertinent 527
portuguese 527
secretly 527
人生观 527
受助 527
地方@@ 527
工作作风 527
恨 527
损 527
撤离 527
无数 527
法律援助 527
百分之九十 527
票价 527
筹划 527
细菌 527
统计资料 527
荣毅仁 527
constituency 526
explorations 526
fic@@ 526
geared 526
nuis@@ 526
officiating 526
overcoming 526
receipt 526
reinforcing 526
sm 526
unfortun@@ 526
再次@@ 526
区域@@ 526
十二月份 526
心情 526
总之 526
愚@@ 526
拟定 526
疑犯 526
组长 526
退税 526
铭 526
长江 526
2.30 525
concluding 525
deterioration 525
exemp@@ 525
gnant 525
suits 525
walking 525
一月份 525
五千元 525
印度尼西亚 525
固定资产 525
姜春云 525
宾馆 525
快速@@ 525
掌 525
热烈@@ 525
畜 525
知名@@ 525
翔 525
返 525
间接 525
预算@@ 525
首届 525
atti@@ 524
aven@@ 524
bulgaria 524
croatia 524
experiment 524
intercept 524
ital 524
landscape 524
oring 524
pur 524
recover@@ 524
stered 524
walls 524
一百零@@ 524
丙类 524
乙@@ 524
从此 524
受益 524
四川省 524
怎么样 524
怡 524
排放量 524
文艺@@ 524
此机会 524
歼@@ 524
王忠禹 524
访客 524
administer 523
akes 523
bridges 523
comb@@ 523
elementary 523
hardships 523
hegemon@@ 523
humili@@ 523
orchestra 523
prosecutions 523
shang@@ 523
surg@@ 523
东盟@@ 523
内蒙古 523
分散 523
剑 523
愈来@@ 523
拟议 523
本社 523
武警 523
番 523
议席 523
送达 523
颖@@ 523
02@@ 522
begins 522
csb 522
delivering 522
eastward 522
emancip@@ 522
eously 522
hab 522
methodology 522
mongolian 522
sees 522
simil@@ 522
starts 522
ticket 522
tings 522
verdict 522
冷 522
参谋@@ 522
响应 522
奋斗目标 522
所述 522
投票站 522
捷@@ 522
施压 522
杀伤@@ 522
民调 522
湿地 522
率团 522
电子邮件 522
管理工作 522
职人员 522
胡长清 522
贾 522
遏止 522
高速公路 522
黎 522
accountable 521
ayan 521
bos@@ 521
confiscated 521
consequ@@ 521
contributing 521
fires 521
fred@@ 521
ight 521
matic 521
reasonably 521
shelter 521
shuttle 521
tables 521
tox@@ 521
养老@@ 521
农牧@@ 521
制度@@ 521
吸纳 521
四大 521
在发言中 521
岁@@ 521
放置 521
教徒 521
毕@@ 521
短片 521
研究会 521
canc@@ 520
corro@@ 520
heung 520
jail 520
koo 520
mn@@ 520
remedi@@ 520
tted 520
到处 520
协同 520
句@@ 520
四至 520
弟@@ 520
查办 520
水库 520
渔民 520
焦@@ 520
税款 520
节水 520
讲述 520
钦佩 520
马场 520
advisers 519
attle 519
boundaries 519
burg@@ 519
isco 519
merit 519
oth@@ 519
simulated 519
zer 519
屿 519
手头 519
渐@@ 519
盛会 519
立法院 519
缔约@@ 519
addresses 518
attaching 518
cheong 518
citing 518
database 518
eline 518
fatf 518
meticulous 518
promotes 518
span 518
subsid@@ 518
unifying 518
万个 518
五四 518
人民军队 518
侵害 518
历时 518
士学位 518
宗教界 518
宿舍 518
巴布@@ 518
当务之急 518
欠款 518
监事会 518
窃 518
舆论@@ 518
贪污@@ 518
3.6 517
cit@@ 517
contain@@ 517
eag@@ 517
gratifying 517
incor@@ 517
overnight 517
policy@@ 517
split@@ 517
一贯@@ 517
乌兹别@@ 517
乌干达 517
五天 517
公民@@ 517
利益@@ 517
团伙 517
大球场 517
奉 517
妙 517
实习 517
宾主 517
寒 517
放松 517
数列 517
无限 517
普通话 517
李少光 517
深度 517
而出 517
讲解 517
词@@ 517
踊跃 517
通信@@ 517
阶@@ 517
骨干@@ 517
amending 516
blows 516
centering 516
cler@@ 516
contacted 516
guof@@ 516
mist@@ 516
sar@@ 516
terr@@ 516
yung 516
国集团 516
多媒体 516
奖学金 516
弊@@ 516
我要 516
接轨 516
沿岸 516
珠三角 516
背 516
饮食业 516
announcers 515
choosing 515
dish@@ 515
emphasizing 515
exercised 515
jeopardi@@ 515
keynote 515
pension 515
prescri@@ 515
retained 515
sunn@@ 515
virtually 515
不法 515
决不能 515
冷静 515
务署 515
受托人 515
尼日利亚 515
怨 515
提早 515
新闻媒体 515
无线电 515
稳定@@ 515
股份@@ 515
触 515
退休@@ 515
3.4 514
appre@@ 514
ems 514
licensees 514
rejuven@@ 514
replacing 514
robust 514
tac 514
三位 514
克尔 514
单纯 514
及利亚 514
天然 514
水浸 514
纪律@@ 514
结盟 514
艺术家 514
谍@@ 514
09@@ 513
burning 513
celebrating 513
conscious 513
dev@@ 513
filed 513
inconvenience 513
priv@@ 513
tery 513
turbul@@ 513
中小 513
剩余 513
去世 513
开幕礼 513
弹药 513
搏 513
规范化 513
误解 513
跳 513
金门 513
防火 513
astronau@@ 512
deficits 512
exploit 512
hangzhou 512
inflow 512
magic 512
prohibition 512
rang@@ 512
resuming 512
terror 512
threshold 512
一百二十 512
不住 512
事物 512
充分考虑 512
安徽 512
座位 512
肃@@ 512
露出 512
abu 511
bail 511
dle 511
fing@@ 511
intent 511
mond 511
new@@ 511
nobody 511
sne@@ 511
sport 511
stead@@ 511
truck 511
truth@@ 511
tse 511
一轮 511
交代 511
倡@@ 511
军民 511
况@@ 511
创下 511
受雇 511
可谓 511
商务部 511
拉姆斯菲尔德 511
擅自 511
曾家丽 511
繁重 511
问责@@ 511
aband@@ 510
albanian 510
believ@@ 510
homeland 510
periph@@ 510
presently 510
shenzhou 510
ups 510
事后 510
六点 510
历史潮流 510
取得成功 510
失业@@ 510
导演 510
搁置 510
过度 510
金融风暴 510
频频 510
advers@@ 509
belgian 509
boldly 509
corridor 509
holdings 509
ita 509
reveal 509
substan@@ 509
不必要 509
五分 509
内战 509
性别 509
惟@@ 509
执照 509
析 509
查获 509
灭蚊 509
监督管理 509
相互信任 509
自称 509
茂 509
难者 509
革新 509
韦 509
2020 508
depic@@ 508
drama 508
encouragement 508
erick 508
harm@@ 508
ign 508
monument 508
sir 508
winner 508
一中一台 508
七五 508
参照 508
注目 508
盈利 508
纽约时报 508
辜@@ 508
进驻 508
马路 508
bloody 507
confirm 507
eager 507
ghu@@ 507
hkce@@ 507
inti@@ 507
investor 507
medals 507
metro@@ 507
mexican 507
part@@ 507
prece@@ 507
responses 507
unexpected 507
中美@@ 507
仓库 507
夜间 507
夸@@ 507
帕 507
扭转 507
拉美@@ 507
漏 507
玩 507
第四号 507
绝不会 507
臭@@ 507
预售 507
apologize 506
beauty 506
diagno@@ 506
expectation 506
images 506
jack@@ 506
livestock 506
myself 506
privacy 506
uganda 506
understands 506
九广 506
医药 506
将要 506
居留 506
工艺 506
并不@@ 506
敢于 506
深感 506
病征 506
答应 506
过剩 506
马其顿 506
ailed 505
ames 505
eland 505
existed 505
favourable 505
generating 505
guang 505
persist@@ 505
rainy 505
rowse 505
ruption 505
sely 505
stantly 505
stories 505
tablets 505
信息安全 505
光明 505
刺 505
叙 505
地段 505
壁 505
外出 505
总共 505
拖 505
新兴 505
晓 505
曾多次 505
校舍 505
混合 505
阶段性 505
陷 505
骗取 505
austin 504
divide 504
impressed 504
lef@@ 504
loaded 504
oke 504
phony 504
picked 504
promin@@ 504
roll 504
struck 504
till 504
unve@@ 504
vetting 504
一百四十 504
信件 504
办公 504
唤 504
国防大学 504
安理会常任理事国 504
幼儿 504
我谨 504
教育部 504
服用 504
武装力量 504
组织部 504
范 504
谎言 504
这番话 504
邮寄 504
霖 504
buyers 503
entment 503
favor@@ 503
grim 503
lity 503
ome@@ 503
placement 503
program@@ 503
reject 503
silk 503
ukrainian 503
zhongyu 503
举世瞩目 503
保健 503
充足 503
双方同意 503
快捷 503
排名 503
攻关 503
教主 503
毅@@ 503
羽@@ 503
脉 503
跨部门 503
这类 503
apparently 502
barrel 502
broadca@@ 502
ccp 502
clause 502
competitors 502
health@@ 502
horse 502
less@@ 502
slogans 502
中越 502
停车 502
决策@@ 502
国土@@ 502
坦 502
外国人 502
如果说 502
废 502
支队 502
深受 502
稳步@@ 502
穷 502
野战 502
aerial 501
benefited 501
comfortable 501
fifty 501
fil 501
humanity 501
jas@@ 501
op 501
recruiting 501
tricks 501
virtue 501
不仅仅 501
中医药 501
值得注意 501
兼并 501
基本方针 501
填 501
干部@@ 501
意向 501
是非 501
深层次 501
若会 501
财物 501
音乐会 501
25823025 500
bombings 500
cla@@ 500
confidential 500
definite 500
easier 500
entities 500
guid@@ 500
hil@@ 500
lease 500
militants 500
surr@@ 500
二千年 500
供给 500
占据 500
毗@@ 500
污染物 500
管理层 500
纪念封 500
过后 500
颜@@ 500
餐厅 500
alban@@ 499
dged 499
emperor 499
expecting 499
honesty 499
isolation 499
platforms 499
preser@@ 499
rich@@ 499
stag@@ 499
tim 499
tours 499
一并 499
全力支持 499
广大群众 499
扬言 499
捞 499
民兵 499
澳门特别行政区 499
私烟 499
醒 499
金牌 499
阮@@ 499
阴谋 499
38@@ 498
arming 498
celebrations 498
compens@@ 498
diversion 498
hostility 498
lot@@ 498
mul@@ 498
salv@@ 498
seasonal 498
tin@@ 498
中华人民共和国@@ 498
全日制 498
公升 498
动工 498
历史使命 498
商定 498
家园 498
承包@@ 498
欢迎@@ 498
粹 498
耶路撒冷 498
鲁 498
64@@ 497
accumul@@ 497
ament 497
argent@@ 497
bally 497
chur@@ 497
color@@ 497
dedication 497
duration 497
embo@@ 497
fewer 497
icul@@ 497
oner 497
preci@@ 497
referendum 497
retr@@ 497
soe 497
spirits 497
unilaterally 497
不适 497
中国香港 497
军委 497
危及 497
奈@@ 497
屠@@ 497
工委 497
捐款 497
池@@ 497
重大意义 497
beauti@@ 496
controversi@@ 496
delhi 496
firearms 496
furthering 496
harv@@ 496
pw 496
quo 496
riding 496
stimulating 496
tenure 496
toler@@ 496
供求 496
凸@@ 496
动向 496
变为 496
居民@@ 496
挪@@ 496
整体素质 496
火车 496
竞赛 496
112 495
betr@@ 495
develop@@ 495
divisional 495
elimination 495
eshi@@ 495
intervene 495
ireland 495
lowering 495
openness 495
pa 495
preparedness 495
splendid 495
swiss 495
xes 495
丈夫 495
上岗 495
交谘 495
俗@@ 495
十一月份 495
存放 495
对面 495
生动 495
红十字会 495
署方 495
航空母舰 495
4000 494
absurd 494
iaea 494
junc@@ 494
realm 494
rooted 494
searching 494
tious 494
walked 494
两千 494
侦破 494
侧 494
励@@ 494
卸 494
参与@@ 494
嘉年@@ 494
四条 494
基础性 494
大城市 494
天主教 494
对峙 494
幸 494
忧 494
指挥部 494
真是 494
误导 494
闯@@ 494
香 494
dor@@ 493
eful 493
explicit 493
fastest 493
ide@@ 493
jour@@ 493
medic@@ 493
negotiate 493
proficiency 493
superintendent 493
temp@@ 493
tre@@ 493
一律 493
中介@@ 493
之风 493
价值@@ 493
会谈@@ 493
四千@@ 493
将近 493
局部 493
心里 493
执意 493
操纵 493
杨洁篪 493
水湾 493
趋向 493
重返 493
阿布@@ 493
camps 492
excess 492
legislature 492
surrender 492
symbo@@ 492
不行 492
人防 492
作物 492
恒@@ 492
拉萨 492
短暂 492
绕道 492
蓝色 492
首席@@ 492
驻华@@ 492
182 491
adopts 491
analyzing 491
austrian 491
birth@@ 491
cp 491
deterior@@ 491
earth@@ 491
essentially 491
evacu@@ 491
explanations 491
outdated 491
stern 491
不错 491
中药 491
主礼 491
凝@@ 491
协会@@ 491
四十五 491
当场 491
徽 491
无人 491
晚间 491
校园 491
胎 491
落到实处 491
行之有效 491
辟 491
进出 491
20% 490
depos@@ 490
distorted 490
harmed 490
insid@@ 490
journalist 490
languages 490
matches 490
quotas 490
代表性 490
传递 490
信用@@ 490
刀@@ 490
学术界 490
实用 490
帐@@ 490
慕@@ 490
揽@@ 490
斯洛伐克 490
柴湾 490
泽 490
盗窃 490
运输业 490
铜@@ 490
absorb 489
affects 489
amounting 489
centered 489
conclude 489
continual 489
enlarg@@ 489
formity 489
notified 489
poten@@ 489
slight 489
一九四@@ 489
五二 489
侯@@ 489
侵略@@ 489
初级阶段 489
吨@@ 489
哈马斯 489
振 489
毫无 489
法人 489
西亚 489
郊@@ 489
钓鱼台国宾馆 489
陈述 489
administered 488
dealers 488
fb 488
instituted 488
redi@@ 488
restrict 488
spectrum 488
spired 488
中外@@ 488
倘若 488
励 488
双程 488
发动机 488
坛 488
天气@@ 488
定居 488
工会@@ 488
睹 488
科学馆 488
第一步 488
规划@@ 488
计票 488
边境地区 488
长治久安 488
administr@@ 487
announcements 487
asts 487
auxiliary 487
burn 487
destro@@ 487
loy@@ 487
mari@@ 487
nowadays 487
proves 487
shifted 487
tall 487
uk@@ 487
uncertain@@ 487
viewers 487
万多 487
买提 487
介绍所 487
判刑 487
国有资产 487
室@@ 487
巴以 487
拘@@ 487
来电 487
欺诈 487
灵活性 487
申奥 487
窄 487
贝 487
answers 486
belongs 486
cin@@ 486
disclosure 486
dongshan 486
expects 486
happens 486
indispensable 486
precautions 486
proc@@ 486
waged 486
不见 486
修读 486
儿女 486
农户 486
发局 486
塔尔 486
复核 486
妹 486
婴 486
界限 486
竞争能力 486
铲除 486
alternate 485
assured 485
custom@@ 485
duplic@@ 485
ethiop@@ 485
feels 485
layout 485
photographs 485
play@@ 485
prh 485
salt 485
sel 485
shif@@ 485
slovakia 485
stances 485
watches 485
中止 485
力求 485
墨 485
姑@@ 485
密切联系 485
广管局 485
快速增长 485
桩 485
汲取 485
畅 485
省区 485
研究生 485
空域 485
管辖 485
罪恶 485
诉求 485
走势 485
走进 485
鹏 485
40,000 484
arely 484
assess@@ 484
connections 484
discus@@ 484
inform@@ 484
lis@@ 484
phil@@ 484
revis@@ 484
shelters 484
staun@@ 484
traveling 484
交所 484
倒退 484
冰岛 484
十八个 484
外债 484
奎 484
提出申请 484
正当@@ 484
熙 484
路上 484
轻重 484
运载火箭 484
邹@@ 484
锁 484
院所 484
champion 483
corp 483
cure 483
dil@@ 483
duma 483
educ@@ 483
inadequate 483
istically 483
leban@@ 483
red@@ 483
ri 483
亦须 483
侧@@ 483
刚果 483
增添 483
无线@@ 483
清晨 483
统会 483
阐明 483
behavi@@ 482
dup 482
journ@@ 482
kinmen 482
uring 482
wn 482
yat 482
中小学 482
事长 482
公积金 482
国家元首 482
抢修 482
杜 482
温和 482
阳光 482
驳 482
doors 481
marg@@ 481
obscene 481
phr@@ 481
pien 481
resett@@ 481
rown 481
trains 481
丝毫 481
体验 481
保释 481
呈交 481
四五 481
型号 481
多样 481
将有助 481
报税 481
本年度 481
烟草 481
猖獗 481
科目 481
细致 481
表一 481
裕 481
覆 481
转交 481
雇 481
adhe@@ 480
armaments 480
ashing 480
comparable 480
contractual 480
entic@@ 480
errors 480
gas@@ 480
postponed 480
reflection 480
stre@@ 480
借助 480
剧院 480
募 480
吾@@ 480
女童 480
朝野 480
疫 480
病例 480
荷@@ 480
6.5 479
chose 479
cordi@@ 479
fuk 479
ier 479
obstruct 479
shine 479
sta@@ 479
twel@@ 479
vacancy 479
winds 479
不起 479
中国社会科学院 479
保持稳定 479
四十四 479
明确规定 479
李长春 479
氯@@ 479
秀 479
第五号 479
译@@ 479
1945 478
disregard 478
fabricated 478
minded 478
pei 478
racecour@@ 478
singing 478
suggest 478
surge 478
widen 478
五十万 478
保持良好 478
分工 478
双边协议 478
外事@@ 478
妻 478
悦 478
未获 478
留在 478
胆@@ 478
虎@@ 478
警报 478
闽@@ 478
附加费 478
面向@@ 478
booking 477
concentrating 477
counted 477
critic@@ 477
improper 477
lawful 477
mainstay 477
modified 477
prec@@ 477
projected 477
restor@@ 477
rigorous 477
scholar 477
thin@@ 477
tiny 477
上班 477
中介 477
五万 477
催@@ 477
克制 477
公正@@ 477
出示 477
割@@ 477
周刊 477
在野党 477
建议书 477
接驳 477
早时 477
明确提出 477
殊 477
沪 477
纪检@@ 477
蓄意 477
跟随 477
转介 477
运会 477
驭 477
aire 476
arab@@ 476
density 476
ecu@@ 476
individu@@ 476
iner@@ 476
interesting 476
itage 476
keeps 476
ordinarily 476
schedu@@ 476
seas 476
shadow 476
theast@@ 476
touched 476
上面 476
丝 476
刻意 476
原价 476
喻 476
尚有 476
徐 476
惩罚 476
沉重 476
畜@@ 476
自觉性 476
辅 476
郑 476
6.8 475
alistic 475
cpv 475
culprits 475
deals 475
ech@@ 475
illu@@ 475
inherent 475
reshuff@@ 475
stubbornly 475
wishing 475
zim@@ 475
五点 475
人体 475
嚣@@ 475
国军 475
离境 475
缉 475
裁减 475
说服 475
鸿 475
commerci@@ 474
evolution 474
lord 474
marc@@ 474
两场 474
余额 474
同行 474
哀@@ 474
团队 474
密集 474
总工会 474
普查 474
果断 474
海关@@ 474
漠 474
胡 474
那时 474
风格 474
199@@ 473
accessible 473
breaks 473
budgetary 473
dimensional 473
ext@@ 473
ipr 473
moder@@ 473
三种 473
侨胞 473
努力实现 473
咖啡 473
国际惯例 473
填补 473
实际@@ 473
律师@@ 473
扩 473
新一届 473
每名 473
特殊@@ 473
环球 473
遍@@ 473
鼠 473
ani 472
archi@@ 472
disneyland 472
draf@@ 472
explaining 472
gram 472
kau 472
marching 472
reserved 472
uniting 472
yielded 472
严格执行 472
八名 472
军兵种 472
弃@@ 472
扑@@ 472
拦@@ 472
明确指出 472
核电站 472
申诉 472
税费 472
贸易逆差 472
240 471
account@@ 471
aks 471
believers 471
fishery 471
ition 471
render 471
stic@@ 471
义务教育 471
台币 471
失望 471
妥善解决 471
所用 471
每周 471
究 471
贷@@ 471
bun 470
deter@@ 470
dilig@@ 470
dynam@@ 470
hegemonic 470
jac@@ 470
ograph@@ 470
praise 470
recycling 470
tenders 470
witnesses 470
专家@@ 470
从业员 470
工伤 470
廖@@ 470
扣押 470
竣工 470
经济损失 470
路向 470
逝世 470
问卷 470
骗案 470
260 469
conventions 469
custody 469
delegate 469
feedback 469
fishermen 469
lad@@ 469
lau@@ 469
opponent 469
refusal 469
scores 469
supervis@@ 469
won@@ 469
侵权 469
分项 469
君@@ 469
很少 469
批判 469
未必 469
篡@@ 469
细胞 469
薇 469
诞 469
check@@ 468
constituencies 468
evi@@ 468
substances 468
thrown 468
以供 468
休息 468
大法 468
泡@@ 468
滨@@ 468
积极开展 468
薄 468
蚊子 468
食用 468
aler@@ 467
gift 467
infringing 467
maneuver 467
objectively 467
peri@@ 467
regret@@ 467
repe@@ 467
tze 467
ulterior 467
一共 467
专题@@ 467
奸 467
成份 467
罕见 467
而定 467
这批 467
通车 467
麻 467
allevi@@ 466
angu@@ 466
antic@@ 466
backed 466
declining 466
defic@@ 466
deflation 466
fice 466
hitting 466
indicator 466
player 466
丁关根 466
不如 466
人流 466
双向 466
四天 466
打着 466
晶@@ 466
有望 466
波斯 466
润@@ 466
珍贵 466
精心@@ 466
罕@@ 466
荣幸 466
逐年 466
高龄 466
黄大仙 466
conve@@ 465
dist@@ 465
genuinely 465
importation 465
inappropriate 465
itz 465
主义者 465
改革@@ 465
河内 465
清单 465
演艺 465
生产者 465
该些 465
谨 465
配偶 465
高潮 465
bag@@ 464
imperial 464
npcsc 464
outsour@@ 464
persisted 464
seriousness 464
关键在于 464
剑@@ 464
卵@@ 464
国有@@ 464
扑灭 464
斯里兰卡 464
昨天@@ 464
榜 464
特惠 464
胶 464
ab 463
handover 463
inclusion 463
news@@ 463
obstructed 463
reversion 463
slowly 463
sp 463
一千五百 463
一处 463
不允许 463
分阶段 463
忠诚 463
或许 463
戴相龙 463
政界 463
海报 463
演员 463
激发 463
脉@@ 463
车臣 463
转机 463
载货 463
进行谈判 463
通社 463
阿扁 463
1981 462
acci@@ 462
accred@@ 462
anna 462
arer 462
edi@@ 462
exceptionally 462
lacking 462
mou 462
pei@@ 462
positioning 462
princi@@ 462
rated 462
repatri@@ 462
sured 462
transfer@@ 462
verbal 462
丰 462
主任委员 462
全文@@ 462
又@@ 462
反响 462
各党派 462
国际标准 462
夥 462
姆斯 462
有成效 462
有点 462
盗 462
第十个 462
谈判@@ 462
赞 462
arrivals 461
cigarette 461
developer 461
howard 461
icked 461
iro 461
nally 461
shoc@@ 461
weakened 461
亲人 461
吸引外资 461
太平 461
宏观 461
弘@@ 461
据说 461
术@@ 461
瓦解 461
自行@@ 461
逾期 461
魔@@ 461
7,000 460
forec@@ 460
lists 460
outflow 460
outlined 460
pos@@ 460
procession 460
rationally 460
兆 460
各项事业 460
回落 460
挚 460
数字@@ 460
最惠国 460
欧美 460
海舰队 460
癌 460
纳税人 460
西南 460
议会@@ 460
贸易区 460
连任 460
钻@@ 460
骚@@ 460
高涨 460
2.9 459
emphas@@ 459
itated 459
jinan 459
pus 459
recruited 459
worsening 459
司法部 459
国与国 459
测绘 459
璃 459
眼睛 459
虐 459
4.2 458
450 458
attaining 458
clou@@ 458
enro@@ 458
excep@@ 458
kazak@@ 458
pamph@@ 458
recognizing 458
signi@@ 458
worship 458
一倍 458
僚 458
列载 458
国家统计局 458
官僚主义 458
属下 458
模型 458
民主化 458
泳@@ 458
洛杉矶 458
百分之八点 458
经济运行 458
adjacent 457
bars 457
battal@@ 457
battle@@ 457
eff@@ 457
employ@@ 457
foods 457
harder 457
highlighted 457
nepalese 457
rey 457
shaking 457
串谋 457
哪个 457
媒@@ 457
巧@@ 457
扶贫开发 457
推展 457
炸 457
送到 457
黄菊 457
commissioning 456
dently 456
facilitation 456
jet 456
lg@@ 456
pay@@ 456
portfolio 456
protracted 456
rid@@ 456
tis@@ 456
waterfront 456
五是 456
产权 456
仲裁 456
先行 456
十五个 456
呈现出 456
尊重@@ 456
尔斯 456
岭@@ 456
开会 456
抬@@ 456
推进@@ 456
看好 456
称赞 456
表二 456
隆重 456
alu@@ 455
ample 455
cas 455
csd 455
deliberate 455
eggs 455
erred 455
iliation 455
nether@@ 455
solicit 455
佩 455
培训@@ 455
常常 455
懂@@ 455
杀案 455
清华大学 455
狭@@ 455
诫 455
课目 455
财力 455
360 454
ait 454
apartment 454
applies 454
codes 454
column 454
freight 454
meticulously 454
mped 454
ported 454
scho@@ 454
upsurge 454
utilis@@ 454
仇@@ 454
傲 454
加勒@@ 454
十万元 454
学费 454
宋楚瑜 454
工地 454
电影节 454
盐@@ 454
社工 454
祸 454
紧紧围绕 454
般 454
走过 454
accur@@ 453
clo@@ 453
entr@@ 453
gifts 453
grass@@ 453
sang 453
优秀@@ 453
幻 453
曝@@ 453
检察官 453
永 453
滚@@ 453
线路 453
较长 453
这部 453
马鞍山 453
&apos;an 452
5.6 452
fares 452
finish 452
gras@@ 452
iso@@ 452
pages 452
particul@@ 452
pharmac@@ 452
sett@@ 452
shock 452
skilled 452
tend 452
vation 452
主动@@ 452
乃 452
卡斯特罗 452
古迹 452
川@@ 452
役@@ 452
挖掘 452
斐 452
精英 452
赖昌星 452
防疫 452
abusers 451
everyday 451
pensions 451
scattered 451
sep@@ 451
volunteer 451
刺@@ 451
勇于 451
召 451
拘留 451
救护 451
无产阶级 451
流行@@ 451
涨@@ 451
点六 451
独联体 451
经济区 451
统计@@ 451
蓬勃 451
装修 451
车主 451
过关 451
邻邦 451
accommodate 450
asses 450
assisted 450
buddh@@ 450
constitu@@ 450
lodged 450
maneu@@ 450
pang 450
putonghua 450
sarg 450
similarly 450
sit@@ 450
tolerance 450
web@@ 450
不单 450
审判@@ 450
漠@@ 450
煤炭 450
留学生 450
精彩 450
遵照 450
286@@ 449
awa 449
contro@@ 449
eleven 449
evaluate 449
foodstuffs 449
gem@@ 449
hsiung 449
legally 449
pigs 449
poss@@ 449
rents 449
scrupul@@ 449
solely 449
workforce 449
交通运输 449
仓@@ 449
内部事务 449
哲@@ 449
在世界上 449
地质@@ 449
好事 449
怡@@ 449
救助 449
敦@@ 449
更佳 449
氏@@ 449
演变 449
美台 449
陪@@ 449
1.0 448
dispar@@ 448
joy 448
kilo@@ 448
maced@@ 448
station@@ 448
中国银行 448
使命感 448
惩教 448
泛珠三角 448
粒@@ 448
芯@@ 448
隐患 448
132 447
3.7 447
4.3 447
burst 447
div@@ 447
gov@@ 447
infrastructural 447
lc@@ 447
passes 447
periodic@@ 447
tendencies 447
theat@@ 447
whilst 447
令人满意 447
劝 447
尺 447
放开 447
注明 447
缅@@ 447
航行 447
观察员 447
金融服务 447
accumulation 446
conducts 446
digit 446
seem 446
voluntarily 446
上次 446
仰@@ 446
千万元 446
急剧 446
深深 446
男性 446
考量 446
aided 445
cyber 445
endanger 445
focuses 445
scholar@@ 445
separating 445
soes 445
不必 445
即可 445
厄@@ 445
囊 445
国务@@ 445
已获 445
床@@ 445
捐赠 445
派位 445
载人 445
descriptions 444
emsd 444
legislator 444
movies 444
negotiating 444
outbreaks 444
relieve 444
三至 444
丧@@ 444
图案 444
外国@@ 444
契 444
指令 444
普遍认为 444
枪支 444
民用 444
第二天 444
部件 444
阔@@ 444
accomplishments 443
aforementioned 443
alled 443
block@@ 443
deal@@ 443
embezz@@ 443
secur@@ 443
stments 443
suffici@@ 443
umes 443
三十一 443
二岁 443
代理商 443
俩 443
十六大 443
[...]
